{
  "version": "1.0",
  "truncation": null,
  "padding": null,
  "added_tokens": [
    {
      "id": 24567,
      "content": "<|bos|>",
      "single_word": false,
      "lstrip": false,
      "rstrip": false,
      "normalized": false,
      "special": true
    },
    {
      "id": 24568,
      "content": "<|user_start|>",
      "single_word": false,
      "lstrip": false,
      "rstrip": false,
      "normalized": false,
      "special": true
    },
    {
      "id": 24569,
      "content": "<|user_end|>",
      "single_word": false,
      "lstrip": false,
      "rstrip": false,
      "normalized": false,
      "special": true
    },
    {
      "id": 24570,
      "content": "<|assistant_start|>",
      "single_word": false,
      "lstrip": false,
      "rstrip": false,
      "normalized": false,
      "special": true
    },
    {
      "id": 24571,
      "content": "<|assistant_end|>",
      "single_word": false,
      "lstrip": false,
      "rstrip": false,
      "normalized": false,
      "special": true
    },
    {
      "id": 24572,
      "content": "<|python_start|>",
      "single_word": false,
      "lstrip": false,
      "rstrip": false,
      "normalized": false,
      "special": true
    },
    {
      "id": 24573,
      "content": "<|python_end|>",
      "single_word": false,
      "lstrip": false,
      "rstrip": false,
      "normalized": false,
      "special": true
    },
    {
      "id": 24574,
      "content": "<|output_start|>",
      "single_word": false,
      "lstrip": false,
      "rstrip": false,
      "normalized": false,
      "special": true
    },
    {
      "id": 24575,
      "content": "<|output_end|>",
      "single_word": false,
      "lstrip": false,
      "rstrip": false,
      "normalized": false,
      "special": true
    }
  ],
  "normalizer": null,
  "pre_tokenizer": {
    "type": "Sequence",
    "pretokenizers": [
      {
        "type": "Split",
        "pattern": {
          "Regex": "[^\\r\\n\\p{L}\\p{N}]?+\\p{L}+|\\p{N}{1,2}| ?[^\\s\\p{L}\\p{N}]++[\\r\\n]*|\\s*[\\r\\n]|\\s+(?!\\S)|\\s+"
        },
        "behavior": "Isolated",
        "invert": false
      },
      {
        "type": "ByteLevel",
        "add_prefix_space": false,
        "trim_offsets": true,
        "use_regex": false
      }
    ]
  },
  "post_processor": null,
  "decoder": {
    "type": "ByteLevel",
    "add_prefix_space": true,
    "trim_offsets": true,
    "use_regex": true
  },
  "model": {
    "type": "BPE",
    "dropout": null,
    "unk_token": null,
    "continuing_subword_prefix": null,
    "end_of_word_suffix": null,
    "fuse_unk": false,
    "byte_fallback": false,
    "ignore_merges": false,
    "vocab": {
      "Ā": 0,
      "ā": 1,
      "Ă": 2,
      "ă": 3,
      "Ą": 4,
      "ą": 5,
      "Ć": 6,
      "ć": 7,
      "Ĉ": 8,
      "ĉ": 9,
      "Ċ": 10,
      "ċ": 11,
      "Č": 12,
      "č": 13,
      "Ď": 14,
      "ď": 15,
      "Đ": 16,
      "đ": 17,
      "Ē": 18,
      "ē": 19,
      "Ĕ": 20,
      "ĕ": 21,
      "Ė": 22,
      "ė": 23,
      "Ę": 24,
      "ę": 25,
      "Ě": 26,
      "ě": 27,
      "Ĝ": 28,
      "ĝ": 29,
      "Ğ": 30,
      "ğ": 31,
      "Ġ": 32,
      "!": 33,
      "\"": 34,
      "#": 35,
      "$": 36,
      "%": 37,
      "&": 38,
      "'": 39,
      "(": 40,
      ")": 41,
      "*": 42,
      "+": 43,
      ",": 44,
      "-": 45,
      ".": 46,
      "/": 47,
      "0": 48,
      "1": 49,
      "2": 50,
      "3": 51,
      "4": 52,
      "5": 53,
      "6": 54,
      "7": 55,
      "8": 56,
      "9": 57,
      ":": 58,
      ";": 59,
      "<": 60,
      "=": 61,
      ">": 62,
      "?": 63,
      "@": 64,
      "A": 65,
      "B": 66,
      "C": 67,
      "D": 68,
      "E": 69,
      "F": 70,
      "G": 71,
      "H": 72,
      "I": 73,
      "J": 74,
      "K": 75,
      "L": 76,
      "M": 77,
      "N": 78,
      "O": 79,
      "P": 80,
      "Q": 81,
      "R": 82,
      "S": 83,
      "T": 84,
      "U": 85,
      "V": 86,
      "W": 87,
      "X": 88,
      "Y": 89,
      "Z": 90,
      "[": 91,
      "\\": 92,
      "]": 93,
      "^": 94,
      "_": 95,
      "`": 96,
      "a": 97,
      "b": 98,
      "c": 99,
      "d": 100,
      "e": 101,
      "f": 102,
      "g": 103,
      "h": 104,
      "i": 105,
      "j": 106,
      "k": 107,
      "l": 108,
      "m": 109,
      "n": 110,
      "o": 111,
      "p": 112,
      "q": 113,
      "r": 114,
      "s": 115,
      "t": 116,
      "u": 117,
      "v": 118,
      "w": 119,
      "x": 120,
      "y": 121,
      "z": 122,
      "{": 123,
      "|": 124,
      "}": 125,
      "~": 126,
      "ġ": 127,
      "Ģ": 128,
      "ģ": 129,
      "Ĥ": 130,
      "ĥ": 131,
      "Ħ": 132,
      "ħ": 133,
      "Ĩ": 134,
      "ĩ": 135,
      "Ī": 136,
      "ī": 137,
      "Ĭ": 138,
      "ĭ": 139,
      "Į": 140,
      "į": 141,
      "İ": 142,
      "ı": 143,
      "Ĳ": 144,
      "ĳ": 145,
      "Ĵ": 146,
      "ĵ": 147,
      "Ķ": 148,
      "ķ": 149,
      "ĸ": 150,
      "Ĺ": 151,
      "ĺ": 152,
      "Ļ": 153,
      "ļ": 154,
      "Ľ": 155,
      "ľ": 156,
      "Ŀ": 157,
      "ŀ": 158,
      "Ł": 159,
      "ł": 160,
      "¡": 161,
      "¢": 162,
      "£": 163,
      "¤": 164,
      "¥": 165,
      "¦": 166,
      "§": 167,
      "¨": 168,
      "©": 169,
      "ª": 170,
      "«": 171,
      "¬": 172,
      "Ń": 173,
      "®": 174,
      "¯": 175,
      "°": 176,
      "±": 177,
      "²": 178,
      "³": 179,
      "´": 180,
      "µ": 181,
      "¶": 182,
      "·": 183,
      "¸": 184,
      "¹": 185,
      "º": 186,
      "»": 187,
      "¼": 188,
      "½": 189,
      "¾": 190,
      "¿": 191,
      "À": 192,
      "Á": 193,
      "Â": 194,
      "Ã": 195,
      "Ä": 196,
      "Å": 197,
      "Æ": 198,
      "Ç": 199,
      "È": 200,
      "É": 201,
      "Ê": 202,
      "Ë": 203,
      "Ì": 204,
      "Í": 205,
      "Î": 206,
      "Ï": 207,
      "Ð": 208,
      "Ñ": 209,
      "Ò": 210,
      "Ó": 211,
      "Ô": 212,
      "Õ": 213,
      "Ö": 214,
      "×": 215,
      "Ø": 216,
      "Ù": 217,
      "Ú": 218,
      "Û": 219,
      "Ü": 220,
      "Ý": 221,
      "Þ": 222,
      "ß": 223,
      "à": 224,
      "á": 225,
      "â": 226,
      "ã": 227,
      "ä": 228,
      "å": 229,
      "æ": 230,
      "ç": 231,
      "è": 232,
      "é": 233,
      "ê": 234,
      "ë": 235,
      "ì": 236,
      "í": 237,
      "î": 238,
      "ï": 239,
      "ð": 240,
      "ñ": 241,
      "ò": 242,
      "ó": 243,
      "ô": 244,
      "õ": 245,
      "ö": 246,
      "÷": 247,
      "ø": 248,
      "ù": 249,
      "ú": 250,
      "û": 251,
      "ü": 252,
      "ý": 253,
      "þ": 254,
      "ÿ": 255,
      "an": 256,
      "ou": 257,
      "Ã¨": 258,
      "on": 259,
      "Ġp": 260,
      "Ġk": 261,
      "Ġa": 262,
      "en": 263,
      "Ġs": 264,
      "Ġn": 265,
      "Ġy": 266,
      "Ġl": 267,
      "Ġt": 268,
      "Ġnan": 269,
      "Ġm": 270,
      "re": 271,
      "Ġd": 272,
      "Ã²": 273,
      "Ġyo": 274,
      "te": 275,
      "ti": 276,
      "sy": 277,
      "Ġak": 278,
      "ri": 279,
      "al": 280,
      "Ġf": 281,
      "Ġan": 282,
      "Ġe": 283,
      "syon": 284,
      "Ġb": 285,
      "Ġki": 286,
      "ch": 287,
      "Ġpou": 288,
      "Ġla": 289,
      "Ġyon": 290,
      "is": 291,
      "in": 292,
      "ra": 293,
      "Ġpa": 294,
      "Ġg": 295,
      "man": 296,
      "wa": 297,
      "Ġde": 298,
      "ye": 299,
      "Ġse": 300,
      ".Ċ": 301,
      "le": 302,
      "Ġte": 303,
      "Ġli": 304,
      "li": 305,
      "Ġkon": 306,
      "wo": 307,
      "Ġv": 308,
      "Ġj": 309,
      "ĠS": 310,
      "Ġre": 311,
      "Ġou": 312,
      "Ġka": 313,
      "il": 314,
      "Ġsa": 315,
      "se": 316,
      "Ã¨t": 317,
      "ran": 318,
      "Ġo": 319,
      "ĠA": 320,
      "ĠP": 321,
      "Ġsou": 322,
      "ĠM": 323,
      "Ã¨l": 324,
      "oun": 325,
      "ĠL": 326,
      "tÃ¨": 327,
      "Ġen": 328,
      "wen": 329,
      "ik": 330,
      "ay": 331,
      "Ġgen": 332,
      "Ġtou": 333,
      "as": 334,
      "asyon": 335,
      "de": 336,
      "Ġap": 337,
      "Ġnou": 338,
      "it": 339,
      "er": 340,
      "Ġch": 341,
      "ĠK": 342,
      "ak": 343,
      "Ã²m": 344,
      "ĠfÃ¨": 345,
      "Ġdi": 346,
      "yen": 347,
      "si": 348,
      "Ġpi": 349,
      "ĠD": 350,
      "ĠB": 351,
      "Ġpwo": 352,
      "ta": 353,
      "iz": 354,
      "ĠC": 355,
      "ar": 356,
      "pi": 357,
      "pe": 358,
      "om": 359,
      "Ã²t": 360,
      "ĠE": 361,
      "je": 362,
      "at": 363,
      "ĠT": 364,
      "ĠN": 365,
      "ans": 366,
      "ite": 367,
      "Ġ(": 368,
      "rÃ¨": 369,
      "es": 370,
      "Ġmen": 371,
      "20": 372,
      "Ġmoun": 373,
      "di": 374,
      "vÃ¨": 375,
      "ĠF": 376,
      "Ġke": 377,
      "yÃ¨": 378,
      "Ġi": 379,
      "ol": 380,
      "ab": 381,
      "anm": 382,
      "Ġw": 383,
      "Ġsi": 384,
      "Ġtan": 385,
      "Ġpl": 386,
      "Ġ:": 387,
      "ke": 388,
      "ĠR": 389,
      "st": 390,
      "ĠJ": 391,
      "ĠG": 392,
      "ve": 393,
      "Ġtout": 394,
      "zi": 395,
      "ze": 396,
      "Ġek": 397,
      "dan": 398,
      "vi": 399,
      "ral": 400,
      "yi": 401,
      "tik": 402,
      "Ġso": 403,
      "lo": 404,
      "me": 405,
      "Ã©": 406,
      "aj": 407,
      "Ġme": 408,
      "ap": 409,
      "we": 410,
      "Ġko": 411,
      "swa": 412,
      "Ġpo": 413,
      "Ġba": 414,
      "ĠO": 415,
      "Ġma": 416,
      "che": 417,
      "âĢ": 418,
      "Ġkou": 419,
      "Ġepi": 420,
      "sp": 421,
      "Ġlan": 422,
      "to": 423,
      "Ġoswa": 424,
      "ĠI": 425,
      "Ġmwen": 426,
      "ond": 427,
      "Ġsan": 428,
      "yon": 429,
      "lÃ¨": 430,
      "van": 431,
      "Ġ-": 432,
      "Ġpe": 433,
      "19": 434,
      "la": 435,
      "ren": 436,
      "Ġman": 437,
      "fe": 438,
      "wi": 439,
      "Ġbon": 440,
      "or": 441,
      "pil": 442,
      "Ġti": 443,
      "Ġpral": 444,
      "Ġpre": 445,
      "ĠSe": 446,
      "tre": 447,
      "tan": 448,
      "ro": 449,
      "kou": 450,
      "ĠsÃ¨": 451,
      "am": 452,
      "wÃ²": 453,
      "ini": 454,
      "ĠY": 455,
      "ĠLi": 456,
      "ĠlÃ²t": 457,
      "yÃ¨l": 458,
      "men": 459,
      "sÃ¨": 460,
      "yo": 461,
      "ĠV": 462,
      "ĠkÃ²m": 463,
      "Ġtra": 464,
      "ati": 465,
      "Ġmo": 466,
      "ĠlÃ¨": 467,
      "Ġkap": 468,
      "ksyon": 469,
      "ĠpÃ¨": 470,
      "Ġmenm": 471,
      "Ġkont": 472,
      "tili": 473,
      "Ġkonp": 474,
      "ad": 475,
      "Ġgwo": 476,
      "tÃ¨n": 477,
      "Ġsoti": 478,
      "ĠH": 479,
      "Ġz": 480,
      "Ġjan": 481,
      "wenn": 482,
      "Ġdwe": 483,
      "el": 484,
      "Ġitili": 485,
      "vo": 486,
      "ĠAn": 487,
      "ĠkÃ²": 488,
      "Ġvi": 489,
      "Ã¨n": 490,
      "ki": 491,
      "Ġanpil": 492,
      "ist": 493,
      "alite": 494,
      "Ġes": 495,
      "Ġta": 496,
      "ann": 497,
      "Ã¨k": 498,
      "..": 499,
      "ĠW": 500,
      "Ġjwenn": 501,
      "rik": 502,
      "Ġplis": 503,
      "Ġle": 504,
      "sa": 505,
      "Ġbay": 506,
      "Ġra": 507,
      "Ġbyen": 508,
      "ez": 509,
      "dik": 510,
      "vay": 511,
      "Ã²l": 512,
      "tis": 513,
      "ur": 514,
      "ris": 515,
      "Ġpase": 516,
      "nen": 517,
      "Ġpeyi": 518,
      "tin": 519,
      "fi": 520,
      "be": 521,
      "Ã²n": 522,
      "Ġkote": 523,
      "and": 524,
      "rans": 525,
      "ĠsÃ¨l": 526,
      "ter": 527,
      "sye": 528,
      "Ġpran": 529,
      "Ã²d": 530,
      "ji": 531,
      "pÃ²t": 532,
      "ize": 533,
      "andan": 534,
      "Ġ\"": 535,
      "po": 536,
      "out": 537,
      "Ġtravay": 538,
      "jou": 539,
      "ske": 540,
      "Ġtankou": 541,
      "rasyon": 542,
      "ĠCh": 543,
      "dwi": 544,
      "ine": 545,
      "Ġitilize": 546,
      "ant": 547,
      "pÃ²": 548,
      "Ġfas": 549,
      "Ġvle": 550,
      "one": 551,
      "tif": 552,
      "vÃ¨k": 553,
      "ĠLa": 554,
      "pri": 555,
      "ĠâĢ": 556,
      "ĠentÃ¨n": 557,
      "10": 558,
      "ale": 559,
      "Ġran": 560,
      "Ġrez": 561,
      "Ġc": 562,
      "bli": 563,
      "mi": 564,
      "Ġri": 565,
      "et": 566,
      "enn": 567,
      "gay": 568,
      "pa": 569,
      "chin": 570,
      "vwa": 571,
      "Ġsit": 572,
      "ni": 573,
      "ba": 574,
      "ĊĊ": 575,
      "ge": 576,
      "Ġkalite": 577,
      "Ġkapab": 578,
      "Ġbagay": 579,
      "ing": 580,
      "fÃ¨": 581,
      "jan": 582,
      "yan": 583,
      "fÃ²m": 584,
      "bi": 585,
      "zan": 586,
      "ĠSi": 587,
      "Ã¨s": 588,
      "ok": 589,
      "Ġjou": 590,
      "Ġfi": 591,
      "kon": 592,
      "atÃ¨": 593,
      "kte": 594,
      "ĠtÃ¨t": 595,
      "syal": 596,
      "Ġmete": 597,
      "fik": 598,
      "gra": 599,
      "Ġ'": 600,
      "ĠkÃ¨k": 601,
      "ĠNan": 602,
      "ĠwÃ¨": 603,
      "ĠavÃ¨k": 604,
      "ĠentÃ¨nÃ¨t": 605,
      "Ġgra": 606,
      "kÃ²": 607,
      "Ġkom": 608,
      "Ġeg": 609,
      "ĠRe": 610,
      "Ġpri": 611,
      "os": 612,
      "ma": 613,
      "ĠDe": 614,
      "Ġpati": 615,
      "Ġeksp": 616,
      "ce": 617,
      "psyon": 618,
      "rite": 619,
      "ĠSa": 620,
      "Ġkan": 621,
      "Ġkonnen": 622,
      "ezwen": 623,
      "ĠKon": 624,
      "Ġchak": 625,
      "wÃ¨t": 626,
      "vis": 627,
      "Ġbezwen": 628,
      "Ġvin": 629,
      "Ġfanm": 630,
      "ot": 631,
      "mye": 632,
      "Ġal": 633,
      "Ġdis": 634,
      "ĠU": 635,
      "Ġga": 636,
      "yans": 637,
      "Ġane": 638,
      "Ġkre": 639,
      "Ġkonsa": 640,
      "Ġchan": 641,
      "san": 642,
      "lan": 643,
      "ĠMa": 644,
      "Ġpwodwi": 645,
      "lis": 646,
      "pon": 647,
      "un": 648,
      "ĠEn": 649,
      "ĠNou": 650,
      "Ġ,": 651,
      "qu": 652,
      "Ġmon": 653,
      "ip": 654,
      "Ġsen": 655,
      "pre": 656,
      "yal": 657,
      "vri": 658,
      "Ġ/": 659,
      "Ġsis": 660,
      "ĠÂ": 661,
      "ĠOu": 662,
      "ĠPa": 663,
      "ĠJe": 664,
      "ĠkÃ²man": 665,
      "us": 666,
      "ck": 667,
      "ĠfÃ¨t": 668,
      "min": 669,
      "ya": 670,
      "Ġgenyen": 671,
      "ĠLe": 672,
      "Ġmou": 673,
      "Ġren": 674,
      "Ġrive": 675,
      "ĠsÃ¨vi": 676,
      "wou": 677,
      "ĠMen": 678,
      "mÃ¨t": 679,
      "jÃ¨": 680,
      "Ġof": 681,
      "las": 682,
      "he": 683,
      ")Ċ": 684,
      "ĠPou": 685,
      "Ġant": 686,
      "?Ċ": 687,
      "ĠsÃ¨lman": 688,
      "'ap": 689,
      "Ġok": 690,
      "nman": 691,
      "tÃ¨m": 692,
      "Ġjis": 693,
      "Ġmwa": 694,
      "id": 695,
      "ĠLÃ¨": 696,
      "Ġnon": 697,
      "leman": 698,
      "Ġni": 699,
      "ayi": 700,
      "olo": 701,
      "syen": 702,
      "Ġnouvo": 703,
      "Ġin": 704,
      "ondye": 705,
      "ĠfÃ²m": 706,
      "Ġkli": 707,
      "zyÃ¨": 708,
      "Ġale": 709,
      "Ġtoujou": 710,
      "moun": 711,
      "Ġpiti": 712,
      "ounen": 713,
      "Ġespe": 714,
      "De": 715,
      "if": 716,
      "wÃ¨": 717,
      "ib": 718,
      "ĠYo": 719,
      "disyon": 720,
      "Ġdife": 721,
      "00": 722,
      "enpÃ²t": 723,
      "12": 724,
      "Ġpandan": 725,
      "ul": 726,
      "An": 727,
      "syÃ¨l": 728,
      "Ġbou": 729,
      "ka": 730,
      "18": 731,
      "zon": 732,
      "son": 733,
      "ĠBondye": 734,
      "Ġyoun": 735,
      "ate": 736,
      "Ġmal": 737,
      "Ġdes": 738,
      "ĠjwÃ¨t": 739,
      "Ġapre": 740,
      "Ġje": 741,
      "Ġpaske": 742,
      "ne": 743,
      "Ġdo": 744,
      "lik": 745,
      "do": 746,
      "Ġpremye": 747,
      "ci": 748,
      "Ġfin": 749,
      "ry": 750,
      "Ġgran": 751,
      "tiv": 752,
      "ĠtrÃ¨": 753,
      "ĠsÃ¨vis": 754,
      "ĠnenpÃ²t": 755,
      "Ġrenmen": 756,
      "15": 757,
      "Ġ..": 758,
      "Ġmak": 759,
      "im": 760,
      "rann": 761,
      "kri": 762,
      "Ġpwob": 763,
      "ote": 764,
      "yaj": 765,
      "won": 766,
      "Ġchwa": 767,
      "Ġmachin": 768,
      "sis": 769,
      "ĠfÃ²": 770,
      "tal": 771,
      "ga": 772,
      "ĠZ": 773,
      "fÃ²": 774,
      "Ġeta": 775,
      "istri": 776,
      "gan": 777,
      "Ġat": 778,
      "lÃ¨m": 779,
      "ĠYon": 780,
      "ĠtÃ¨": 781,
      "Ġest": 782,
      "Ġede": 783,
      "fÃ²masyon": 784,
      "Ġfwa": 785,
      "Ġmande": 786,
      "Ġrele": 787,
      "diksyon": 788,
      "ble": 789,
      "kn": 790,
      "11": 791,
      "ason": 792,
      "wÃ²p": 793,
      "ĠMwen": 794,
      "Ġmache": 795,
      "Re": 796,
      "Ġvo": 797,
      "ĠchÃ¨": 798,
      "ĠenpÃ²t": 799,
      "Ġwo": 800,
      "ons": 801,
      "),": 802,
      ":Ċ": 803,
      "lek": 804,
      "alÃ¨": 805,
      "Ġanba": 806,
      "Ġkay": 807,
      "Ġlavi": 808,
      "eral": 809,
      "Ġente": 810,
      "ĠMe": 811,
      "ĠÃ": 812,
      "go": 813,
      "ĠAyi": 814,
      "ard": 815,
      "od": 816,
      "Se": 817,
      "Ġjen": 818,
      "ĠpwoblÃ¨m": 819,
      "Ġmanje": 820,
      "Ġach": 821,
      "rÃ¨s": 822,
      "Ġdep": 823,
      "ĠkÃ²manse": 824,
      "vil": 825,
      "Ã¨y": 826,
      "Ġdlo": 827,
      "Ġgou": 828,
      "Ki": 829,
      "gre": 830,
      "taj": 831,
      "vÃ¨s": 832,
      "enbe": 833,
      "Ġans": 834,
      "Ġfo": 835,
      "Ġdev": 836,
      "so": 837,
      "Ġfason": 838,
      "ven": 839,
      "sip": 840,
      "anse": 841,
      "Ġpale": 842,
      "16": 843,
      "Ġrete": 844,
      "Ġesp": 845,
      "Ġmond": 846,
      "ous": 847,
      "Ġokenn": 848,
      "Ġlon": 849,
      "Ġad": 850,
      "Ġmil": 851,
      "mo": 852,
      "ĠsistÃ¨m": 853,
      "ĠKi": 854,
      "Nan": 855,
      "da": 856,
      "Ġpitit": 857,
      "Ġfon": 858,
      "yÃ²": 859,
      "ĠenpÃ²tan": 860,
      "Ġne": 861,
      "pli": 862,
      "asyonal": 863,
      "Ġasi": 864,
      "op": 865,
      "Ġladan": 866,
      "Ġpli": 867,
      "ks": 868,
      "Ġlim": 869,
      "Ġab": 870,
      "14": 871,
      "Ġgratis": 872,
      "Ġkat": 873,
      "Ġet": 874,
      "ĠenfÃ²masyon": 875,
      "17": 876,
      "Li": 877,
      "Ġdwa": 878,
      "Ġame": 879,
      "13": 880,
      "ktÃ¨": 881,
      "wÃ²l": 882,
      "Ġkenbe": 883,
      "ĠPwo": 884,
      "Ġmi": 885,
      "Ġrese": 886,
      "chÃ¨": 887,
      "zisyon": 888,
      "Ġantre": 889,
      "ĠPre": 890,
      "tite": 891,
      "jman": 892,
      "âĢĻ": 893,
      "ĠAl": 894,
      "Ġofri": 895,
      "Ġchwazi": 896,
      "ferans": 897,
      "ĠMar": 898,
      "side": 899,
      "Ġtekn": 900,
      ".ĊĊ": 901,
      "Ġsik": 902,
      "Ġdiferan": 903,
      "gram": 904,
      "Ġekip": 905,
      "Ġfasil": 906,
      "Ġlajan": 907,
      "Ġansanm": 908,
      "tid": 909,
      "Ġvwa": 910,
      "21": 911,
      "ĠDi": 912,
      "Ġgade": 913,
      "ĠIn": 914,
      "les": 915,
      "Ġbwa": 916,
      "30": 917,
      "Ġanvan": 918,
      "gman": 919,
      "Ġgason": 920,
      "rÃ¨t": 921,
      "Ġkonpayi": 922,
      "Ġviz": 923,
      "th": 924,
      "teryÃ¨l": 925,
      "co": 926,
      "wal": 927,
      "tion": 928,
      "Ġbat": 929,
      "ĠMo": 930,
      "zyon": 931,
      "Ġkite": 932,
      "Ġmontre": 933,
      "um": 934,
      "Ġkliyan": 935,
      "Ġresevwa": 936,
      "kla": 937,
      "Ġpote": 938,
      "ĠbÃ²": 939,
      "St": 940,
      "Ġtele": 941,
      "ĠankÃ²": 942,
      "deyo": 943,
      "ĠTe": 944,
      "Ġpouvwa": 945,
      "lite": 946,
      "AN": 947,
      "Ġdevlo": 948,
      "Si": 949,
      "ounye": 950,
      "lye": 951,
      "oloji": 952,
      "au": 953,
      "âĢĿ": 954,
      "ĠdeyÃ²": 955,
      "Ġpwose": 956,
      "Ġim": 957,
      "Ġens": 958,
      "ag": 959,
      "Ġdepi": 960,
      "Ġfanmi": 961,
      "nis": 962,
      "Ġplas": 963,
      "Ġmod": 964,
      "vÃ¨nman": 965,
      "ĠÃ²": 966,
      "Ġespesyal": 967,
      "Ġvil": 968,
      "ja": 969,
      "bo": 970,
      "ĠpÃ¨mÃ¨t": 971,
      "tim": 972,
      "Ġvini": 973,
      "Ġh": 974,
      "Ġtran": 975,
      "fis": 976,
      "ĠÃ¨": 977,
      "ir": 978,
      "riken": 979,
      "yasyon": 980,
      "likasyon": 981,
      "Ġpopil": 982,
      "ĠJo": 983,
      "Ġkomin": 984,
      "ed": 985,
      "rÃ¨l": 986,
      "gi": 987,
      "Ġkreye": 988,
      "ĠbÃ¨l": 989,
      "ko": 990,
      "Ġviv": 991,
      "Ġitiliz": 992,
      "zidan": 993,
      "Ġfe": 994,
      "ĠPi": 995,
      "Ġjwe": 996,
      "Ġkontin": 997,
      "blik": 998,
      "tire": 999,
      "ton": 1000,
      ").": 1001,
      "kÃ²l": 1002,
      "-De": 1003,
      "!Ċ": 1004,
      "ĠkonsÃ¨": 1005,
      "ondÃ¨": 1006,
      "Nou": 1007,
      "seye": 1008,
      "viz": 1009,
      "Ġekri": 1010,
      "ĠâĢľ": 1011,
      "byen": 1012,
      "Ġachte": 1013,
      "like": 1014,
      "Ġrey": 1015,
      "ene": 1016,
      "Ġtimoun": 1017,
      "ver": 1018,
      "Ġpwote": 1019,
      "sib": 1020,
      "Ġegz": 1021,
      "Ġres": 1022,
      "Ġplan": 1023,
      "iznis": 1024,
      "Ġfen": 1025,
      "ĠGen": 1026,
      "ital": 1027,
      "Ġis": 1028,
      "Ġkons": 1029,
      "jis": 1030,
      "ca": 1031,
      "ĠMi": 1032,
      "res": 1033,
      "tori": 1034,
      "Ġcho": 1035,
      "ui": 1036,
      "distri": 1037,
      "gle": 1038,
      "Ġavan": 1039,
      "rin": 1040,
      "pandan": 1041,
      "Ġdevan": 1042,
      "ĠmateryÃ¨l": 1043,
      "Ġdef": 1044,
      "Ġkara": 1045,
      "ĠzÃ²n": 1046,
      "izasyon": 1047,
      "isa": 1048,
      "Pou": 1049,
      "50": 1050,
      "avi": 1051,
      "Ġenst": 1052,
      "Yon": 1053,
      "Ġogman": 1054,
      "bin": 1055,
      "ent": 1056,
      "Ġjanm": 1057,
      "Ġtwa": 1058,
      "Ġvoye": 1059,
      "gondÃ¨": 1060,
      "aje": 1061,
      "val": 1062,
      "Ġ.": 1063,
      "asite": 1064,
      "Ġr": 1065,
      "kirite": 1066,
      "Ġpren": 1067,
      "Ġkounye": 1068,
      "ON": 1069,
      "up": 1070,
      "lekt": 1071,
      "chÃ¨ch": 1072,
      "Ġ|": 1073,
      "Ġkantite": 1074,
      "ern": 1075,
      "Ġvideyo": 1076,
      "pÃ²te": 1077,
      "Ġbiznis": 1078,
      "sepsyon": 1079,
      "ĠplizyÃ¨": 1080,
      "ai": 1081,
      "ĠvÃ¨": 1082,
      "ac": 1083,
      "Ġye": 1084,
      "eryans": 1085,
      "ĠRo": 1086,
      "ĠpwÃ²p": 1087,
      "Ġel": 1088,
      "Ġajou": 1089,
      "ĠAyiti": 1090,
      "rab": 1091,
      "anmi": 1092,
      "izik": 1093,
      "ĠAp": 1094,
      "Ġmin": 1095,
      "ĠÃ²gan": 1096,
      "Ġpwen": 1097,
      "Ġdom": 1098,
      "tu": 1099,
      "Ġkri": 1100,
      "Ġnati": 1101,
      "Ġvit": 1102,
      "Ste": 1103,
      "pl": 1104,
      "Ġliv": 1105,
      "wit": 1106,
      "ber": 1107,
      "bil": 1108,
      "gh": 1109,
      "vÃ¨l": 1110,
      "Ġfak": 1111,
      "ĠlÃ²d": 1112,
      "Ġpwosesis": 1113,
      "Ġtre": 1114,
      "que": 1115,
      "Ġkondisyon": 1116,
      "ÃĪ": 1117,
      "Ġbi": 1118,
      "25": 1119,
      "ĠentÃ¨": 1120,
      "Ġkal": 1121,
      "zanp": 1122,
      "ts": 1123,
      "Ġot": 1124,
      "ĠpÃ²": 1125,
      "Ġpeye": 1126,
      "ph": 1127,
      "Ġpoli": 1128,
      "ĠAk": 1129,
      "priye": 1130,
      "Ġtounen": 1131,
      "gn": 1132,
      "Ġlang": 1133,
      "mon": 1134,
      "ov": 1135,
      "ara": 1136,
      "ĠNe": 1137,
      "lÃ¨t": 1138,
      "atri": 1139,
      "Ġob": 1140,
      "Ġ&": 1141,
      "der": 1142,
      "Ġdispon": 1143,
      "ino": 1144,
      "oo": 1145,
      "Ch": 1146,
      "zini": 1147,
      "Ġlavil": 1148,
      "Ġchanje": 1149,
      "ola": 1150,
      "Ġlanm": 1151,
      "Ã¨nye": 1152,
      "Ġpye": 1153,
      "ita": 1154,
      "woup": 1155,
      "tÃ¨t": 1156,
      "vizyon": 1157,
      "Ġfil": 1158,
      "plis": 1159,
      "Ġendistri": 1160,
      "Ġdiri": 1161,
      "lyo": 1162,
      "waye": 1163,
      "istans": 1164,
      "Ġtab": 1165,
      "ĠrechÃ¨ch": 1166,
      "Ġlo": 1167,
      "Ġeksperyans": 1168,
      "eri": 1169,
      "Ġope": 1170,
      "Ġmas": 1171,
      "our": 1172,
      "leksyon": 1173,
      "Ġanvi": 1174,
      "ĠLachin": 1175,
      "ristik": 1176,
      "Kon": 1177,
      "ĠpÃ¨p": 1178,
      "Ġdone": 1179,
      "wiv": 1180,
      "ation": 1181,
      "Ġprensip": 1182,
      "site": 1183,
      "ĠsegondÃ¨": 1184,
      "lon": 1185,
      "Ġpanse": 1186,
      "pman": 1187,
      "Ġ...Ċ": 1188,
      "syonÃ¨l": 1189,
      "ĠEta": 1190,
      "ake": 1191,
      "Ġkra": 1192,
      "kteristik": 1193,
      "Ġasire": 1194,
      "ilta": 1195,
      "Ġrepon": 1196,
      "chan": 1197,
      "odi": 1198,
      "oli": 1199,
      "zyÃ¨m": 1200,
      "rit": 1201,
      "Mwen": 1202,
      "uil": 1203,
      "Ġdisponib": 1204,
      "ĠSeyÃ¨": 1205,
      "itan": 1206,
      "fÃ²n": 1207,
      "ĠrÃ¨": 1208,
      "Ġogmante": 1209,
      "tra": 1210,
      "alman": 1211,
      "Ġsenp": 1212,
      "Ġlou": 1213,
      "Ġlis": 1214,
      "22": 1215,
      "ĠkoulÃ¨": 1216,
      "Ġenv": 1217,
      "Ġpat": 1218,
      "Ġreyal": 1219,
      "Ġwa": 1220,
      "her": 1221,
      "Ġfoto": 1222,
      "ĠFo": 1223,
      "Ġwou": 1224,
      "Ġamelyo": 1225,
      "ĠdÃ¨": 1226,
      "Sa": 1227,
      "Ġaplikasyon": 1228,
      "lasyon": 1229,
      "Ġdeja": 1230,
      "Ġdou": 1231,
      "Ġelekt": 1232,
      "adi": 1233,
      "chi": 1234,
      "Ġdire": 1235,
      "zante": 1236,
      "ting": 1237,
      "ĠitilizatÃ¨": 1238,
      "Ġche": 1239,
      "Ġdosye": 1240,
      "ang": 1241,
      "Ġsante": 1242,
      "arÃ¨y": 1243,
      "nan": 1244,
      "yÃ²l": 1245,
      "arye": 1246,
      "Ġmanif": 1247,
      "Ġlap": 1248,
      "tasyon": 1249,
      "Ġpwogram": 1250,
      "va": 1251,
      "Ġkontinye": 1252,
      "Ġdan": 1253,
      "omi": 1254,
      "Ġsekirite": 1255,
      "ĠrapÃ²": 1256,
      "Ġmouri": 1257,
      "yÃ¨m": 1258,
      "Ġpwodiksyon": 1259,
      "lu": 1260,
      "tab": 1261,
      "land": 1262,
      "Ġsanti": 1263,
      "ĠlimyÃ¨": 1264,
      "Ġatra": 1265,
      "Ġegzanp": 1266,
      "Ġsoli": 1267,
      "Ġtrans": 1268,
      "Ġsosyal": 1269,
      "ĠAme": 1270,
      "Ġban": 1271,
      "ĠpÃ¨son": 1272,
      "ĠdÃ¨nye": 1273,
      "ĠSan": 1274,
      "atik": 1275,
      "Ġseri": 1276,
      "Ġkonside": 1277,
      "Ġakt": 1278,
      "ĠkÃ¨": 1279,
      "Ġfini": 1280,
      "com": 1281,
      "yÃ¨lman": 1282,
      "wÃ²nman": 1283,
      "Ġson": 1284,
      "lase": 1285,
      "Ġsouvan": 1286,
      "Ġkesyon": 1287,
      "istwa": 1288,
      "ĠsÃ¨t": 1289,
      "Ġkwa": 1290,
      "rati": 1291,
      "-L": 1292,
      "Pwo": 1293,
      "pte": 1294,
      "ers": 1295,
      "aden": 1296,
      "Pa": 1297,
      "ste": 1298,
      "Ġjeneral": 1299,
      "Ġsant": 1300,
      "za": 1301,
      "Ã¨v": 1302,
      "ly": 1303,
      "ĠMan": 1304,
      "Ġajoute": 1305,
      "ĠPe": 1306,
      "Ġkonprann": 1307,
      "Ġrezon": 1308,
      "Ġrezilta": 1309,
      "ĠiP": 1310,
      "Ġchat": 1311,
      "ĠakÃ²": 1312,
      "24": 1313,
      "Ġisit": 1314,
      "Ġatik": 1315,
      "ĠÃ¨d": 1316,
      "Ġfran": 1317,
      "ĠKou": 1318,
      "ĠpopilÃ¨": 1319,
      "bal": 1320,
      "-B": 1321,
      "hi": 1322,
      "ĠaparÃ¨y": 1323,
      "onn": 1324,
      "riksyon": 1325,
      "Ou": 1326,
      "kripsyon": 1327,
      "Ġkle": 1328,
      "ron": 1329,
      "Ġ...": 1330,
      "tansyon": 1331,
      "jyon": 1332,
      "Ġret": 1333,
      "Ġ.Ċ": 1334,
      "apre": 1335,
      "pare": 1336,
      "ĠlekÃ²l": 1337,
      "Ġlong": 1338,
      "rÃ©": 1339,
      "ĠSo": 1340,
      "Ġmat": 1341,
      "Ġoubyen": 1342,
      "ËĲ": 1343,
      "Ġpwof": 1344,
      "Ġnese": 1345,
      "mans": 1346,
      "Ġzanmi": 1347,
      "fikasyon": 1348,
      "ĠatravÃ¨": 1349,
      "Ġpap": 1350,
      "ore": 1351,
      "ex": 1352,
      "ĠËĲ": 1353,
      "Ġkonsepsyon": 1354,
      "Ġkab": 1355,
      "OU": 1356,
      "Ġeseye": 1357,
      "atman": 1358,
      ".M": 1359,
      "mÃ¨n": 1360,
      "En": 1361,
      "Ġlak": 1362,
      "ĠSou": 1363,
      "ade": 1364,
      "isÃ¨": 1365,
      "Ġji": 1366,
      "Ġenk": 1367,
      "Ġles": 1368,
      "ari": 1369,
      "Al": 1370,
      "akti": 1371,
      "Ġistwa": 1372,
      "Ġsezon": 1373,
      "Ġnivo": 1374,
      "Ġleg": 1375,
      "EN": 1376,
      "lin": 1377,
      "are": 1378,
      "Ġfim": 1379,
      "Ġamelyore": 1380,
      "outi": 1381,
      "Ġmitan": 1382,
      "Ġgwoup": 1383,
      "Ġsanble": 1384,
      "Ġleve": 1385,
      "Ġfaktori": 1386,
      "Ġdepo": 1387,
      "ktif": 1388,
      "aks": 1389,
      "erry": 1390,
      "Ġpiblik": 1391,
      "jik": 1392,
      "Ġrekon": 1393,
      "ho": 1394,
      "ĠfÃ²s": 1395,
      "Ġlw": 1396,
      "Ġkanpe": 1397,
      "ĠâĢ¢": 1398,
      "tivite": 1399,
      "Ġton": 1400,
      "ĠprÃ¨": 1401,
      "ple": 1402,
      "Ġlok": 1403,
      "Ġkarakteristik": 1404,
      "Ġkontak": 1405,
      "ĠX": 1406,
      "ĠTout": 1407,
      "Ġanyen": 1408,
      "olon": 1409,
      "Ġjaden": 1410,
      "Ġkil": 1411,
      "ĠpoutÃ¨t": 1412,
      "Ġjodi": 1413,
      "Ġmennen": 1414,
      "Ġkouri": 1415,
      "Ġteknoloji": 1416,
      "Ġmed": 1417,
      "ĠnatirÃ¨l": 1418,
      "Ġkone": 1419,
      "Ġklas": 1420,
      "ĠUS": 1421,
      "ĠpÃ¨di": 1422,
      "Ġann": 1423,
      "ĠDate": 1424,
      "aske": 1425,
      "Ġsiti": 1426,
      "Ġkonn": 1427,
      "tisyon": 1428,
      "Ġkonf": 1429,
      "Ġpwofe": 1430,
      "Ġon": 1431,
      "Ġbati": 1432,
      "Ġfa": 1433,
      "Ġlwen": 1434,
      "ic": 1435,
      ").Ċ": 1436,
      "40": 1437,
      "ĠefÃ¨": 1438,
      "ĠchÃ¨che": 1439,
      "Ġrad": 1440,
      "Ġpwa": 1441,
      "tman": 1442,
      "vÃ¨ti": 1443,
      "Ġprensipal": 1444,
      "Ġper": 1445,
      "til": 1446,
      "ĠanviwÃ²nman": 1447,
      "Ġplat": 1448,
      "Ã²ti": 1449,
      "Ġwout": 1450,
      "Ġmet": 1451,
      "dans": 1452,
      "ĠJezi": 1453,
      "Ġvwayaj": 1454,
      "Ġkapasite": 1455,
      "Ġposib": 1456,
      "kisa": 1457,
      "Ġnwa": 1458,
      "Ġam": 1459,
      "ĠtÃ¨m": 1460,
      "ounisÃ¨": 1461,
      "ratik": 1462,
      "Ġvann": 1463,
      ".C": 1464,
      "ue": 1465,
      "inyon": 1466,
      "Ġreyalize": 1467,
      "yÃ²m": 1468,
      "Ġkonsidere": 1469,
      "ikasyon": 1470,
      "liv": 1471,
      "Ġand": 1472,
      "mewo": 1473,
      "Ġmanifakti": 1474,
      "ow": 1475,
      "jen": 1476,
      "ĠnesesÃ¨": 1477,
      "ĠApre": 1478,
      "ĠbÃ¨t": 1479,
      "Ġekipman": 1480,
      "Ġmake": 1481,
      "LÃ¨": 1482,
      "Ġenf": 1483,
      "jans": 1484,
      "Ġefik": 1485,
      "ty": 1486,
      "Ġdirije": 1487,
      "'a": 1488,
      "zen": 1489,
      "grafi": 1490,
      "ĠmÃ¨t": 1491,
      "Ġliy": 1492,
      "fisil": 1493,
      "Ġekon": 1494,
      "don": 1495,
      "IN": 1496,
      "Ġfonksyon": 1497,
      "atriye": 1498,
      "Ġpolitik": 1499,
      "atif": 1500,
      "Ġdola": 1501,
      "ĠMoun": 1502,
      "Ġdekla": 1503,
      "Ġdu": 1504,
      "Ġdifisil": 1505,
      "Ġsisp": 1506,
      "ĠDes": 1507,
      "ux": 1508,
      "raj": 1509,
      "ĠâĢĵ": 1510,
      "sizyon": 1511,
      "Ġsip": 1512,
      "Ġref": 1513,
      "Ġtwal": 1514,
      "Ġini": 1515,
      "Ġresp": 1516,
      "Ġdet": 1517,
      "ĠFran": 1518,
      "hone": 1519,
      "ĠTan": 1520,
      "Ġlouvri": 1521,
      "Ġkontan": 1522,
      "ĠAr": 1523,
      "Ã²b": 1524,
      "ĠMon": 1525,
      "Ġmedik": 1526,
      "chen": 1527,
      "Ġdevlope": 1528,
      "kan": 1529,
      "liz": 1530,
      "Ġapwo": 1531,
      "ole": 1532,
      "Ġimaj": 1533,
      "vni": 1534,
      "Ġali": 1535,
      "Ġrankon": 1536,
      "Ġelatriye": 1537,
      "Men": 1538,
      "zino": 1539,
      "Ġmoman": 1540,
      "ĠPri": 1541,
      "kÃ²z": 1542,
      "Ġpaj": 1543,
      "23": 1544,
      ".com": 1545,
      "taje": 1546,
      "Ġayi": 1547,
      "Ġgranmoun": 1548,
      "Ġtri": 1549,
      "Ġop": 1550,
      "Ġcha": 1551,
      "Ġrelasyon": 1552,
      "ĠtelefÃ²n": 1553,
      "ust": 1554,
      "ort": 1555,
      "Ġas": 1556,
      "ire": 1557,
      "esans": 1558,
      "ray": 1559,
      "ĠkontwÃ²l": 1560,
      "ĠparÃ¨t": 1561,
      "dikasyon": 1562,
      "striksyon": 1563,
      "ÃŃ": 1564,
      "ĠSÃ¨": 1565,
      "Ġkontni": 1566,
      "Ġbaze": 1567,
      "Ġswen": 1568,
      "Ġtransp": 1569,
      "Ġmes": 1570,
      "Ġmove": 1571,
      "Ġlakay": 1572,
      "ĠkwÃ¨": 1573,
      "ĠsemÃ¨n": 1574,
      "ment": 1575,
      "Ã¨g": 1576,
      "Ġmaladi": 1577,
      "Ġblan": 1578,
      "ps": 1579,
      "Ã²ch": 1580,
      "cide": 1581,
      "dy": 1582,
      "Ġaprann": 1583,
      "jektif": 1584,
      ";Ċ": 1585,
      "dÃ¨": 1586,
      "rij": 1587,
      "Ġmanm": 1588,
      "ĠNew": 1589,
      "ĠKa": 1590,
      "ĠpwojÃ¨": 1591,
      "ub": 1592,
      "Ġpen": 1593,
      "Ġteknik": 1594,
      "ĠSen": 1595,
      "Ġmobil": 1596,
      "ilye": 1597,
      "ĠdirÃ¨": 1598,
      "Ġbaz": 1599,
      "vite": 1600,
      "Ġva": 1601,
      "Ġlaj": 1602,
      "Ġswiv": 1603,
      "lÃ¨v": 1604,
      "Ġaplike": 1605,
      "Ġsol": 1606,
      "Ġpousan": 1607,
      "ĠEtazini": 1608,
      "ĠpwofesyonÃ¨l": 1609,
      "sit": 1610,
      "Pre": 1611,
      "oud": 1612,
      "aman": 1613,
      "ĠdivÃ¨s": 1614,
      "poze": 1615,
      "bisyon": 1616,
      "Ġzouti": 1617,
      "isk": 1618,
      "Ġkout": 1619,
      "herm": 1620,
      "ĠtÃ¨s": 1621,
      "ĠÂ«": 1622,
      "Ġmoute": 1623,
      "int": 1624,
      "wope": 1625,
      "ome": 1626,
      "'ex": 1627,
      "ĠRi": 1628,
      "ut": 1629,
      "yid": 1630,
      "ernin": 1631,
      "La": 1632,
      "Ġpro": 1633,
      "Ġretire": 1634,
      "Ġkazino": 1635,
      "-Bel": 1636,
      "ĠIz": 1637,
      "Referans": 1638,
      "cideuil": 1639,
      "ĠgwosÃ¨": 1640,
      "anda": 1641,
      "vye": 1642,
      "kÃ²man": 1643,
      "Ġentere": 1644,
      "Ġfre": 1645,
      "-BelvÃ¨s": 1646,
      "bilite": 1647,
      "ĠFoy": 1648,
      "edard": 1649,
      "ĠpÃ¨sonÃ¨l": 1650,
      ".Medard": 1651,
      "'excideuil": 1652,
      "'excideuilSt": 1653,
      "Ġmizik": 1654,
      "ID": 1655,
      "ĠvalÃ¨": 1656,
      "-BelvÃ¨sSte": 1657,
      "Ġtonbe": 1658,
      "yab": 1659,
      "'herm": 1660,
      ".Cernin": 1661,
      "'hermSt": 1662,
      "Ġechan": 1663,
      "Ġkoupe": 1664,
      "ĠJean": 1665,
      "ĠMin": 1666,
      "ĠfÃ¨men": 1667,
      "ff": 1668,
      "fas": 1669,
      "rikti": 1670,
      "Ġansyen": 1671,
      "ĠÃĪ": 1672,
      "Ġ$": 1673,
      "renn": 1674,
      "80": 1675,
      "Ġpataje": 1676,
      "tisman": 1677,
      "Ġtande": 1678,
      "Ġchanjman": 1679,
      "ĠÂ·": 1680,
      "iste": 1681,
      "ĠmodÃ¨l": 1682,
      "ru": 1683,
      "Ġaksyon": 1684,
      "Ġpan": 1685,
      "fye": 1686,
      "ĠBo": 1687,
      "ĠiPhone": 1688,
      "Ġkontra": 1689,
      "ĠEntÃ¨n": 1690,
      "dui": 1691,
      "wopeyen": 1692,
      "Ġetid": 1693,
      "Ġbene": 1694,
      "ase": 1695,
      "bre": 1696,
      "Ġvire": 1697,
      "60": 1698,
      "ĠTi": 1699,
      "tic": 1700,
      "ĠgouvÃ¨nman": 1701,
      "Ġlyen": 1702,
      "Ġopsyon": 1703,
      "koura": 1704,
      "Ġpratik": 1705,
      "Ġotom": 1706,
      "ĠpÃ²t": 1707,
      "Ġtren": 1708,
      "Ġdevlopman": 1709,
      "Ġbe": 1710,
      "Ġlokal": 1711,
      "Ã¨ji": 1712,
      "Ġchans": 1713,
      "Ġaktivite": 1714,
      "ĠSh": 1715,
      "09": 1716,
      "Ġsatis": 1717,
      "kiman": 1718,
      "tÃ¨s": 1719,
      "Ã¨ks": 1720,
      "Ġlontan": 1721,
      "IS": 1722,
      "perati": 1723,
      "Ġdat": 1724,
      "Pi": 1725,
      "rijin": 1726,
      "Ġespas": 1727,
      "Ġase": 1728,
      "ĠkonplÃ¨": 1729,
      "Ġayisyen": 1730,
      "Ġoto": 1731,
      "Lyen": 1732,
      "Ġenp": 1733,
      "pid": 1734,
      "ĠlakÃ²z": 1735,
      "rate": 1736,
      "Ġkonpe": 1737,
      "ĠFerry": 1738,
      "Ġjwi": 1739,
      "mann": 1740,
      "ĠBi": 1741,
      "AS": 1742,
      "Ġasye": 1743,
      "rye": 1744,
      "Ġmach": 1745,
      "Ãł": 1746,
      "Ġple": 1747,
      "Ġlide": 1748,
      "ĠMal": 1749,
      "Ġdesann": 1750,
      "isi": 1751,
      "wÃ²n": 1752,
      "ĠsipÃ²": 1753,
      "Ġbout": 1754,
      "ĠaksÃ¨": 1755,
      "ĠfrÃ¨": 1756,
      "Ġobli": 1757,
      "Ã¡": 1758,
      "Ġenves": 1759,
      "Ġfra": 1760,
      "ĠAyisyen": 1761,
      "fwa": 1762,
      "ĠTra": 1763,
      "ranje": 1764,
      "ĠBe": 1765,
      "vman": 1766,
      "Ġranpli": 1767,
      "ĠVi": 1768,
      "ĠklÃ¨": 1769,
      "ĠentÃ¨nasyonal": 1770,
      "Ã²din": 1771,
      "wis": 1772,
      "ĠLes": 1773,
      "Ġvre": 1774,
      "Ġreg": 1775,
      "fisyÃ¨l": 1776,
      "Ġmonte": 1777,
      "ĠCar": 1778,
      "sin": 1779,
      "Ġjiska": 1780,
      "Ġreponn": 1781,
      "ani": 1782,
      "Ġeleman": 1783,
      "stwa": 1784,
      "ĠSepandan": 1785,
      "ast": 1786,
      "Ġang": 1787,
      "ĠÃ©": 1788,
      "Ġsal": 1789,
      "ĠEwopeyen": 1790,
      "Ġmezi": 1791,
      "Ġosi": 1792,
      "Ġsans": 1793,
      "Ġakse": 1794,
      "ĠnouvÃ¨l": 1795,
      "mwen": 1796,
      "ct": 1797,
      "Ġsous": 1798,
      "ĠQ": 1799,
      "Ġoperasyon": 1800,
      "rie": 1801,
      "ĠrekÃ²man": 1802,
      "05": 1803,
      "08": 1804,
      "kipe": 1805,
      "olis": 1806,
      "Ġmilyon": 1807,
      "26": 1808,
      "ĠÂ»": 1809,
      "art": 1810,
      "Ġâ": 1811,
      "rez": 1812,
      "Ġrezo": 1813,
      "ER": 1814,
      "fÃ²mans": 1815,
      "Ġnimewo": 1816,
      "ĠjwÃ¨": 1817,
      "line": 1818,
      "Ġblo": 1819,
      "Gen": 1820,
      "Ġfab": 1821,
      "Ġlane": 1822,
      "Ġetap": 1823,
      "Ġrepre": 1824,
      "Ġkol": 1825,
      "Ġrankontre": 1826,
      "av": 1827,
      "ami": 1828,
      "27": 1829,
      "Ġsispann": 1830,
      "Ġprezante": 1831,
      "Ġkominote": 1832,
      "tor": 1833,
      "Ġsek": 1834,
      "Ġlwil": 1835,
      "rat": 1836,
      "Ġbwat": 1837,
      "end": 1838,
      "Ġrejyon": 1839,
      "kouraje": 1840,
      "onsab": 1841,
      "Ġfranse": 1842,
      "pt": 1843,
      "plwaye": 1844,
      "ĠdÃ¨yÃ¨": 1845,
      "04": 1846,
      "Ġplen": 1847,
      "Ġgrandi": 1848,
      "90": 1849,
      "Ġmwens": 1850,
      "AT": 1851,
      "Ġkontwo": 1852,
      "Ġvarye": 1853,
      "Ġve": 1854,
      "ina": 1855,
      "ĠrÃ¨g": 1856,
      "28": 1857,
      "teur": 1858,
      "ĠBa": 1859,
      "06": 1860,
      "ĠKan": 1861,
      "...Ċ": 1862,
      "Ġdanje": 1863,
      "ĠGran": 1864,
      "Ġswa": 1865,
      "ĠreyÃ¨l": 1866,
      "Ġsolisyon": 1867,
      "Ġchanm": 1868,
      "Ġto": 1869,
      "mm": 1870,
      "ĠIzra": 1871,
      "Ġkonpo": 1872,
      "Ġesta": 1873,
      "Ġthe": 1874,
      "Ġpak": 1875,
      "Ġorijin": 1876,
      "alis": 1877,
      "ĠjÃ¨n": 1878,
      "Ġklike": 1879,
      "zÃ¨": 1880,
      "ĠFe": 1881,
      "yÃ¨n": 1882,
      "gÃ¨": 1883,
      "sipe": 1884,
      "rid": 1885,
      "jistre": 1886,
      "ĠenÃ¨ji": 1887,
      "ikÃ¨": 1888,
      "Ġapwopriye": 1889,
      "sta": 1890,
      "minye": 1891,
      "Ġresponsab": 1892,
      "Ġmesaj": 1893,
      "ĠfounisÃ¨": 1894,
      "Ġpwoteksyon": 1895,
      "Ġfou": 1896,
      "ifye": 1897,
      "-a": 1898,
      "ĠavÃ¨": 1899,
      "spe": 1900,
      "zo": 1901,
      "ĠdezyÃ¨m": 1902,
      "Ġpatik": 1903,
      "01": 1904,
      "Te": 1905,
      "ding": 1906,
      "Ġekst": 1907,
      "du": 1908,
      "Ġtretman": 1909,
      "ĠÃ²ganizasyon": 1910,
      "tyen": 1911,
      "ĠAd": 1912,
      "ĠTou": 1913,
      "erre": 1914,
      "Ã¨lman": 1915,
      "onse": 1916,
      "ĠCo": 1917,
      "vant": 1918,
      "cheke": 1919,
      "ler": 1920,
      "ĠAnplis": 1921,
      "Ġnonm": 1922,
      "Ġtouye": 1923,
      "Ġlwa": 1924,
      "yÃ¨man": 1925,
      "ha": 1926,
      "Ġdistri": 1927,
      "Ġtanperati": 1928,
      "ĠnÃ²m": 1929,
      "Ã³": 1930,
      "Ġze": 1931,
      "ĠJan": 1932,
      "Ġretounen": 1933,
      "...": 1934,
      "ĠPrezidan": 1935,
      "Ap": 1936,
      "bÃ²l": 1937,
      "Ġreyalite": 1938,
      "Ġgaz": 1939,
      "ces": 1940,
      "Ġatansyon": 1941,
      "Ġpapye": 1942,
      "ĠpÃ¨fÃ²mans": 1943,
      "ise": 1944,
      "ĠelÃ¨v": 1945,
      "peche": 1946,
      "ĠsatisfÃ¨": 1947,
      "Ġbal": 1948,
      "iki": 1949,
      "Ġenstale": 1950,
      "omin": 1951,
      "Ġobjektif": 1952,
      "ĠÃ²din": 1953,
      "ĠakÃ²z": 1954,
      "Ġeste": 1955,
      "07": 1956,
      "Ġtwou": 1957,
      "ĠItal": 1958,
      "ĠPo": 1959,
      "ĠEpi": 1960,
      "ĠAmeriken": 1961,
      "Ġmaga": 1962,
      "Ġlib": 1963,
      "Ġsitou": 1964,
      "ord": 1965,
      "Kou": 1966,
      "Ġkouvri": 1967,
      "gu": 1968,
      "ĠsyÃ¨l": 1969,
      "Ġime": 1970,
      "Ġco": 1971,
      "ĠÃĪske": 1972,
      "ĠlÃ¨t": 1973,
      "ĠPro": 1974,
      "gasyon": 1975,
      "Ġdiminye": 1976,
      "pou": 1977,
      "Ġdokiman": 1978,
      "payi": 1979,
      "nÃ¨": 1980,
      "Ġpwoteje": 1981,
      "Ġtot": 1982,
      "ĠsÃ²ti": 1983,
      "ric": 1984,
      "ĠLu": 1985,
      "Ġmar": 1986,
      "ali": 1987,
      "Ġ[": 1988,
      "misyon": 1989,
      "ĠsipÃ²te": 1990,
      ",Ċ": 1991,
      "Ġpousantaj": 1992,
      "Ġlari": 1993,
      "gen": 1994,
      "Ġameriken": 1995,
      "ĠÃł": 1996,
      "Ã©s": 1997,
      "Ġdwat": 1998,
      "ĠtikÃ¨": 1999,
      "29": 2000,
      "Ġbiwo": 2001,
      "Ġkilti": 2002,
      "ĠevÃ¨nman": 2003,
      "kt": 2004,
      "Ġplant": 2005,
      "Ġchita": 2006,
      "ong": 2007,
      "Ġrapid": 2008,
      "Ġekspo": 2009,
      "rÃ¨man": 2010,
      "Ġkonfyans": 2011,
      "ĠLo": 2012,
      "ten": 2013,
      "Ġanpeche": 2014,
      "bliye": 2015,
      "Ġ+": 2016,
      "ĠsiksÃ¨": 2017,
      "Ġtiyo": 2018,
      "tivman": 2019,
      "ĠIzrayÃ¨l": 2020,
      "03": 2021,
      "Ġati": 2022,
      "Ġsak": 2023,
      "sÃ¨y": 2024,
      "Ġzi": 2025,
      "ĠKÃ²m": 2026,
      "wayaj": 2027,
      "Ġanwo": 2028,
      "vriye": 2029,
      "ranti": 2030,
      "Ġmedya": 2031,
      "sh": 2032,
      "Ġpatisipe": 2033,
      "Ġvizite": 2034,
      "Ġdefini": 2035,
      "jisyÃ¨l": 2036,
      "31": 2037,
      "Ġespesyalman": 2038,
      "Ġvy": 2039,
      "Ġbil": 2040,
      "ĠKo": 2041,
      "prime": 2042,
      "ĠsÃ¨ten": 2043,
      "Ġsitiyasyon": 2044,
      "Ãłn": 2045,
      "Ġgrenn": 2046,
      "ĠIni": 2047,
      "ilÃ¨": 2048,
      "Ġanplwaye": 2049,
      "wayen": 2050,
      "Ġplezi": 2051,
      "Ġekonom": 2052,
      "Ã¨si": 2053,
      "syete": 2054,
      "pit": 2055,
      "Ġkontwole": 2056,
      "ĠBon": 2057,
      "ĠSte": 2058,
      "Ġpon": 2059,
      "ĠÃ¨dtan": 2060,
      "Ã¨b": 2061,
      "Ġkonekte": 2062,
      "jÃ¨n": 2063,
      "sans": 2064,
      "Ġavantaj": 2065,
      "ratÃ¨": 2066,
      "Ġkoute": 2067,
      "ĠlanmÃ¨": 2068,
      "Ġankouraje": 2069,
      "ĠAvÃ¨k": 2070,
      "ĠNi": 2071,
      "Ġav": 2072,
      "Ġris": 2073,
      "est": 2074,
      "ĠmetÃ²d": 2075,
      "kteman": 2076,
      "Ġlage": 2077,
      "fere": 2078,
      "tifye": 2079,
      "Ġkonte": 2080,
      "Ġotomatik": 2081,
      "Ġdetay": 2082,
      "Ġble": 2083,
      "oogle": 2084,
      "ĠkonsÃ¨y": 2085,
      "eng": 2086,
      "ÃĪske": 2087,
      "Ġpozisyon": 2088,
      "Ġkonfi": 2089,
      "sign": 2090,
      "ike": 2091,
      "ĠBar": 2092,
      "itÃ¨": 2093,
      "ĠMas": 2094,
      "ĠGe": 2095,
      "Ġnasyonal": 2096,
      "ĠSal": 2097,
      "oktÃ¨": 2098,
      "ĠvÃ¨syon": 2099,
      "Ġvan": 2100,
      "ĠsyÃ¨": 2101,
      "Ġkraze": 2102,
      "jeneral": 2103,
      "uro": 2104,
      "sidan": 2105,
      "Ġekran": 2106,
      "dia": 2107,
      "ĠAf": 2108,
      "yÃ²d": 2109,
      "Ġanal": 2110,
      "lim": 2111,
      "Ġrem": 2112,
      "Ġkras": 2113,
      "OS": 2114,
      "ĠtwÃ²": 2115,
      "Ġespesi": 2116,
      "Je": 2117,
      "ĠprÃ¨ske": 2118,
      "redi": 2119,
      "ras": 2120,
      "MD": 2121,
      "ĠEsp": 2122,
      "Ġprezidan": 2123,
      "vÃ¨site": 2124,
      "Ġanti": 2125,
      "02": 2126,
      "IT": 2127,
      "ĠFi": 2128,
      "ES": 2129,
      "yÃ¨s": 2130,
      "\"Ċ": 2131,
      "ĠJu": 2132,
      "ĠmotÃ¨": 2133,
      "ĠrekonÃ¨t": 2134,
      "ĠtranspÃ²": 2135,
      "Ġidan": 2136,
      "ĠGu": 2137,
      "Ġkore": 2138,
      "Ġtann": 2139,
      "Ġank": 2140,
      "des": 2141,
      "ĠFÃ¨": 2142,
      "ĠvitÃ¨s": 2143,
      "Ġsouf": 2144,
      "santre": 2145,
      "Ġelektrik": 2146,
      "ĠkomÃ¨s": 2147,
      "disyonÃ¨l": 2148,
      ".-": 2149,
      "tinite": 2150,
      "Ġefikas": 2151,
      "fekte": 2152,
      "ĠPandan": 2153,
      "Ġpapa": 2154,
      "Ġpar": 2155,
      "ĠCon": 2156,
      "Ġmaketing": 2157,
      "bon": 2158,
      "Ġestanda": 2159,
      "ĠJen": 2160,
      "Ġapa": 2161,
      "kip": 2162,
      "ĠchalÃ¨": 2163,
      "Ġsifas": 2164,
      "Ã²k": 2165,
      "Ġekse": 2166,
      "ĠDu": 2167,
      "ĠofisyÃ¨l": 2168,
      "Ġkole": 2169,
      "pÃ²tinite": 2170,
      "Le": 2171,
      "Ġmanman": 2172,
      "pozisyon": 2173,
      "Ġpwopriye": 2174,
      "Ġpibliye": 2175,
      "Ġavanse": 2176,
      "ank": 2177,
      "-p": 2178,
      "Ġdapre": 2179,
      "Ġvye": 2180,
      "Ġkondwi": 2181,
      "len": 2182,
      "Ġdeside": 2183,
      "woyid": 2184,
      "Ġtanpri": 2185,
      "Ġsenk": 2186,
      "Ġpoud": 2187,
      "Ġmagazen": 2188,
      "ĠThe": 2189,
      "ĠfÃ²masyon": 2190,
      "Ġun": 2191,
      "ĠEk": 2192,
      "Ġranp": 2193,
      "syan": 2194,
      "Ġfond": 2195,
      "aksyon": 2196,
      "dis": 2197,
      "Ġrepons": 2198,
      "rd": 2199,
      "Ġminit": 2200,
      "Ġmisk": 2201,
      "ĠchÃ¨f": 2202,
      "tt": 2203,
      "Ġmaj": 2204,
      "ĠSam": 2205,
      "Ġmetal": 2206,
      "na": 2207,
      "Ġgrav": 2208,
      "gori": 2209,
      "Ġral": 2210,
      "vize": 2211,
      "ĠTh": 2212,
      "ĠMinis": 2213,
      "35": 2214,
      "Ġjouk": 2215,
      "ĠkonplÃ¨t": 2216,
      "ags": 2217,
      "cha": 2218,
      "Ġdesizyon": 2219,
      "Ġeks": 2220,
      "Ġado": 2221,
      "Ġtrete": 2222,
      "70": 2223,
      "Ġprive": 2224,
      "Ġkomen": 2225,
      "ram": 2226,
      "Ġestrikti": 2227,
      "rejistre": 2228,
      "ĠCom": 2229,
      "vÃ¨re": 2230,
      "ĠkonplÃ¨tman": 2231,
      "avid": 2232,
      "ĠenterÃ¨": 2233,
      "titisyon": 2234,
      "ĠkÃ²d": 2235,
      "ĠkreyÃ²l": 2236,
      "AL": 2237,
      "99": 2238,
      "voka": 2239,
      "AlvÃ¨re": 2240,
      "ĠNo": 2241,
      "rou": 2242,
      "ss": 2243,
      "Ġdireksyon": 2244,
      "Ġchaje": 2245,
      "ght": 2246,
      "Ġcon": 2247,
      "bou": 2248,
      "Yo": 2249,
      "AlvÃ¨reSte": 2250,
      "yiz": 2251,
      "Ġnasyon": 2252,
      "sim": 2253,
      "ĠlojisyÃ¨l": 2254,
      "Ġantye": 2255,
      "ĠaktyÃ¨l": 2256,
      "tes": 2257,
      "ĠplatfÃ²m": 2258,
      "den": 2259,
      "ĠsolÃ¨y": 2260,
      "ĠPl": 2261,
      "antou": 2262,
      "AR": 2263,
      "Istwa": 2264,
      "minist": 2265,
      "ĠmÃ²n": 2266,
      "ĠAb": 2267,
      "stal": 2268,
      "ĠsyÃ¨k": 2269,
      "Ġep": 2270,
      "Ġsot": 2271,
      "ĠMenm": 2272,
      "Ġajan": 2273,
      "ep": 2274,
      "ezon": 2275,
      "ill": 2276,
      "ĠsijÃ¨": 2277,
      "Ġkonsantre": 2278,
      "Ġkonsom": 2279,
      "td": 2280,
      "ĠopÃ²tinite": 2281,
      "ito": 2282,
      "ĠEwÃ²p": 2283,
      "ana": 2284,
      "ĠflÃ¨": 2285,
      "ĠdÃ©": 2286,
      "lip": 2287,
      "Ġsil": 2288,
      "ĠGoogle": 2289,
      "olojik": 2290,
      "ustom": 2291,
      "ĠfÃ²me": 2292,
      "Ġtcheke": 2293,
      "ĠperyÃ²d": 2294,
      "Ġtelevizyon": 2295,
      "Ġgaranti": 2296,
      "Ġchache": 2297,
      "tye": 2298,
      "ĠpawÃ²l": 2299,
      "ptanm": 2300,
      "lam": 2301,
      "ĠÃ²dinatÃ¨": 2302,
      "Ġnet": 2303,
      "Ġsiy": 2304,
      "Ġbran": 2305,
      "minyÃ²m": 2306,
      "ure": 2307,
      "tÃ©": 2308,
      "Ġsib": 2309,
      "Ġjounen": 2310,
      "Ġmili": 2311,
      "ovanm": 2312,
      "akte": 2313,
      "ĠIMD": 2314,
      "yografi": 2315,
      "ama": 2316,
      "ĠrekÃ²mande": 2317,
      "ĠIs": 2318,
      "tar": 2319,
      "ĠNouvÃ¨l": 2320,
      "âĢ¦": 2321,
      "Ġevite": 2322,
      "syone": 2323,
      "ĠLtd": 2324,
      "andiz": 2325,
      "ĠwÃ²ch": 2326,
      "roid": 2327,
      "Ġrek": 2328,
      "ajman": 2329,
      "ĠAnd": 2330,
      "gal": 2331,
      "ark": 2332,
      "Ġwi": 2333,
      "Ġkoule": 2334,
      "-k": 2335,
      "ĠPremye": 2336,
      "zay": 2337,
      "liye": 2338,
      "ĠAc": 2339,
      "aiti": 2340,
      "Ġchante": 2341,
      "Ġvaryete": 2342,
      "Ã§": 2343,
      "Ã¨m": 2344,
      "\",": 2345,
      "Ġbatay": 2346,
      "Ġdeplase": 2347,
      "wouve": 2348,
      "ww": 2349,
      "ĠFlo": 2350,
      "Ġdisk": 2351,
      "Ġenprime": 2352,
      "Di": 2353,
      "ĠIMDb": 2354,
      "Ġpopilasyon": 2355,
      "ĠnÃ¨t": 2356,
      "Ġande": 2357,
      "sion": 2358,
      "priz": 2359,
      "Ġjene": 2360,
      "Ġvik": 2361,
      "OV": 2362,
      "Ġanrejistre": 2363,
      "Ġpresyon": 2364,
      "ĠmodÃ¨n": 2365,
      "blis": 2366,
      "Ġro": 2367,
      "Ġselon": 2368,
      "demi": 2369,
      "Ġzan": 2370,
      "Ã¨f": 2371,
      "Sou": 2372,
      "ger": 2373,
      "Ġtouris": 2374,
      "Bi": 2375,
      "Ġimi": 2376,
      "Ġetranje": 2377,
      "Ġparan": 2378,
      "riz": 2379,
      "Ġrezistans": 2380,
      "Ġod": 2381,
      "Ġendik": 2382,
      "Ġrich": 2383,
      "Ġplastik": 2384,
      "urs": 2385,
      "Ġmachandiz": 2386,
      "Ġmwayen": 2387,
      "ĠSit": 2388,
      "ĠKonpayi": 2389,
      "Ġsove": 2390,
      "ato": 2391,
      "vril": 2392,
      "ĠOn": 2393,
      "fÃ²me": 2394,
      "wn": 2395,
      "Ġmouvman": 2396,
      "Â»": 2397,
      "ansyÃ¨l": 2398,
      "ada": 2399,
      "chou": 2400,
      "Ġby": 2401,
      "ile": 2402,
      "32": 2403,
      "Ġbouch": 2404,
      "Ġsele": 2405,
      "Ġcheve": 2406,
      "Ġwe": 2407,
      "ĠmanifaktirÃ¨": 2408,
      "ĠMari": 2409,
      "ia": 2410,
      "Ġtap": 2411,
      "Ġchen": 2412,
      "ĠespÃ²": 2413,
      "ĠJewo": 2414,
      "Ġsonje": 2415,
      "ĠHa": 2416,
      "Ġqu": 2417,
      "--": 2418,
      "Ã²s": 2419,
      "ĠsÃ¨ks": 2420,
      "chel": 2421,
      "Ġsiyi": 2422,
      "parasyon": 2423,
      "Ġdeklare": 2424,
      "Ġenskripsyon": 2425,
      "Ġmedikal": 2426,
      "Ġpare": 2427,
      "Ġrou": 2428,
      "Ġlimit": 2429,
      "Ġedikasyon": 2430,
      "ĠKont": 2431,
      "ĠlanmÃ²": 2432,
      "yaje": 2433,
      "Ġenteresan": 2434,
      "ĠranfÃ²": 2435,
      "Ġtablo": 2436,
      "Me": 2437,
      "wonik": 2438,
      "rom": 2439,
      "',": 2440,
      "ĠDavid": 2441,
      "Ġdeba": 2442,
      "ĠRa": 2443,
      "ĠdirÃ¨kteman": 2444,
      "45": 2445,
      "ĠsÃ¨k": 2446,
      "Ġmelan": 2447,
      "Ġsere": 2448,
      "ws": 2449,
      "Ġfigi": 2450,
      "fa": 2451,
      "ĠPan": 2452,
      "Ġbri": 2453,
      "Ġanb": 2454,
      "Ġtotal": 2455,
      "lÃ©": 2456,
      "36": 2457,
      "Ġmini": 2458,
      "ĠbonÃ¨": 2459,
      "Ġlegal": 2460,
      "Ã¯": 2461,
      "ĠMac": 2462,
      "kti": 2463,
      "ĠEt": 2464,
      "Ma": 2465,
      "ĠWi": 2466,
      "org": 2467,
      "ĠHe": 2468,
      "ĠLin": 2469,
      "Ġcom": 2470,
      "ity": 2471,
      "dite": 2472,
      "Ġdeliv": 2473,
      "chte": 2474,
      "Ġafekte": 2475,
      "Ġespere": 2476,
      "imik": 2477,
      "syans": 2478,
      "Ġalantou": 2479,
      "ĠvÃ²l": 2480,
      "lic": 2481,
      "ĠPap": 2482,
      "rÃ¨k": 2483,
      "Ġfizik": 2484,
      "akÃ²": 2485,
      ".âĢĿ": 2486,
      "Ġminis": 2487,
      "Ġpara": 2488,
      "ques": 2489,
      "Ġbouton": 2490,
      "In": 2491,
      "Plis": 2492,
      "Ġpwodui": 2493,
      "ĠKre": 2494,
      "able": 2495,
      "ĠefÃ²": 2496,
      "sto": 2497,
      "ork": 2498,
      "Ġitilizasyon": 2499,
      "tifik": 2500,
      "ĠreyÃ¨lman": 2501,
      "Ġfabrik": 2502,
      "bert": 2503,
      "ĠJi": 2504,
      "ĠwÃ²l": 2505,
      "ĠDo": 2506,
      "Ġkonb": 2507,
      "ĠnÃ²mal": 2508,
      "afÃ¨": 2509,
      "Ġval": 2510,
      "kans": 2511,
      "Ġrep": 2512,
      "ĠApple": 2513,
      "ĠlidÃ¨": 2514,
      "ĠPaske": 2515,
      "Ġdesen": 2516,
      "ĠtÃ¨ks": 2517,
      "Ġid": 2518,
      "Ġ;": 2519,
      "ĠÃ²ganize": 2520,
      "Ġdeklarasyon": 2521,
      "esÃ¨": 2522,
      "Ġenkli": 2523,
      "ft": 2524,
      "Ġtaks": 2525,
      "ET": 2526,
      "ud": 2527,
      "wiz": 2528,
      "__": 2529,
      "ĠapÃ¨l": 2530,
      "ĠEl": 2531,
      "ĠaliminyÃ²m": 2532,
      "ĠFil": 2533,
      "matik": 2534,
      "Ġlal": 2535,
      "Ġdepann": 2536,
      "ĠLaf": 2537,
      "Ġseli": 2538,
      "tit": 2539,
      "mÃ¨": 2540,
      "Ġ*": 2541,
      "Ġresous": 2542,
      "EM": 2543,
      "Tan": 2544,
      "ilite": 2545,
      "ĠTele": 2546,
      "Ġbenefis": 2547,
      "ansÃ¨": 2548,
      "ĠEntÃ¨nÃ¨t": 2549,
      "Ġotorite": 2550,
      "ĠLou": 2551,
      "rÃ¨m": 2552,
      "ves": 2553,
      "ĠDis": 2554,
      "fo": 2555,
      "blite": 2556,
      "Tout": 2557,
      "Ġechanj": 2558,
      "Ġnavi": 2559,
      "kid": 2560,
      "Ġkontakte": 2561,
      "ser": 2562,
      "Ġbranch": 2563,
      "jital": 2564,
      "vansyon": 2565,
      "yat": 2566,
      "Ġinik": 2567,
      "Ġtandans": 2568,
      "ĠJewova": 2569,
      "Ġpwopriyete": 2570,
      "ĠKe": 2571,
      "Ġsipleman": 2572,
      "cho": 2573,
      "Ġpoukisa": 2574,
      "rib": 2575,
      "Ġbato": 2576,
      "tel": 2577,
      "hn": 2578,
      "ĠfÃ¨y": 2579,
      "mosyon": 2580,
      "Ġkwasans": 2581,
      "pay": 2582,
      "chaje": 2583,
      "Ġbliye": 2584,
      "Ġpoze": 2585,
      "Ġmoso": 2586,
      "per": 2587,
      "ĠlÃ²": 2588,
      "ĠpafÃ¨": 2589,
      "ĠAm": 2590,
      "stan": 2591,
      "ĠMat": 2592,
      "tte": 2593,
      "ĠotÃ¨l": 2594,
      "Ġmad": 2595,
      "PS": 2596,
      "Ġrisk": 2597,
      "Ġmondyal": 2598,
      "fÃ¨t": 2599,
      "Ġkominikasyon": 2600,
      "Ġjanvye": 2601,
      "binal": 2602,
      "Ġolye": 2603,
      "Ã²z": 2604,
      "vid": 2605,
      "inwa": 2606,
      "Ġmedikaman": 2607,
      "Ġorijinal": 2608,
      "Ġadap": 2609,
      "ĠranfÃ²se": 2610,
      "Ġsid": 2611,
      "ĠUn": 2612,
      "ens": 2613,
      "Ġmarye": 2614,
      "Ġneg": 2615,
      "Apre": 2616,
      "ration": 2617,
      "ĠesansyÃ¨l": 2618,
      "Ġjere": 2619,
      "Ġwouj": 2620,
      "Ġkonstriksyon": 2621,
      "grÃ¨": 2622,
      "Ġlavant": 2623,
      "Ã¨r": 2624,
      "Ġech": 2625,
      "Ġetabli": 2626,
      "vyÃ¨": 2627,
      "Ġegziste": 2628,
      "Ġenvestisman": 2629,
      "Ġende": 2630,
      "Ġestrate": 2631,
      "ĠKris": 2632,
      "Ġenstal": 2633,
      "Ġanjeneral": 2634,
      "sid": 2635,
      "ĠFa": 2636,
      "ĠadrÃ¨s": 2637,
      "Ġlespri": 2638,
      "Ġfabrikasyon": 2639,
      "Ġyonn": 2640,
      "ilte": 2641,
      "ĠGra": 2642,
      "Ġkate": 2643,
      "Ġbilding": 2644,
      "oste": 2645,
      "Ġenstalasyon": 2646,
      "Ġkonpare": 2647,
      "piblik": 2648,
      "Ġranje": 2649,
      "Ġkoup": 2650,
      "Ġrespe": 2651,
      "Ġdijital": 2652,
      "95": 2653,
      "ĠCustom": 2654,
      "Ġkouch": 2655,
      "KÃ²m": 2656,
      "Ġoliv": 2657,
      "ĠVil": 2658,
      "Ġjesyon": 2659,
      "vy": 2660,
      "Ġreyinyon": 2661,
      "fini": 2662,
      "ĠrÃ¨gleman": 2663,
      "Ġvwayaje": 2664,
      "Ġreprezante": 2665,
      "Ġlikid": 2666,
      "ĠâĢĺ": 2667,
      "balaj": 2668,
      "Ġespesifik": 2669,
      "Ġprepare": 2670,
      "Ġlot": 2671,
      "ĠDou": 2672,
      "eyi": 2673,
      "syÃ¨": 2674,
      "ĠKom": 2675,
      "Ġdiferans": 2676,
      "lou": 2677,
      "mer": 2678,
      "sen": 2679,
      "tant": 2680,
      "Ġkache": 2681,
      "Ġdekou": 2682,
      "ĠVal": 2683,
      "Ġdepans": 2684,
      "Ġoblije": 2685,
      "Ġsenpleman": 2686,
      "Ġekonomik": 2687,
      "pyon": 2688,
      "reman": 2689,
      "ĠBib": 2690,
      "ĠSant": 2691,
      "ĠFeri": 2692,
      "Ġitil": 2693,
      "gaje": 2694,
      "sman": 2695,
      "Ġdek": 2696,
      "Ġsosyete": 2697,
      "Ġatis": 2698,
      "Ġboule": 2699,
      "wazi": 2700,
      "ĠInyon": 2701,
      "Ġrale": 2702,
      "Ġtit": 2703,
      "pik": 2704,
      "Ġlanse": 2705,
      "ĠfenÃ¨t": 2706,
      "Ġekspozisyon": 2707,
      "Ġandedan": 2708,
      "ula": 2709,
      "ĠCor": 2710,
      "ĠpatnÃ¨": 2711,
      "Ġbo": 2712,
      "Ġtat": 2713,
      "liyan": 2714,
      "Ġdemann": 2715,
      "Ġchimik": 2716,
      "ĠMad": 2717,
      "Ã¨syal": 2718,
      "Ġendi": 2719,
      "ction": 2720,
      "lex": 2721,
      "Ġkredi": 2722,
      "ĠpyÃ¨s": 2723,
      "Ġenpak": 2724,
      "vel": 2725,
      "Ġegzi": 2726,
      "lau": 2727,
      "ĠmÃ²d": 2728,
      "Ġkalifye": 2729,
      "Ġmadanm": 2730,
      "YON": 2731,
      "Ġno": 2732,
      "syasyon": 2733,
      "Ã²g": 2734,
      "amen": 2735,
      "ĠâĢĶ": 2736,
      "ĠMond": 2737,
      "load": 2738,
      "Ġdelivre": 2739,
      "Ġplak": 2740,
      "ane": 2741,
      "Ġmilti": 2742,
      "33": 2743,
      ".A": 2744,
      "mera": 2745,
      "ĠÂ¶": 2746,
      "Ġkapital": 2747,
      "ĠEx": 2748,
      "Ġenvite": 2749,
      "Ġkonpoze": 2750,
      "AM": 2751,
      "Ġzile": 2752,
      "Ġent": 2753,
      "Ġfrape": 2754,
      "donk": 2755,
      "ĠKonsÃ¨y": 2756,
      "Ġag": 2757,
      "Ġpwochen": 2758,
      "ĠWin": 2759,
      "Ġrantre": 2760,
      "Ġaksepte": 2761,
      "ĠSt": 2762,
      "Ġokipe": 2763,
      "Ġfinal": 2764,
      "tÃ¨mine": 2765,
      "EL": 2766,
      "Ġopere": 2767,
      "Ġapp": 2768,
      "ĠNÃ²": 2769,
      "Ġavyon": 2770,
      "Ġseksyon": 2771,
      "Ġpatikilye": 2772,
      "EO": 2773,
      "ĠdakÃ²": 2774,
      "ĠaktyÃ¨lman": 2775,
      "Ġekselan": 2776,
      "Ġjoun": 2777,
      "ĠIm": 2778,
      "The": 2779,
      "-M": 2780,
      "Su": 2781,
      "pitou": 2782,
      "Ġpas": 2783,
      "-e": 2784,
      "AC": 2785,
      "wÃ²g": 2786,
      "arÃ¨t": 2787,
      "tyle": 2788,
      "ĠSÃ¨vis": 2789,
      "asi": 2790,
      "Ġesk": 2791,
      "ĠtwazyÃ¨m": 2792,
      "istÃ¨m": 2793,
      "ĠBri": 2794,
      "Ġenkye": 2795,
      "Ġkoutim": 2796,
      "ĠAnpil": 2797,
      "ĠRen": 2798,
      "ala": 2799,
      "jim": 2800,
      "Ġkoze": 2801,
      "Ġjete": 2802,
      "Ġvant": 2803,
      "yl": 2804,
      "all": 2805,
      "ĠDesign": 2806,
      "Ã¨j": 2807,
      "Ġdous": 2808,
      "Ġavoka": 2809,
      "Ġserye": 2810,
      "Ġlimite": 2811,
      "Ġkonesans": 2812,
      "Ġsitwayen": 2813,
      "Ġabi": 2814,
      "Ġaso": 2815,
      "Ġbann": 2816,
      "75": 2817,
      "rÃ¨y": 2818,
      "presyon": 2819,
      "ĠPwodwi": 2820,
      "pire": 2821,
      "ube": 2822,
      "34": 2823,
      "98": 2824,
      "gou": 2825,
      "ille": 2826,
      "knoloji": 2827,
      "ĠchofÃ¨": 2828,
      "Ġar": 2829,
      "Ġefikasite": 2830,
      "Ġanonse": 2831,
      "Ġkidonk": 2832,
      "Ġopinyon": 2833,
      "ansyon": 2834,
      "Ġdepa": 2835,
      "ĠDepi": 2836,
      "ĠvrÃ¨man": 2837,
      "Ġpeche": 2838,
      "may": 2839,
      "ĠrÃ¨s": 2840,
      "ĠGi": 2841,
      "Ġrezoud": 2842,
      "ĠChak": 2843,
      "ĠChar": 2844,
      "ĠJwÃ¨t": 2845,
      "eso": 2846,
      "Ġseptanm": 2847,
      "sif": 2848,
      "Ġboul": 2849,
      "Ġkoneksyon": 2850,
      "lie": 2851,
      "ĠRan": 2852,
      "//": 2853,
      "uri": 2854,
      "Ġeki": 2855,
      "RE": 2856,
      "ĠlagÃ¨": 2857,
      "ĠCre": 2858,
      "Ġomwen": 2859,
      "atwa": 2860,
      "ĠOut": 2861,
      "manse": 2862,
      "ash": 2863,
      "ĠnÃ¨g": 2864,
      "apon": 2865,
      "ĠPÃ²t": 2866,
      "Ġfevriye": 2867,
      "grasyon": 2868,
      "cy": 2869,
      "Ġide": 2870,
      "ansye": 2871,
      "ĠnÃ²t": 2872,
      "ilti": 2873,
      "oz": 2874,
      "sk": 2875,
      "Ġeleksyon": 2876,
      "ĠzafÃ¨": 2877,
      "ĠEuro": 2878,
      "Ġfor": 2879,
      "Ġmanke": 2880,
      "Ġmiray": 2881,
      "ĠKara": 2882,
      "wan": 2883,
      "Ġdeko": 2884,
      "Ġpeman": 2885,
      "vin": 2886,
      "ses": 2887,
      "ĠdetÃ¨mine": 2888,
      "ug": 2889,
      "Ġadminist": 2890,
      "ĠkaraktÃ¨": 2891,
      "Ġ)": 2892,
      "con": 2893,
      "tazini": 2894,
      "ĠOb": 2895,
      "ll": 2896,
      "wat": 2897,
      "Ġgeri": 2898,
      "Ġendike": 2899,
      "Ġlalwa": 2900,
      "izi": 2901,
      "uit": 2902,
      "ley": 2903,
      "tinasyon": 2904,
      "ah": 2905,
      "ĠdoktÃ¨": 2906,
      "Ġbank": 2907,
      "\".": 2908,
      "Ġkoleksyon": 2909,
      "Ġenskri": 2910,
      "twa": 2911,
      "Ġmari": 2912,
      "risi": 2913,
      "://": 2914,
      "tÃ¨y": 2915,
      "ĠGa": 2916,
      "ĠMet": 2917,
      "âĢĻap": 2918,
      "ĠbwÃ¨": 2919,
      "ĠFÃ²m": 2920,
      "Ġsitiye": 2921,
      "Ġprez": 2922,
      "ĠDep": 2923,
      "Ġbra": 2924,
      "ĠdomÃ¨n": 2925,
      "Ġmwatye": 2926,
      "Ġvyol": 2927,
      "tifikasyon": 2928,
      "uper": 2929,
      "vaj": 2930,
      "inema": 2931,
      "ĠNon": 2932,
      "ksik": 2933,
      "tock": 2934,
      "Ġvivan": 2935,
      "fim": 2936,
      "ĠlatÃ¨": 2937,
      "ĠgrÃ¨s": 2938,
      "Ġpwe": 2939,
      "ĠSid": 2940,
      "sou": 2941,
      "ĠpÃ²s": 2942,
      "Ġranplase": 2943,
      "Ġzo": 2944,
      "tive": 2945,
      "atal": 2946,
      "Ġimedy": 2947,
      "OVID": 2948,
      "Ġminim": 2949,
      "iklÃ¨t": 2950,
      "ĠFin": 2951,
      "'A": 2952,
      "cel": 2953,
      "ĠPC": 2954,
      "37": 2955,
      "ĠsektÃ¨": 2956,
      "Ġlann": 2957,
      "42": 2958,
      "itye": 2959,
      "ĠAmerik": 2960,
      "Ġatire": 2961,
      "Ġsepandan": 2962,
      "Tra": 2963,
      "65": 2964,
      "97": 2965,
      "OM": 2966,
      "Ġrezi": 2967,
      "Ġlanp": 2968,
      "fisye": 2969,
      "ĠWe": 2970,
      "Ġpasa": 2971,
      "ĠtradisyonÃ¨l": 2972,
      "Ġestrateji": 2973,
      "'.": 2974,
      "ĠRes": 2975,
      "mond": 2976,
      "rezon": 2977,
      "ĠPati": 2978,
      "ĠEspay": 2979,
      "Ġtatoo": 2980,
      "tiyon": 2981,
      "Ã¨sis": 2982,
      "Ġchemen": 2983,
      "Ti": 2984,
      "Ġimen": 2985,
      "Ġasid": 2986,
      "96": 2987,
      "lijan": 2988,
      "ĠVe": 2989,
      "ĠWa": 2990,
      "Ġiz": 2991,
      "red": 2992,
      "Ġkare": 2993,
      "teryÃ¨": 2994,
      "ĠDan": 2995,
      "Ġpasaje": 2996,
      "ound": 2997,
      "ĠWil": 2998,
      "ys": 2999,
      "Ġlajman": 3000,
      "wizin": 3001,
      "fon": 3002,
      "Ġdez": 3003,
      "ĠVwayaj": 3004,
      "Ġklere": 3005,
      "ĠHaiti": 3006,
      "ativ": 3007,
      "ized": 3008,
      "Ġpito": 3009,
      "ĠKoulye": 3010,
      "IL": 3011,
      "Ġjenn": 3012,
      "ĠlapÃ¨": 3013,
      "Ġenterese": 3014,
      "Ġrevni": 3015,
      "ĠBay": 3016,
      "Ġsolid": 3017,
      "ĠdirÃ¨k": 3018,
      "Ġkategori": 3019,
      "Ã¨te": 3020,
      "ĠvÃ¨t": 3021,
      "ĠerÃ¨": 3022,
      "Ġanbalaj": 3023,
      "Ġavril": 3024,
      "Ġeval": 3025,
      "Ġpake": 3026,
      "Ġsur": 3027,
      "itasyon": 3028,
      "ĠOr": 3029,
      "gon": 3030,
      "yn": 3031,
      "Ġeksplo": 3032,
      "-C": 3033,
      "spÃ¨": 3034,
      "Ġangle": 3035,
      "Ġapep": 3036,
      "Ġfan": 3037,
      "Ġblog": 3038,
      "Ġvaks": 3039,
      "Ġdiskite": 3040,
      "ĠChinwa": 3041,
      "ĠBro": 3042,
      "ĠBen": 3043,
      "38": 3044,
      "ÃŃa": 3045,
      "SÃ¨": 3046,
      "ĠTri": 3047,
      "ĠpifÃ²": 3048,
      "dÃ©": 3049,
      "uan": 3050,
      "ĠfrÃ¨t": 3051,
      "Ã³n": 3052,
      "bwa": 3053,
      "Ã²tman": 3054,
      "Ġkrey": 3055,
      "Ġkijan": 3056,
      "ins": 3057,
      "ĠPor": 3058,
      "Ġdiman": 3059,
      "ĠtravayÃ¨": 3060,
      "Ġlame": 3061,
      "Ġinite": 3062,
      "Ġfout": 3063,
      "lit": 3064,
      ".,": 3065,
      "rize": 3066,
      "jet": 3067,
      "rens": 3068,
      "Ġmekan": 3069,
      "ĠNasyonal": 3070,
      "Ġbas": 3071,
      "ĠBre": 3072,
      "ĠKÃ²": 3073,
      "pat": 3074,
      "abi": 3075,
      "Ġchaj": 3076,
      "tann": 3077,
      "Ġpatisip": 3078,
      "Ġkonpetisyon": 3079,
      "ĠapeprÃ¨": 3080,
      "39": 3081,
      "Ġaji": 3082,
      "Ġaksidan": 3083,
      "Moun": 3084,
      "wot": 3085,
      "elle": 3086,
      "Ġaktif": 3087,
      "Ġsepare": 3088,
      "sanble": 3089,
      "Ġdomaj": 3090,
      "mok": 3091,
      "Ġelektwonik": 3092,
      "Ġpita": 3093,
      "Ġmik": 3094,
      "ĠdwÃ²g": 3095,
      "book": 3096,
      "Ġkwizin": 3097,
      "IK": 3098,
      "ĠSc": 3099,
      "grafik": 3100,
      "mantÃ¨": 3101,
      "Ġkabin": 3102,
      "lete": 3103,
      "Ġreli": 3104,
      "ture": 3105,
      "Ġenvesti": 3106,
      "On": 3107,
      "Pandan": 3108,
      "ie": 3109,
      "Ġmansyone": 3110,
      "omisyon": 3111,
      "Ġfik": 3112,
      "ĠGre": 3113,
      "Ġechantiyon": 3114,
      "hen": 3115,
      "Ġbl": 3116,
      "Ġdekri": 3117,
      "Ġleta": 3118,
      "Ġmesye": 3119,
      "vÃ¨se": 3120,
      "ĠMoris": 3121,
      "ĠLA": 3122,
      "Ã±": 3123,
      "ĠrÃ©": 3124,
      "Ġmaryaj": 3125,
      "Biyografi": 3126,
      "Ġrejim": 3127,
      "Ġdegre": 3128,
      "Ġau": 3129,
      "plike": 3130,
      "Ġtest": 3131,
      "faj": 3132,
      "pÃ¨": 3133,
      "zasyon": 3134,
      "Ak": 3135,
      "Ġstyle": 3136,
      "rent": 3137,
      "ĠMondyal": 3138,
      "Ġbonis": 3139,
      "IC": 3140,
      "ĠRez": 3141,
      "Ġakeyi": 3142,
      "Ġchanpyon": 3143,
      "onje": 3144,
      "Ġdel": 3145,
      "ĠEntÃ¨nasyonal": 3146,
      "Ġzam": 3147,
      "Ġimedyatman": 3148,
      "AktÃ¨": 3149,
      "Ġreta": 3150,
      "wÃ²ch": 3151,
      "Ġekonomi": 3152,
      "ĠkÃ²mantÃ¨": 3153,
      "Ġkad": 3154,
      "ĠaltÃ¨n": 3155,
      "ĠYork": 3156,
      "Ġfinansye": 3157,
      "86": 3158,
      "Ġlave": 3159,
      "wotchou": 3160,
      "ĠBou": 3161,
      "Ġwon": 3162,
      "Ġkado": 3163,
      "ilyÃ¨man": 3164,
      "ĠJapon": 3165,
      "Ã¡n": 3166,
      "ĠrÃ¨v": 3167,
      "ĠSp": 3168,
      "Ġpouse": 3169,
      "Ã²mi": 3170,
      "rol": 3171,
      "Ġtouche": 3172,
      "ĠekspÃ¨": 3173,
      "Ġangaje": 3174,
      "abo": 3175,
      "ĠSoti": 3176,
      "Ġ#": 3177,
      "blisite": 3178,
      "Ġkominike": 3179,
      "top": 3180,
      "Ġgoud": 3181,
      "ostewÃ²n": 3182,
      "ĠItalyen": 3183,
      "OL": 3184,
      "Ġposi": 3185,
      "Ġgaye": 3186,
      "ĠPÃ¨": 3187,
      "Ġidantifye": 3188,
      "Ã©e": 3189,
      "mit": 3190,
      "Ġkwen": 3191,
      "unes": 3192,
      "atra": 3193,
      "ĠAt": 3194,
      "Ġx": 3195,
      "AvÃ¨k": 3196,
      "Ġgras": 3197,
      "Ġdra": 3198,
      "Ġdeta": 3199,
      "ĠBer": 3200,
      "zantan": 3201,
      "ĠTags": 3202,
      "mwa": 3203,
      "vens": 3204,
      "Ġsiyen": 3205,
      "Ġdoub": 3206,
      "tansyÃ¨l": 3207,
      "kont": 3208,
      "dida": 3209,
      "ĠtwalÃ¨t": 3210,
      "ĠJa": 3211,
      "Ġpozi": 3212,
      "Ġras": 3213,
      "Ġpafwa": 3214,
      "Ġdisip": 3215,
      "antasyon": 3216,
      "ĠseksyÃ¨l": 3217,
      "kÃ¨": 3218,
      "Ġtanp": 3219,
      "zif": 3220,
      "Ġantrepriz": 3221,
      "Lachin": 3222,
      "Ġex": 3223,
      "Ġkamera": 3224,
      "stans": 3225,
      "jiste": 3226,
      "kli": 3227,
      "Ġmanyen": 3228,
      "ĠCOVID": 3229,
      "atin": 3230,
      "ĠTravay": 3231,
      "Ġlannwit": 3232,
      "Mi": 3233,
      "Ġpiblisite": 3234,
      "for": 3235,
      "eni": 3236,
      "ĠtestostewÃ²n": 3237,
      "ano": 3238,
      "Ġlegliz": 3239,
      "AD": 3240,
      "AP": 3241,
      "rist": 3242,
      "ĠvizitÃ¨": 3243,
      "ĠEg": 3244,
      "kisyon": 3245,
      "Ġ?": 3246,
      "48": 3247,
      "Ġgri": 3248,
      "Ġanndan": 3249,
      "ĠUni": 3250,
      "ĠItali": 3251,
      "ĠkÃ²mansman": 3252,
      "opital": 3253,
      "Ġtrafik": 3254,
      "Ġkanpay": 3255,
      "Ġestewoyid": 3256,
      "rete": 3257,
      "Ġpous": 3258,
      "pas": 3259,
      "Ġpil": 3260,
      "Ġkar": 3261,
      "Ġtribinal": 3262,
      "sti": 3263,
      "Ġkonse": 3264,
      "Ġasirans": 3265,
      "85": 3266,
      "ĠtÃ¨lman": 3267,
      "ĠAir": 3268,
      "Ġrespekte": 3269,
      "masyon": 3270,
      "Ġ',": 3271,
      "ZÃ¨v": 3272,
      "ĠSta": 3273,
      "EC": 3274,
      "Ġvolon": 3275,
      "ĠLarisi": 3276,
      "rn": 3277,
      "ĠMil": 3278,
      "ĠGrand": 3279,
      "tyÃ¨": 3280,
      "oure": 3281,
      "ĠpotansyÃ¨l": 3282,
      "avar": 3283,
      "Man": 3284,
      "ĠCa": 3285,
      "estik": 3286,
      "55": 3287,
      "dye": 3288,
      "Ġbouk": 3289,
      "orite": 3290,
      "uz": 3291,
      "ritwa": 3292,
      "OR": 3293,
      "Sujet": 3294,
      "yin": 3295,
      "ĠimÃ¨l": 3296,
      "kes": 3297,
      "use": 3298,
      "Ġmaten": 3299,
      "92": 3300,
      "Ġjisk": 3301,
      "ĠPierre": 3302,
      "89": 3303,
      "91": 3304,
      "Gade": 3305,
      "Mar": 3306,
      "Ġbis": 3307,
      "ĠkomÃ¨syal": 3308,
      ",\"": 3309,
      "Ġmare": 3310,
      "Ġgad": 3311,
      "tÃ¨k": 3312,
      "tÃ²b": 3313,
      "ĠdÃ²z": 3314,
      "ĠpwofesÃ¨": 3315,
      "Ġkonbine": 3316,
      "ifikasyon": 3317,
      "ros": 3318,
      "soli": 3319,
      "ĠPol": 3320,
      "Ġredwi": 3321,
      "ĠCol": 3322,
      "Ġdezi": 3323,
      "ĠPlis": 3324,
      "Ġlivrezon": 3325,
      "-P": 3326,
      "uc": 3327,
      "gin": 3328,
      "Ġkonpi": 3329,
      "Ġbatri": 3330,
      "Ġhtt": 3331,
      "ĠdÃ²mi": 3332,
      "ĠQu": 3333,
      "Ġdekouvri": 3334,
      "Ġpis": 3335,
      "Ġkawotchou": 3336,
      "-an": 3337,
      "Ġeksplike": 3338,
      "Ġreferans": 3339,
      "Ġselil": 3340,
      "So": 3341,
      "ĠfÃ²ma": 3342,
      "izyon": 3343,
      "Ġprizon": 3344,
      "Ġakon": 3345,
      "istan": 3346,
      "ĠYoun": 3347,
      "oprens": 3348,
      "rak": 3349,
      "feksyon": 3350,
      "ĠYou": 3351,
      "Ġplaj": 3352,
      "ult": 3353,
      "87": 3354,
      "ĠJis": 3355,
      "ĠMalgre": 3356,
      "Ġreve": 3357,
      "88": 3358,
      "Ġenstitisyon": 3359,
      "ek": 3360,
      "ĠJeneral": 3361,
      "ĠArab": 3362,
      "Ġnit": 3363,
      "Ġfwi": 3364,
      "Ġbar": 3365,
      "-A": 3366,
      "done": 3367,
      "Ġpwosedi": 3368,
      "Ġglas": 3369,
      "lisyon": 3370,
      "ĠegzÃ¨sis": 3371,
      "Ġdirijan": 3372,
      "Ã´": 3373,
      "Ġankad": 3374,
      "ode": 3375,
      "Ġrekla": 3376,
      "Ġdon": 3377,
      "ÃĴ": 3378,
      "ĠRepiblik": 3379,
      "Bon": 3380,
      "ktÃ²b": 3381,
      ".\"": 3382,
      "ach": 3383,
      "old": 3384,
      "âĢĭ": 3385,
      "Ġlite": 3386,
      "Ġentegre": 3387,
      "ktiv": 3388,
      "ĠCam": 3389,
      "igh": 3390,
      "Ġani": 3391,
      "Ġmodi": 3392,
      "ĠtwÃ²p": 3393,
      "ĠJou": 3394,
      "AY": 3395,
      "Ġdefi": 3396,
      "pen": 3397,
      "Ġdif": 3398,
      "ĠkonfÃ²": 3399,
      "cal": 3400,
      "ĠHo": 3401,
      "ĠDon": 3402,
      "ld": 3403,
      "Ġete": 3404,
      "Ġsoufri": 3405,
      "siste": 3406,
      "ĠalÃ¨": 3407,
      "Ã©n": 3408,
      "jip": 3409,
      "Ġgoumen": 3410,
      "Ġchofaj": 3411,
      "ĠLÃ²t": 3412,
      "ansman": 3413,
      "ĠwÃ¨b": 3414,
      "ilasyon": 3415,
      "ĠoktÃ²b": 3416,
      "seri": 3417,
      "ston": 3418,
      "Fran": 3419,
      "izÃ²d": 3420,
      "ĠkonsÃ¨nan": 3421,
      "51": 3422,
      "Ã¨z": 3423,
      "44": 3424,
      "Ġmaksim": 3425,
      "Ġtelechaje": 3426,
      "ĠfaktÃ¨": 3427,
      "94": 3428,
      "Ġpozitif": 3429,
      "Ġkwiv": 3430,
      "Ġkouche": 3431,
      "minasyon": 3432,
      "azyon": 3433,
      "wÃ¨l": 3434,
      "ĠTo": 3435,
      "ĠendistriyÃ¨l": 3436,
      "Ġatak": 3437,
      "ĠGou": 3438,
      "Ġoptim": 3439,
      "Ġmilye": 3440,
      "ĠAlman": 3441,
      "ĠHar": 3442,
      "chon": 3443,
      "Ġpami": 3444,
      "tions": 3445,
      "ĠpÃ¨t": 3446,
      "Ġsu": 3447,
      "Ġogmantasyon": 3448,
      "Pwochen": 3449,
      "Ġef": 3450,
      "ĠEd": 3451,
      "ĠpakÃ¨t": 3452,
      "jye": 3453,
      "ĠBlan": 3454,
      "ĠAlmay": 3455,
      "myÃ¨": 3456,
      "ĠnÃ²": 3457,
      "ĠrezÃ¨v": 3458,
      "Ġpeze": 3459,
      "Ġajiste": 3460,
      "ĠCas": 3461,
      "41": 3462,
      "ges": 3463,
      "zin": 3464,
      "Ġpresizyon": 3465,
      "Ġfiltre": 3466,
      "krÃ¨": 3467,
      "Ġ\"Ċ": 3468,
      "Ġdebaz": 3469,
      "uel": 3470,
      "Ġkopi": 3471,
      "gran": 3472,
      "Ãª": 3473,
      "Ã¨re": 3474,
      "ĠchÃ¨z": 3475,
      "US": 3476,
      "mÃ¨s": 3477,
      "ĠkonpÃ²tman": 3478,
      "ĠLeta": 3479,
      "cia": 3480,
      "Ġdepase": 3481,
      "Ġfanatik": 3482,
      "ĠCustomized": 3483,
      "Ġsije": 3484,
      "rime": 3485,
      "72": 3486,
      "Mo": 3487,
      "ĠAcry": 3488,
      "Ġdans": 3489,
      "ung": 3490,
      "mart": 3491,
      "Ġresto": 3492,
      "Ġmelanje": 3493,
      "Ġor": 3494,
      "Ġdomestik": 3495,
      "rus": 3496,
      "outon": 3497,
      "43": 3498,
      "52": 3499,
      "Ġpasyan": 3500,
      "cro": 3501,
      "ĠAs": 3502,
      "ĠGar": 3503,
      "ĠMichel": 3504,
      "ĠJohn": 3505,
      "ĠjiyÃ¨": 3506,
      "Ġ!": 3507,
      "Ġafi": 3508,
      "ĠAu": 3509,
      "Ã²tasyon": 3510,
      "ĠrapÃ²te": 3511,
      "sab": 3512,
      "KÃ¨k": 3513,
      "Ġnetwaye": 3514,
      "Ġegze": 3515,
      "ew": 3516,
      "ĠPeyi": 3517,
      "tine": 3518,
      "ish": 3519,
      "ĠItili": 3520,
      "Ġjiskaske": 3521,
      "ĠJwenn": 3522,
      "aboli": 3523,
      "own": 3524,
      "Ġkafe": 3525,
      "Ġdate": 3526,
      "volisyon": 3527,
      "Ġsiyifikasyon": 3528,
      "ouni": 3529,
      "fil": 3530,
      "ĠkonsomatÃ¨": 3531,
      "Ãī": 3532,
      "Ġsyan": 3533,
      "Ġlavni": 3534,
      "Ġstock": 3535,
      "eryÃ¨": 3536,
      "Ġpoul": 3537,
      "ero": 3538,
      "endi": 3539,
      "ĠHol": 3540,
      "ida": 3541,
      "Ġestati": 3542,
      "]Ċ": 3543,
      "ĠJac": 3544,
      "zetazini": 3545,
      "âĢľ": 3546,
      "amin": 3547,
      "Ġdesanm": 3548,
      "hat": 3549,
      "ĠKomisyon": 3550,
      "ĠfoutbÃ²l": 3551,
      "FÃ¨": 3552,
      "ĠAnn": 3553,
      "Ġdistribisyon": 3554,
      "Ġate": 3555,
      "ĠrekÃ²t": 3556,
      "ington": 3557,
      "-de": 3558,
      "Ġprezan": 3559,
      "46": 3560,
      "Ġkonfime": 3561,
      "Ġaza": 3562,
      "Ġdirab": 3563,
      "Ġmanch": 3564,
      "ben": 3565,
      "ĠVer": 3566,
      "ĠChi": 3567,
      "han": 3568,
      "Ġentelijan": 3569,
      "Ġekle": 3570,
      "tern": 3571,
      "93": 3572,
      "ĠPas": 3573,
      "ĠTes": 3574,
      "inasyon": 3575,
      "ĠKar": 3576,
      "Ġkandida": 3577,
      "keswa": 3578,
      "torik": 3579,
      "ĠâĢĭ": 3580,
      "Ġdestinasyon": 3581,
      "Tube": 3582,
      "Ġgid": 3583,
      "ĠTa": 3584,
      "Ġdefann": 3585,
      "Ġdivize": 3586,
      "atirÃ¨l": 3587,
      "Ġpal": 3588,
      "ĠEpitou": 3589,
      "ĠSer": 3590,
      "ĠkonpitÃ¨": 3591,
      "Non": 3592,
      "ĠmÃ¨b": 3593,
      "ĠmilitÃ¨": 3594,
      "Fi": 3595,
      "54": 3596,
      "ĠBal": 3597,
      "vÃ¨syon": 3598,
      "ĠDa": 3599,
      "ĠChan": 3600,
      "rand": 3601,
      "Kijan": 3602,
      "rum": 3603,
      "patou": 3604,
      "64": 3605,
      "Ġangajman": 3606,
      "Ġpenti": 3607,
      "deral": 3608,
      "Poukisa": 3609,
      "ĠdoulÃ¨": 3610,
      "Ġkos": 3611,
      "sel": 3612,
      "ĠTanpri": 3613,
      "76": 3614,
      "ĠmwayÃ¨n": 3615,
      "abolizan": 3616,
      "ĠKore": 3617,
      "ĠlajÃ¨": 3618,
      "ĠBÃ¨l": 3619,
      "Ġetik": 3620,
      "Ġdistans": 3621,
      "ĠFounisÃ¨": 3622,
      "Ġbebe": 3623,
      "MS": 3624,
      "ĠSur": 3625,
      "ĠChe": 3626,
      "ĠfÃ¨m": 3627,
      "ĠNAN": 3628,
      "andans": 3629,
      "Premye": 3630,
      "ĠSÃ¨vi": 3631,
      "Ġaparans": 3632,
      "ĠpetÃ¨t": 3633,
      "Ġinov": 3634,
      "ĠsÃ²l": 3635,
      "Ġrela": 3636,
      "Ġeskla": 3637,
      "Ġadopte": 3638,
      "rezil": 3639,
      "Ġkoresp": 3640,
      "yetik": 3641,
      "ĠMete": 3642,
      "ĠÃī": 3643,
      "Ġviktim": 3644,
      "ĠGo": 3645,
      "Ġnovanm": 3646,
      "-D": 3647,
      "wodiksyon": 3648,
      "izatÃ¨": 3649,
      "Ġasosye": 3650,
      "Sit": 3651,
      "IP": 3652,
      "ham": 3653,
      "LE": 3654,
      "cs": 3655,
      "Ġkolon": 3656,
      "ĠCap": 3657,
      "ING": 3658,
      "Ġkolekte": 3659,
      "bleman": 3660,
      "Ġankadreman": 3661,
      ".\"Ċ": 3662,
      "ĠKat": 3663,
      "riman": 3664,
      "Ġseleksyon": 3665,
      "ĠepizÃ²d": 3666,
      "ĠLeg": 3667,
      "mand": 3668,
      "ĠMak": 3669,
      "Ġveri": 3670,
      "ĠNet": 3671,
      "ĠGwo": 3672,
      "Ġodyans": 3673,
      "laude": 3674,
      "Ġvaksen": 3675,
      "-la": 3676,
      "ĠkansÃ¨": 3677,
      "ĠPer": 3678,
      "Ġantren": 3679,
      "Ġsite": 3680,
      "ĠPapa": 3681,
      "alon": 3682,
      "ĠAz": 3683,
      "stwi": 3684,
      "Ġideyal": 3685,
      "-f": 3686,
      "TA": 3687,
      "ĠTelefÃ²n": 3688,
      "menm": 3689,
      "Ġotomatikman": 3690,
      "ĠAng": 3691,
      "ĠPÃ²toprens": 3692,
      "56": 3693,
      "strikti": 3694,
      "ĠCreole": 3695,
      "gatÃ¨": 3696,
      "ondasyon": 3697,
      "Ġkriz": 3698,
      "73": 3699,
      "lwa": 3700,
      "tri": 3701,
      "ĠKalite": 3702,
      "Ġpwis": 3703,
      "ĠlongÃ¨": 3704,
      "âĢ¢": 3705,
      "ĠKap": 3706,
      "EP": 3707,
      "Ġanabolizan": 3708,
      "ĠByen": 3709,
      "Ġpwomosyon": 3710,
      "ĠaktÃ¨": 3711,
      "andredi": 3712,
      "Ġantretyen": 3713,
      "ĠkonvÃ¨ti": 3714,
      "ĠbisiklÃ¨t": 3715,
      "Ro": 3716,
      "gar": 3717,
      "lize": 3718,
      "kenn": 3719,
      "Ġajans": 3720,
      "Ġback": 3721,
      "Ġkonpeti": 3722,
      "Po": 3723,
      "ping": 3724,
      "Ġdepatman": 3725,
      "abol": 3726,
      "âĢĵ": 3727,
      "49": 3728,
      "tanik": 3729,
      "ĠAcrylic": 3730,
      "ters": 3731,
      "Ã¢": 3732,
      "Ġlopital": 3733,
      "risti": 3734,
      "ĠNwa": 3735,
      "ĠSosyal": 3736,
      "Ġpwofil": 3737,
      "ĠPoukisa": 3738,
      "Ġpol": 3739,
      "vlo": 3740,
      "Ġenpo": 3741,
      "Ġestasyon": 3742,
      "Ġanaliz": 3743,
      "ĠJam": 3744,
      "ĠobjÃ¨": 3745,
      "Ġkabann": 3746,
      "Ġnegatif": 3747,
      "IM": 3748,
      "yewo": 3749,
      "Ġtoupatou": 3750,
      "ranjman": 3751,
      "Ġjeneralman": 3752,
      "81": 3753,
      "82": 3754,
      "ĠSu": 3755,
      "ezyÃ¨m": 3756,
      "Anplis": 3757,
      "abl": 3758,
      "anti": 3759,
      "ĠFrans": 3760,
      "cebook": 3761,
      "Ġveso": 3762,
      "ĠLiv": 3763,
      "ated": 3764,
      "Ġaf": 3765,
      "Ġkisa": 3766,
      "stral": 3767,
      "ĠprÃ¨v": 3768,
      "ĠOktÃ²b": 3769,
      "Ġpwobab": 3770,
      "ĠkonplÃ¨ks": 3771,
      "ĠInivÃ¨site": 3772,
      "olisyon": 3773,
      "ĠlarivyÃ¨": 3774,
      "Ġpes": 3775,
      "Ġkonferans": 3776,
      "Ġdist": 3777,
      "Ġglis": 3778,
      "ori": 3779,
      "ĠotÃ¨": 3780,
      "Ġ=": 3781,
      "ĠIsit": 3782,
      "Ã¨lkeswa": 3783,
      "anmit": 3784,
      "sistan": 3785,
      "az": 3786,
      "ratwa": 3787,
      "ĠVen": 3788,
      "Ġdy": 3789,
      "ĠlibÃ¨te": 3790,
      "Hot": 3791,
      "Ġbyenke": 3792,
      "ĠParis": 3793,
      "Ġrepe": 3794,
      "Ġpwason": 3795,
      "bay": 3796,
      "47": 3797,
      "ĠPal": 3798,
      "84": 3799,
      "resyon": 3800,
      "ĠpwogrÃ¨": 3801,
      "Ġkonsomasyon": 3802,
      "ĠOnline": 3803,
      "ĠSol": 3804,
      "Ġpoko": 3805,
      "Ġokazyon": 3806,
      "BA": 3807,
      "ĠaprÃ¨": 3808,
      "Ġdisp": 3809,
      "dows": 3810,
      "Ġistorik": 3811,
      "anmitay": 3812,
      "61": 3813,
      "Ġpiki": 3814,
      "ĠsoumÃ¨t": 3815,
      "ifÃ²": 3816,
      "ĠsiperyÃ¨": 3817,
      "ĠsiplemantÃ¨": 3818,
      "lia": 3819,
      "mase": 3820,
      "lasman": 3821,
      "Ġverite": 3822,
      "Ekip": 3823,
      "diktÃ¨": 3824,
      "andri": 3825,
      "Ġklasik": 3826,
      "83": 3827,
      "Ġvize": 3828,
      "atan": 3829,
      "ell": 3830,
      "Ġvyann": 3831,
      "ĠChat": 3832,
      "chiers": 3833,
      "oswa": 3834,
      "Ġetidye": 3835,
      "Ġpose": 3836,
      "aran": 3837,
      "ĠPet": 3838,
      "53": 3839,
      "57": 3840,
      "amantal": 3841,
      "Ġpwovens": 3842,
      "ĠÃ²m": 3843,
      "ĠAngle": 3844,
      "ĠWou": 3845,
      "ĠLejip": 3846,
      "ĠâĢĭâĢĭ": 3847,
      "UM": 3848,
      "63": 3849,
      "Ġteritwa": 3850,
      "-S": 3851,
      "ĠFre": 3852,
      "Ġatizay": 3853,
      "mis": 3854,
      "Ġlanmou": 3855,
      "ĠSaint": 3856,
      "'s": 3857,
      "78": 3858,
      "cis": 3859,
      "Ġdete": 3860,
      "royid": 3861,
      "ĠlaprÃ¨s": 3862,
      "JwÃ¨t": 3863,
      "let": 3864,
      "binezon": 3865,
      "yer": 3866,
      "yiti": 3867,
      "Ġtib": 3868,
      "ĠAfriken": 3869,
      "59": 3870,
      "ĠenpÃ²te": 3871,
      "Ġbloke": 3872,
      "Ġmalgre": 3873,
      "ĠmaksimÃ²m": 3874,
      "ĠGal": 3875,
      "age": 3876,
      "hou": 3877,
      "mos": 3878,
      "Ġvis": 3879,
      "Ġchi": 3880,
      "Ġfasilite": 3881,
      "ĠJeriz": 3882,
      "ĠAra": 3883,
      "ĠÂ°": 3884,
      "Ġkoulye": 3885,
      "Ġimel": 3886,
      "ations": 3887,
      "ĠKonsa": 3888,
      "Ġkritik": 3889,
      "Ġenplike": 3890,
      "los": 3891,
      "Ġkretyen": 3892,
      "ĠSing": 3893,
      "ĠÃ²ganik": 3894,
      "Ġsantral": 3895,
      "ona": 3896,
      "witter": 3897,
      "OT": 3898,
      "alÃ¨m": 3899,
      "Mal": 3900,
      "gatwa": 3901,
      "apÃ¨": 3902,
      "Ġkouran": 3903,
      "ĠIP": 3904,
      "ĠMoyiz": 3905,
      "tech": 3906,
      "Ġkontre": 3907,
      "Ġagrik": 3908,
      "ĠCan": 3909,
      "74": 3910,
      "ĠUK": 3911,
      "tics": 3912,
      "Ġfer": 3913,
      "Ġdeb": 3914,
      "omen": 3915,
      "lÃ²": 3916,
      "arya": 3917,
      "71": 3918,
      "ĠsÃ²lda": 3919,
      "ĠwotÃ¨": 3920,
      "io": 3921,
      "isman": 3922,
      "ĠEspe": 3923,
      "vantaj": 3924,
      "anabol": 3925,
      "ĠKay": 3926,
      "Ġmezire": 3927,
      "pan": 3928,
      "Ġsoude": 3929,
      "pÃ²k": 3930,
      "Ġbag": 3931,
      "ĠJerizalÃ¨m": 3932,
      "ary": 3933,
      "ĠTit": 3934,
      "ĠenpÃ²tans": 3935,
      "62": 3936,
      "perasyon": 3937,
      "Ġjenerasyon": 3938,
      "Ġadapte": 3939,
      "58": 3940,
      "ess": 3941,
      "orge": 3942,
      "ĠDen": 3943,
      "Ġvizit": 3944,
      "Ġrefize": 3945,
      "Pri": 3946,
      "Ġprim": 3947,
      "ĠobsÃ¨": 3948,
      "Ġendepandan": 3949,
      "Ġu": 3950,
      "Ġpwoteyin": 3951,
      "77": 3952,
      "ĠRis": 3953,
      "ĠMachin": 3954,
      "Ġremake": 3955,
      "mobil": 3956,
      "ban": 3957,
      "Ġfwon": 3958,
      "xi": 3959,
      "ĠAN": 3960,
      "Ġkouman": 3961,
      "ĠBank": 3962,
      "kil": 3963,
      "wÃ¨s": 3964,
      "Ġfatra": 3965,
      "ratif": 3966,
      "ĠMu": 3967,
      "Ġkous": 3968,
      "ĠHen": 3969,
      "ĠDel": 3970,
      "limine": 3971,
      "Ġekipe": 3972,
      "ĠPM": 3973,
      "olin": 3974,
      "une": 3975,
      "ĠEksp": 3976,
      "omÃ¨t": 3977,
      "ĠekstÃ¨n": 3978,
      "Ġlye": 3979,
      "ĠKanada": 3980,
      "ĠkabinÃ¨": 3981,
      "ĠRet": 3982,
      "Ġregilye": 3983,
      "ĠHu": 3984,
      "ĠMeksik": 3985,
      "Saint": 3986,
      "Ġmemwa": 3987,
      "Ġdefinisyon": 3988,
      "Ġpwisan": 3989,
      "Ġrestriksyon": 3990,
      "Ġchap": 3991,
      "68": 3992,
      "ĠÃ²mÃ²n": 3993,
      "ĠAK": 3994,
      "+.": 3995,
      "LÃ²t": 3996,
      "Ġvak": 3997,
      "Ġrestoran": 3998,
      "Ġrekipe": 3999,
      "VC": 4000,
      "RÃ¨v": 4001,
      "Ġbote": 4002,
      "bis": 4003,
      "Ġranmase": 4004,
      "way": 4005,
      "med": 4006,
      "Ġtire": 4007,
      "Ġidwo": 4008,
      "tere": 4009,
      "rad": 4010,
      "ĠDet": 4011,
      "bliyo": 4012,
      "66": 4013,
      "Ġden": 4014,
      "bur": 4015,
      "mansman": 4016,
      "Achte": 4017,
      "Ġten": 4018,
      "aprÃ¨": 4019,
      "ĠDepatman": 4020,
      "Ġdout": 4021,
      "ĠSil": 4022,
      "ANS": 4023,
      "ring": 4024,
      "Ġekleraj": 4025,
      "ĠsÃ¨n": 4026,
      "versit": 4027,
      "ĠdirektÃ¨": 4028,
      "Ġdemon": 4029,
      "Ġzak": 4030,
      "uis": 4031,
      "orn": 4032,
      "Ġesteroyid": 4033,
      "ois": 4034,
      "Ġlapli": 4035,
      "ĠTeknoloji": 4036,
      "ants": 4037,
      "ĠMiami": 4038,
      "Ġpwouve": 4039,
      "Ġentansyon": 4040,
      "ette": 4041,
      "Ġabsoli": 4042,
      "ĠfÃ²se": 4043,
      "ĠtransfÃ¨": 4044,
      "yd": 4045,
      "ĠGade": 4046,
      "IF": 4047,
      "fen": 4048,
      "ĠiOS": 4049,
      "Ġrann": 4050,
      "67": 4051,
      "ĠSik": 4052,
      "ĠJodi": 4053,
      "Menm": 4054,
      "Ã¼": 4055,
      "ĠapwÃ²ch": 4056,
      "Ġjistis": 4057,
      "ĠalimantÃ¨": 4058,
      "Ek": 4059,
      "Ġrevize": 4060,
      "Ġtipik": 4061,
      "Ġprezans": 4062,
      "Ġkontrib": 4063,
      "ĠboutÃ¨y": 4064,
      "Jo": 4065,
      "anj": 4066,
      "kile": 4067,
      "Ġviktwa": 4068,
      "Ã²nman": 4069,
      "Mon": 4070,
      "ĠLafrans": 4071,
      "mg": 4072,
      "ominik": 4073,
      "onan": 4074,
      "Ġaranjman": 4075,
      "Ġfant": 4076,
      "ĠMou": 4077,
      "aji": 4078,
      "ĠPwogram": 4079,
      "Tags": 4080,
      "Ġjwen": 4081,
      "ĠZend": 4082,
      "79": 4083,
      "vol": 4084,
      "Ġkase": 4085,
      "ĠzÃ²": 4086,
      "Ġpyebwa": 4087,
      "NC": 4088,
      "moni": 4089,
      "ĠYouTube": 4090,
      "ĠBat": 4091,
      "ĠWindows": 4092,
      "ĠIS": 4093,
      "yewopÃ²": 4094,
      "Ġdya": 4095,
      "Ã¨nman": 4096,
      "ĠDistri": 4097,
      "mes": 4098,
      "lue": 4099,
      "pis": 4100,
      "ĠSistÃ¨m": 4101,
      "Ġreb": 4102,
      "ĠOstral": 4103,
      "Ġtransfere": 4104,
      "Ġil": 4105,
      "lib": 4106,
      "ĠkonvÃ¨syon": 4107,
      "ĠCity": 4108,
      "Ġtrase": 4109,
      "ĠlefÃ¨t": 4110,
      "ĠkabÃ²n": 4111,
      "ĠCH": 4112,
      "ĠGlas": 4113,
      "ganizasyon": 4114,
      "ĠDire": 4115,
      "cri": 4116,
      "dasyon": 4117,
      "Ġplanifye": 4118,
      "Pres": 4119,
      "ĠprÃ¨t": 4120,
      "ĠUSB": 4121,
      "ony": 4122,
      "by": 4123,
      "ria": 4124,
      "cu": 4125,
      "Ġlapri": 4126,
      "ĠouvÃ¨": 4127,
      "itÃ©": 4128,
      "idjÃ¨": 4129,
      "vÃ¨sasyon": 4130,
      "ĠAP": 4131,
      "ĠWo": 4132,
      "Ġefase": 4133,
      "ĠNor": 4134,
      "ĠAma": 4135,
      "Ġdiven": 4136,
      "Ġrasin": 4137,
      "ĠaspÃ¨": 4138,
      "Ġponp": 4139,
      "-wo": 4140,
      "Depi": 4141,
      "ĠSante": 4142,
      "Des": 4143,
      "kre": 4144,
      "ĠVan": 4145,
      "ĠrespÃ¨": 4146,
      "Ġmanifes": 4147,
      "Ġdetwi": 4148,
      "ĠvityÃ¨l": 4149,
      "bliyotÃ¨k": 4150,
      "Ġelimine": 4151,
      "Ġkach": 4152,
      "VI": 4153,
      "ĠlapriyÃ¨": 4154,
      "Ġamiz": 4155,
      "Ġfonksyone": 4156,
      "Ġchanpyona": 4157,
      "ĠNovanm": 4158,
      "atis": 4159,
      "ted": 4160,
      "char": 4161,
      "ĠkiltirÃ¨l": 4162,
      "Ġfid": 4163,
      "Ġenkyetid": 4164,
      "ĠPh": 4165,
      "ĠMer": 4166,
      "Kouman": 4167,
      "akteman": 4168,
      "graf": 4169,
      "Ġatake": 4170,
      "DE": 4171,
      "ape": 4172,
      ".org": 4173,
      "69": 4174,
      "ĠLab": 4175,
      "ĠgÃ²ch": 4176,
      "nmi": 4177,
      "ĠAM": 4178,
      "met": 4179,
      "Ġetonan": 4180,
      "Ġendivid": 4181,
      "cher": 4182,
      "wazo": 4183,
      "ĠLinux": 4184,
      "Tunes": 4185,
      "gne": 4186,
      "rive": 4187,
      "rezman": 4188,
      "ĠÃ¨k": 4189,
      "hilip": 4190,
      "Ġmajorite": 4191,
      "ĠPlan": 4192,
      "bas": 4193,
      "vou": 4194,
      "Ġeksepsyon": 4195,
      "tou": 4196,
      "Ġanbake": 4197,
      "sil": 4198,
      "Ġkwit": 4199,
      "tifika": 4200,
      "Ġpwolon": 4201,
      "aux": 4202,
      "ĠminimÃ²m": 4203,
      "ĠHaitian": 4204,
      "Ġpeyiz": 4205,
      "Ġdouch": 4206,
      "Ġobligatwa": 4207,
      "Ġresponsablite": 4208,
      "Ġlibe": 4209,
      "tival": 4210,
      "ĠgouvÃ¨": 4211,
      "ĠEN": 4212,
      "ĠEnfÃ²masyon": 4213,
      "tique": 4214,
      "Ġkonbinezon": 4215,
      "ald": 4216,
      "-m": 4217,
      "ado": 4218,
      "Ġmekanik": 4219,
      "Ġkatye": 4220,
      "RI": 4221,
      "twal": 4222,
      "ĠEm": 4223,
      "ĠJwe": 4224,
      "car": 4225,
      "Ġflek": 4226,
      "Ġvole": 4227,
      "holes": 4228,
      "Ġvyolans": 4229,
      "ĠkonsÃ¨ve": 4230,
      "RS": 4231,
      "tom": 4232,
      "fikilte": 4233,
      "Ġmilya": 4234,
      "Ġsiyal": 4235,
      "ĠJose": 4236,
      "ĠPark": 4237,
      "Ġkonseye": 4238,
      "Ġklib": 4239,
      "ĠnavigatÃ¨": 4240,
      "Ka": 4241,
      "yib": 4242,
      "Ad": 4243,
      "rese": 4244,
      "Ġanseye": 4245,
      "ĠNouvo": 4246,
      "Ġmisyon": 4247,
      "Ġsyans": 4248,
      "mik": 4249,
      "ĠKid": 4250,
      "Ġ:Ċ": 4251,
      "ĠDominik": 4252,
      "Ġrefere": 4253,
      "ĠNasyon": 4254,
      "Vi": 4255,
      "rac": 4256,
      "lub": 4257,
      "lman": 4258,
      "ĠlÃ¨nmi": 4259,
      "ĠPla": 4260,
      "ĠIstwa": 4261,
      "Ġnanm": 4262,
      "Ġave": 4263,
      "alin": 4264,
      "seur": 4265,
      "ĠenteryÃ¨": 4266,
      "ĠII": 4267,
      "Ġsila": 4268,
      "Ġeli": 4269,
      "-l": 4270,
      "ĠpÃ¨man": 4271,
      "ĠepÃ²k": 4272,
      "estival": 4273,
      "ĠAg": 4274,
      "Ġdanjere": 4275,
      "Ġanons": 4276,
      "ĠEs": 4277,
      "Ġac": 4278,
      "ĠsantÃ¨n": 4279,
      "blÃ¨m": 4280,
      "lijans": 4281,
      "ner": 4282,
      "Ġlisans": 4283,
      "Ġsivil": 4284,
      "Ayiti": 4285,
      "Ġekriven": 4286,
      "Ġtete": 4287,
      "ĠkouvÃ¨ti": 4288,
      "Ġmank": 4289,
      "holesale": 4290,
      "-s": 4291,
      "ĠatÃ¨": 4292,
      "ĠSEO": 4293,
      "ĠLiy": 4294,
      "-b": 4295,
      "oth": 4296,
      "Ġfib": 4297,
      "Ġwoule": 4298,
      "Ġpwal": 4299,
      "ĠLegliz": 4300,
      "ĠpwomÃ¨t": 4301,
      "ĠTor": 4302,
      "glas": 4303,
      "Ġben": 4304,
      "aming": 4305,
      "ĠGenyen": 4306,
      "ashington": 4307,
      "Ġbalans": 4308,
      "ĠkaryÃ¨": 4309,
      "Ġjounal": 4310,
      "ky": 4311,
      "Ġsinema": 4312,
      "CH": 4313,
      "Ġekspoze": 4314,
      "ĠpÃ²v": 4315,
      "dyan": 4316,
      "ĠmÃ¨si": 4317,
      "Ġkonsil": 4318,
      "ĠetikÃ¨t": 4319,
      "rapi": 4320,
      "ĠFer": 4321,
      "lash": 4322,
      "stewÃ²n": 4323,
      "ĠKreyÃ²l": 4324,
      "ĠfwontyÃ¨": 4325,
      "ĠSch": 4326,
      "aya": 4327,
      "ĠVann": 4328,
      "ĠTouris": 4329,
      "Ġpour": 4330,
      "ĠFon": 4331,
      "\".Ċ": 4332,
      "Ġandroid": 4333,
      "ĠiTunes": 4334,
      "ĠVin": 4335,
      "Ġlemond": 4336,
      "kÃ¨t": 4337,
      "ĠDom": 4338,
      "ĠentÃ¨di": 4339,
      "Ġdemok": 4340,
      "Ġmalad": 4341,
      "ktivman": 4342,
      "mar": 4343,
      "Ġegzamen": 4344,
      "Ġtem": 4345,
      "Ġotori": 4346,
      "ĠinivÃ¨site": 4347,
      "ĠPar": 4348,
      "ĠsÃ¨vo": 4349,
      "ĠMartin": 4350,
      "Ġsyantifik": 4351,
      "ĠWay": 4352,
      "Ġele": 4353,
      "ĠAnavar": 4354,
      "ĠLouis": 4355,
      "ball": 4356,
      "Ġpm": 4357,
      "Ġtisi": 4358,
      "Ġnesans": 4359,
      "tematik": 4360,
      "rike": 4361,
      "Ġfichiers": 4362,
      "ĠÃ¨ske": 4363,
      "Ġdin": 4364,
      "ondaj": 4365,
      "aire": 4366,
      "ĠpanÃ¨l": 4367,
      "Ġamelyorasyon": 4368,
      "ĠkÃ²rÃ¨k": 4369,
      "ney": 4370,
      "Ġfinalman": 4371,
      "ĠNa": 4372,
      "Ġetaj": 4373,
      "ĠEmi": 4374,
      "Ġfondamantal": 4375,
      "dou": 4376,
      "ĠkonvÃ¨sasyon": 4377,
      "Ġradyo": 4378,
      "Ġasistans": 4379,
      "ĠekstrÃ¨": 4380,
      "bu": 4381,
      "vasyon": 4382,
      "Ġvolim": 4383,
      "aking": 4384,
      "ĠfavÃ¨": 4385,
      "ĠFacebook": 4386,
      "Ã²de": 4387,
      "Ġkonbyen": 4388,
      "ker": 4389,
      "pans": 4390,
      "ull": 4391,
      "ĠJak": 4392,
      "zime": 4393,
      "versity": 4394,
      "sÃ²": 4395,
      "ranj": 4396,
      "ĠTre": 4397,
      "Ġmouton": 4398,
      "skripsyon": 4399,
      "Atik": 4400,
      "my": 4401,
      "Ġsent": 4402,
      "rump": 4403,
      "tans": 4404,
      "Ġedisyon": 4405,
      "ĠPaul": 4406,
      "ĠEste": 4407,
      "ĠOswa": 4408,
      "spÃ²": 4409,
      "ĠPari": 4410,
      "Ġdefans": 4411,
      "liyans": 4412,
      "ĠLan": 4413,
      "Ġtank": 4414,
      "ĠkouwÃ²n": 4415,
      "Ġmatch": 4416,
      "Ġsesyon": 4417,
      "mas": 4418,
      "its": 4419,
      "ĠFanm": 4420,
      "ĠPÃ²l": 4421,
      "ĠsÃ¨tÃ¨nman": 4422,
      "ĠAlex": 4423,
      "tos": 4424,
      "ĠMc": 4425,
      "....": 4426,
      "ĠetajÃ¨": 4427,
      "ĠLaj": 4428,
      "ith": 4429,
      "ĠJida": 4430,
      "Ġespi": 4431,
      "Ġfwo": 4432,
      "Ġkonstwi": 4433,
      "Ġfaz": 4434,
      "Ġposede": 4435,
      "ĠNwÃ¨l": 4436,
      "Ġvol": 4437,
      "Ġdifikilte": 4438,
      "SP": 4439,
      "adjÃ¨": 4440,
      "ĠPOU": 4441,
      "Ġpwobableman": 4442,
      "Ġkreyasyon": 4443,
      "eu": 4444,
      "ĠSekirite": 4445,
      "Ġdown": 4446,
      "veni": 4447,
      "Ġsub": 4448,
      "br": 4449,
      "Ġsup": 4450,
      "____": 4451,
      "Ġanviwon": 4452,
      "Ġoptimize": 4453,
      "Ġrepete": 4454,
      "ms": 4455,
      "alize": 4456,
      "mÃ©": 4457,
      "pwo": 4458,
      "Ġpolis": 4459,
      "Ġbaton": 4460,
      "ctor": 4461,
      "andÃ¨": 4462,
      "Ġtoun": 4463,
      "Ġeksprime": 4464,
      "ĠbidjÃ¨": 4465,
      "liam": 4466,
      "konomi": 4467,
      "tostewÃ²n": 4468,
      "mobilye": 4469,
      "Ġpur": 4470,
      "low": 4471,
      "ĠUSA": 4472,
      "Tele": 4473,
      "rÃ¨v": 4474,
      "Anpil": 4475,
      "Ġfri": 4476,
      "ĠTwitter": 4477,
      "aketing": 4478,
      "ĠiPad": 4479,
      "Ġviris": 4480,
      "Ġlank": 4481,
      "ĠWashington": 4482,
      "mb": 4483,
      "ĠRap": 4484,
      "Ġalyaj": 4485,
      "sinon": 4486,
      "maj": 4487,
      "raksyon": 4488,
      "Ġrezidan": 4489,
      "bÃ¨": 4490,
      "devou": 4491,
      "Ġvide": 4492,
      "ĠLau": 4493,
      "less": 4494,
      "AE": 4495,
      "ĠPyÃ¨": 4496,
      "table": 4497,
      "Ġpatisipan": 4498,
      "cation": 4499,
      "Ġanplis": 4500,
      "Ġfondasyon": 4501,
      "referans": 4502,
      "Ġmiltip": 4503,
      "ĠPran": 4504,
      "ĠKal": 4505,
      "Ġmatche": 4506,
      "Ġdepoze": 4507,
      "AK": 4508,
      "ĠPak": 4509,
      "ĠWar": 4510,
      "Kont": 4511,
      "Ã²done": 4512,
      "woule": 4513,
      "ĠsekrÃ¨": 4514,
      "ĠTrump": 4515,
      "Ã¨kredi": 4516,
      "lizasyon": 4517,
      "elasyon": 4518,
      "vidan": 4519,
      "Ġdepanse": 4520,
      "hilippe": 4521,
      "Sen": 4522,
      "Ġenspe": 4523,
      "uve": 4524,
      "Ġteste": 4525,
      "UR": 4526,
      "yes": 4527,
      "Ġespesyalize": 4528,
      "Ġreprezantan": 4529,
      "dio": 4530,
      "anno": 4531,
      "Ġbenefisye": 4532,
      "Ġsezi": 4533,
      "ĠtÃ¨mik": 4534,
      "Ġadisyon": 4535,
      "Ġmanti": 4536,
      "Jean": 4537,
      "iv": 4538,
      "vÃ¨t": 4539,
      "oma": 4540,
      "Ġkoreksyon": 4541,
      "Ġsijere": 4542,
      "ret": 4543,
      "ĠBel": 4544,
      "ĠtravÃ¨se": 4545,
      "ĠsenbÃ²l": 4546,
      "viwÃ²nman": 4547,
      "ĠPanyÃ²l": 4548,
      "Ġmerite": 4549,
      "kitif": 4550,
      "Ġlapolis": 4551,
      "Ġanp": 4552,
      "sonn": 4553,
      "Pwodwi": 4554,
      "ĠDesanm": 4555,
      "por": 4556,
      "Ġlafwa": 4557,
      "ĠekspÃ²tasyon": 4558,
      "Ġven": 4559,
      "Tou": 4560,
      "ence": 4561,
      "Ġrevizyon": 4562,
      "Ġestab": 4563,
      "Gwo": 4564,
      "Ġflo": 4565,
      "Ġvag": 4566,
      "gredyan": 4567,
      "Ġkonpetitif": 4568,
      "nou": 4569,
      ".B": 4570,
      "Ni": 4571,
      "wayÃ¨n": 4572,
      "ket": 4573,
      "ĠdisparÃ¨t": 4574,
      "Ġst": 4575,
      "girasyon": 4576,
      "ĠKab": 4577,
      "Ġkonsant": 4578,
      "jak": 4579,
      "Ð°": 4580,
      "Ġkonpati": 4581,
      "ĠblÃ²k": 4582,
      "inÃ¨t": 4583,
      "-G": 4584,
      "Ġvote": 4585,
      "ĠPat": 4586,
      "Ã©lÃ©": 4587,
      "Ġenkon": 4588,
      "ĠfÃ¨k": 4589,
      "ĠAle": 4590,
      "odÃ¨l": 4591,
      "ĠkilomÃ¨t": 4592,
      "ĠKomin": 4593,
      "Ġwonn": 4594,
      "Ġdiskisyon": 4595,
      "anne": 4596,
      "ĠBrezil": 4597,
      "Ġnatif": 4598,
      "ĠFor": 4599,
      "ĠDapre": 4600,
      "umb": 4601,
      "ĠLang": 4602,
      "ĠYuan": 4603,
      "Ġsantiman": 4604,
      "rk": 4605,
      "Ġosinon": 4606,
      "ĠMiz": 4607,
      "ĠJiyÃ¨": 4608,
      "Ġpwolonje": 4609,
      "OP": 4610,
      "ST": 4611,
      "sesis": 4612,
      "Ġcm": 4613,
      "ĠchanÃ¨l": 4614,
      "mal": 4615,
      "ĠSwis": 4616,
      "jon": 4617,
      "wojÃ¨n": 4618,
      "ling": 4619,
      "pro": 4620,
      "ville": 4621,
      "jil": 4622,
      "Ġfonde": 4623,
      "ĠsolÃ¨": 4624,
      "ĠIsland": 4625,
      "ĠBiwo": 4626,
      "Ġ>": 4627,
      "ĠkÃ²lÃ¨": 4628,
      "Ġreyaksyon": 4629,
      "Ġrankont": 4630,
      "Ġbak": 4631,
      "Ġidwolik": 4632,
      "onder": 4633,
      "ĠDoktÃ¨": 4634,
      "ĠBu": 4635,
      "Ĥ¬": 4636,
      "ĠAchte": 4637,
      "ĠKON": 4638,
      "isyon": 4639,
      "time": 4640,
      "ĠMÃ¨t": 4641,
      "ĠIland": 4642,
      "Ġadministrasyon": 4643,
      "EY": 4644,
      "ĠZone": 4645,
      "syÃ²m": 4646,
      "Ġapwouve": 4647,
      "eld": 4648,
      "ĠJacques": 4649,
      "ĠWal": 4650,
      "ĠMartech": 4651,
      "ĠUniversity": 4652,
      "ĠfransÃ¨": 4653,
      "Ġfredi": 4654,
      "Ġnap": 4655,
      "Ã§ois": 4656,
      "ĠLap": 4657,
      "ĠAtik": 4658,
      "ĠFlorid": 4659,
      "of": 4660,
      "ĠBern": 4661,
      "ĠGratis": 4662,
      "ĠLekÃ²l": 4663,
      "Ġdeskripsyon": 4664,
      "ĠPitit": 4665,
      "And": 4666,
      "Ġblese": 4667,
      "gr": 4668,
      "ml": 4669,
      "Ġlit": 4670,
      "tÃ¨ks": 4671,
      "Ġplon": 4672,
      "ĠPrix": 4673,
      "ĠLwa": 4674,
      "Ġtradisyon": 4675,
      "Ġzwazo": 4676,
      "mail": 4677,
      "Ġfonn": 4678,
      "ĠLond": 4679,
      "tankou": 4680,
      "yorite": 4681,
      "Ġdousman": 4682,
      "Ġrezidans": 4683,
      "ĠMÃ¨si": 4684,
      "ĠachtÃ¨": 4685,
      "Ã¶": 4686,
      "syativ": 4687,
      "Ġvizyon": 4688,
      "Ġelaji": 4689,
      "Ġkonsekans": 4690,
      "Ġklima": 4691,
      "Ġdimansyon": 4692,
      "Ġefe": 4693,
      "Ġtras": 4694,
      "ulti": 4695,
      "ĠoperatÃ¨": 4696,
      "Ġdedye": 4697,
      "omas": 4698,
      "Ġlekti": 4699,
      "ĠDianabol": 4700,
      "ĠKarayib": 4701,
      "ĠkonfÃ²tab": 4702,
      "ĠDetay": 4703,
      "Ġkonven": 4704,
      "ĠÂ£": 4705,
      "ĠekstrÃ¨m": 4706,
      "Jan": 4707,
      "ng": 4708,
      "Ġkann": 4709,
      "Ġmis": 4710,
      "Ġmeni": 4711,
      "ennÃ¨t": 4712,
      "Ġesklav": 4713,
      "Ġlakou": 4714,
      "Ġsiyifik": 4715,
      "ĠendividyÃ¨l": 4716,
      "zatÃ¨": 4717,
      "ĠprÃ©": 4718,
      "ĠjÃ²n": 4719,
      "voke": 4720,
      "tistik": 4721,
      "ones": 4722,
      "Ġyap": 4723,
      "ĠTim": 4724,
      "ajou": 4725,
      "Ġekonomize": 4726,
      "ĠPen": 4727,
      "Ġvia": 4728,
      "Ġdevwa": 4729,
      "Ġrej": 4730,
      "ansÃ¨t": 4731,
      "Ġdetaye": 4732,
      "ĠHD": 4733,
      "Ġjwif": 4734,
      "Ġswe": 4735,
      "ĠPow": 4736,
      "pirasyon": 4737,
      "ĠTur": 4738,
      "ĠRobert": 4739,
      "Ġnitri": 4740,
      "ption": 4741,
      "Prezidan": 4742,
      "Mari": 4743,
      "ĠPR": 4744,
      "Ġegal": 4745,
      "no": 4746,
      "rantis": 4747,
      "ĠpokÃ¨": 4748,
      "toral": 4749,
      "Ġsansib": 4750,
      "run": 4751,
      "ĠEske": 4752,
      "):": 4753,
      "ĠDÃ©": 4754,
      "vÃ¨sÃ¨": 4755,
      "wÃ²m": 4756,
      "wad": 4757,
      "ĠranpÃ²te": 4758,
      "andriye": 4759,
      "-yo": 4760,
      "KÃ²": 4761,
      "ĠsentÃ²m": 4762,
      "rije": 4763,
      "ĠpousyÃ¨": 4764,
      "ild": 4765,
      "olitik": 4766,
      "Kara": 4767,
      "ĠEst": 4768,
      "Ġgrafik": 4769,
      "-en": 4770,
      "reg": 4771,
      "ĠpwomÃ¨s": 4772,
      "ĠNatirÃ¨l": 4773,
      "ĠVo": 4774,
      "www": 4775,
      "Ġafiche": 4776,
      "Ġseg": 4777,
      "Ġhttps": 4778,
      "Ġjijman": 4779,
      "ĠbÃ¨f": 4780,
      "ĠAli": 4781,
      "ĠnÃ²malman": 4782,
      "ĠkÃ²t": 4783,
      "Ġteren": 4784,
      "ĠMateryÃ¨l": 4785,
      "yis": 4786,
      "Ġkla": 4787,
      "enne": 4788,
      "Chak": 4789,
      "chman": 4790,
      "Ã¨ve": 4791,
      "ĠTab": 4792,
      "Ġofrann": 4793,
      "ĠpwofÃ¨t": 4794,
      "vyÃ¨t": 4795,
      "Ġkonplete": 4796,
      "non": 4797,
      "Ġmiz": 4798,
      "ĠDr": 4799,
      "right": 4800,
      "Ġzetwal": 4801,
      "ĠPlus": 4802,
      "gas": 4803,
      "omik": 4804,
      "ĠPwote": 4805,
      "jand": 4806,
      "Ġmodifye": 4807,
      "fle": 4808,
      "Ġklo": 4809,
      "ĠJez": 4810,
      "ĠsÃ¨vyÃ¨t": 4811,
      "Ġegzakteman": 4812,
      "Ġlegim": 4813,
      "cent": 4814,
      "rase": 4815,
      "Ġnonmen": 4816,
      "Ġenfliyans": 4817,
      "Youn": 4818,
      "kap": 4819,
      "chard": 4820,
      "ĠHigh": 4821,
      "Sepandan": 4822,
      "ĠAfrik": 4823,
      "ier": 4824,
      "obil": 4825,
      "tÃ¨z": 4826,
      "Ġsivi": 4827,
      "Ġjij": 4828,
      "Ġjounalis": 4829,
      "ĠCharles": 4830,
      "sipal": 4831,
      "ĠMP": 4832,
      "ĠchÃ¨n": 4833,
      "atch": 4834,
      "Kisa": 4835,
      "ht": 4836,
      "log": 4837,
      "Ġkale": 4838,
      "ĠsalÃ¨": 4839,
      "ours": 4840,
      "Ġvolonte": 4841,
      "Ġmit": 4842,
      "ĠfÃ¨b": 4843,
      "Ġgal": 4844,
      "Ġapresye": 4845,
      "ĠGwoup": 4846,
      "ational": 4847,
      "Ġmay": 4848,
      "vious": 4849,
      "EK": 4850,
      "WA": 4851,
      "ĠadisyonÃ¨l": 4852,
      "Rezime": 4853,
      "ĠMed": 4854,
      "Ġplante": 4855,
      "Ġteyat": 4856,
      "Ġfiks": 4857,
      "ide": 4858,
      "oke": 4859,
      "ĠRos": 4860,
      "âĢĶ": 4861,
      "minÃ¨l": 4862,
      "ison": 4863,
      "Ġsibi": 4864,
      "Ġabitye": 4865,
      "ED": 4866,
      "mine": 4867,
      "Ġenpresyon": 4868,
      "ĠkonsÃ¨p": 4869,
      "Ġbasen": 4870,
      "rantisaj": 4871,
      "hu": 4872,
      "Ġdisten": 4873,
      "lat": 4874,
      "amÃ¨t": 4875,
      "berto": 4876,
      "Gra": 4877,
      "olasyon": 4878,
      "press": 4879,
      "Ġrekiperasyon": 4880,
      "linik": 4881,
      "ĠtÃ²n": 4882,
      "RA": 4883,
      "illa": 4884,
      "Ġfouni": 4885,
      "ĠLis": 4886,
      "Ġaplik": 4887,
      "Ġvid": 4888,
      "roup": 4889,
      "Ġodyo": 4890,
      "ĠJoseph": 4891,
      "tike": 4892,
      "ĠKote": 4893,
      "Ġenstriman": 4894,
      "share": 4895,
      "Ġmikwo": 4896,
      "ĠestrÃ¨s": 4897,
      "vlopman": 4898,
      "rard": 4899,
      "Ġth": 4900,
      "ĠLam": 4901,
      "Ġprentan": 4902,
      "ĠChap": 4903,
      "rs": 4904,
      "syÃ¨n": 4905,
      "Ġevalye": 4906,
      "onk": 4907,
      "ĠanfÃ²m": 4908,
      "ĠâĤ¬": 4909,
      "ĠpatikilyÃ¨man": 4910,
      "Ã¨me": 4911,
      "rant": 4912,
      "Ġantrep": 4913,
      "Ġselebre": 4914,
      "Ġemisyon": 4915,
      "ĠClaude": 4916,
      "Ġchofe": 4917,
      "blisman": 4918,
      "Ġyou": 4919,
      "Ġrelativman": 4920,
      "ĠAmazon": 4921,
      "ĠkÃ¨lkeswa": 4922,
      "Ġfati": 4923,
      "ĠvÃ²t": 4924,
      "ĠPatri": 4925,
      "Ġenfeksyon": 4926,
      "Ġalman": 4927,
      "Ġspe": 4928,
      "ets": 4929,
      "chael": 4930,
      "Ã©ri": 4931,
      "Ġpandemi": 4932,
      "ðŁ": 4933,
      "spri": 4934,
      "ĠAne": 4935,
      "fer": 4936,
      "sik": 4937,
      "Ġkonsyans": 4938,
      "Ġmwazi": 4939,
      "ĠKliyan": 4940,
      "/S": 4941,
      "Ġkonta": 4942,
      "too": 4943,
      "Ġfrekans": 4944,
      "lope": 4945,
      "Ġenfliyan": 4946,
      "Ġwete": 4947,
      "Ġleson": 4948,
      "hoto": 4949,
      "ĠPÃ²ti": 4950,
      "Ġkoton": 4951,
      "Ġrenou": 4952,
      "Malgre": 4953,
      "Ġdownload": 4954,
      "Â«": 4955,
      "ĠlazÃ¨": 4956,
      "ĠVideyo": 4957,
      "YE": 4958,
      "ĠCal": 4959,
      "cks": 4960,
      "ĠNOU": 4961,
      "ĠaltÃ¨natif": 4962,
      "Car": 4963,
      "TV": 4964,
      "Ġhe": 4965,
      "ĠfennÃ¨t": 4966,
      "ires": 4967,
      "Ġsin": 4968,
      "zÃ¨n": 4969,
      "Ġgout": 4970,
      "ĠorÃ¨": 4971,
      "ĠFas": 4972,
      "ĠVic": 4973,
      "Ġenkyete": 4974,
      "Ġtal": 4975,
      "Ġkontri": 4976,
      "ĠzansÃ¨t": 4977,
      "ĠparÃ¨y": 4978,
      "Ġkam": 4979,
      "dex": 4980,
      "ĠRu": 4981,
      "Ġlad": 4982,
      "ĠDezyÃ¨m": 4983,
      "Ã¨nyÃ¨man": 4984,
      "Ġdekorasyon": 4985,
      "Pati": 4986,
      "Ã«": 4987,
      "manch": 4988,
      "Ġposibilite": 4989,
      "ĠGouvÃ¨nman": 4990,
      "ken": 4991,
      "tiz": 4992,
      "Ġboutik": 4993,
      "ĠzÃ²rÃ¨y": 4994,
      "Ġsab": 4995,
      "amik": 4996,
      "LC": 4997,
      "Ġklase": 4998,
      "ĠâĢ¦": 4999,
      "Ġtotalman": 5000,
      "aro": 5001,
      "Ġtansyon": 5002,
      "ikri": 5003,
      "ĠkontinyÃ¨l": 5004,
      "aniel": 5005,
      "ĠTimoun": 5006,
      "Ġmelanj": 5007,
      "Ġkondan": 5008,
      "ĠDwa": 5009,
      "ĠStef": 5010,
      "ĠLafrik": 5011,
      "'.Ċ": 5012,
      "Kan": 5013,
      "Ã²y": 5014,
      "Ġenstriksyon": 5015,
      "Bo": 5016,
      "Previous": 5017,
      "sonnalis": 5018,
      "olden": 5019,
      "Dat": 5020,
      "ardo": 5021,
      "Pierre": 5022,
      "ĠLak": 5023,
      "ĠBlue": 5024,
      "Ġevalyasyon": 5025,
      "mil": 5026,
      "Ġrepo": 5027,
      "ĠPifÃ²": 5028,
      "Ġkontribye": 5029,
      "ĠmyÃ¨l": 5030,
      "Ġanime": 5031,
      "Ĺı": 5032,
      "inen": 5033,
      "ĠBur": 5034,
      "ĠNenpÃ²t": 5035,
      "osÃ©": 5036,
      "ĠpÃ²m": 5037,
      "tatÃ¨": 5038,
      "ĠMesye": 5039,
      "Ġfam": 5040,
      "Ġpwofi": 5041,
      "Ġijans": 5042,
      "Ġpoto": 5043,
      "ĠmakÃ¨t": 5044,
      "ĠabsÃ²": 5045,
      "ÃŃn": 5046,
      "Ġbese": 5047,
      "Ran": 5048,
      "Tankou": 5049,
      "ĠÐ": 5050,
      "ĠMos": 5051,
      "ikle": 5052,
      "ĠWilliam": 5053,
      "lÃ²pman": 5054,
      "Ġalam": 5055,
      "ĠpÃ²syon": 5056,
      "fab": 5057,
      "port": 5058,
      "Ġaksan": 5059,
      "ĠMaga": 5060,
      "Ġrezonab": 5061,
      "ĠmatyÃ¨": 5062,
      "ĠPwojÃ¨": 5063,
      "ĠRÃ¨g": 5064,
      "Ġotomobil": 5065,
      "San": 5066,
      "ove": 5067,
      "Ġpeyizan": 5068,
      "Ġchif": 5069,
      "Ġfederal": 5070,
      "ĠMicro": 5071,
      "tle": 5072,
      "ĠTitÃłn": 5073,
      "sire": 5074,
      "Ġansent": 5075,
      "zite": 5076,
      "Ġda": 5077,
      "sey": 5078,
      "ĠCha": 5079,
      "Repon": 5080,
      "Ġrefwa": 5081,
      "Ġsondaj": 5082,
      "Ke": 5083,
      "ĠRou": 5084,
      "Ġsikon": 5085,
      "Ġreklamasyon": 5086,
      "Ġmm": 5087,
      "Ġakoz": 5088,
      "Ġmens": 5089,
      "ĠFrancis": 5090,
      "ĠâĨ": 5091,
      "pandans": 5092,
      "ĠLas": 5093,
      "key": 5094,
      "Ko": 5095,
      "uk": 5096,
      "veyans": 5097,
      ".âĢĿĊ": 5098,
      "ĠBible": 5099,
      "Ġpisin": 5100,
      "Ġkostim": 5101,
      "Ġmodpas": 5102,
      "El": 5103,
      "Ġnatal": 5104,
      "Ġekz": 5105,
      "ĠSeri": 5106,
      "istra": 5107,
      "Ġrelijyon": 5108,
      "ĠVir": 5109,
      "jo": 5110,
      "ĠUN": 5111,
      "Ġetablisman": 5112,
      "Ġkrim": 5113,
      "Ġmask": 5114,
      "Ġplus": 5115,
      "Ġwap": 5116,
      "ĠManje": 5117,
      "DA": 5118,
      "ĠTran": 5119,
      "ĠRod": 5120,
      "ĠBritanik": 5121,
      "ĠTestostewÃ²n": 5122,
      "IV": 5123,
      "ĠaswÃ¨": 5124,
      "ikipe": 5125,
      "pitasyon": 5126,
      "Ġegzije": 5127,
      "martph": 5128,
      "uni": 5129,
      "ath": 5130,
      "poli": 5131,
      "ora": 5132,
      "ĠPrin": 5133,
      "Ġmonn": 5134,
      "Ã¨d": 5135,
      "Ġengredyan": 5136,
      "ĠChwazi": 5137,
      "ĠkonsÃ¨ne": 5138,
      "Ã¯ti": 5139,
      "CD": 5140,
      "Ġpreparasyon": 5141,
      "Ġmode": 5142,
      "ĠkÃ²z": 5143,
      "Ġanalize": 5144,
      "Ġkolo": 5145,
      "Ġdemen": 5146,
      "Ġeksplore": 5147,
      "+,": 5148,
      "ondershare": 5149,
      "GR": 5150,
      "Ġanile": 5151,
      "ĠStar": 5152,
      "Ġswit": 5153,
      "Ġpost": 5154,
      "Ġmadi": 5155,
      "Ġmantal": 5156,
      "ĠKons": 5157,
      "Ġlwanj": 5158,
      "risite": 5159,
      "lio": 5160,
      "Soti": 5161,
      "inÃ¨": 5162,
      "Ġvas": 5163,
      "oni": 5164,
      "Ġdewoule": 5165,
      "lix": 5166,
      "Ġkokenn": 5167,
      "Ġacha": 5168,
      "ĠXN": 5169,
      "xy": 5170,
      "ipalite": 5171,
      "mak": 5172,
      "ĠKI": 5173,
      "fu": 5174,
      "Ġpant": 5175,
      "ĠWord": 5176,
      "nik": 5177,
      "ĠouvÃ¨ti": 5178,
      "ĠAC": 5179,
      "ator": 5180,
      "wÃ¨d": 5181,
      "venel": 5182,
      "Ġreyisi": 5183,
      "Koulye": 5184,
      "ĠJezikri": 5185,
      "ĠPVC": 5186,
      "outh": 5187,
      "Ġout": 5188,
      "ĠlwÃ¨s": 5189,
      "Jwenn": 5190,
      "ĠReta": 5191,
      "Ġviza": 5192,
      "Ġenspire": 5193,
      "Ġzanj": 5194,
      "bous": 5195,
      "Ġespirit": 5196,
      "kout": 5197,
      "ĠDepo": 5198,
      "Ðµ": 5199,
      "Ġpik": 5200,
      "rizon": 5201,
      "ritaj": 5202,
      "ĠKÃ¨k": 5203,
      "Ġsipoze": 5204,
      "tÃ¨nite": 5205,
      "ĠdetÃ¨": 5206,
      "'H": 5207,
      "Ã²te": 5208,
      "Ġlabo": 5209,
      "ĠkÃ²b": 5210,
      "Ġul": 5211,
      "'l": 5212,
      "Fo": 5213,
      "Ġdik": 5214,
      "Ġenvan": 5215,
      "ĠrabÃ¨": 5216,
      "ĠbibliyotÃ¨k": 5217,
      "vyou": 5218,
      "Ġero": 5219,
      "Ġmize": 5220,
      "Ġpipi": 5221,
      "alerezman": 5222,
      "Wi": 5223,
      "ĠBil": 5224,
      "dikal": 5225,
      "Ġreziste": 5226,
      "Ġkolabo": 5227,
      "!!": 5228,
      "Ġsp": 5229,
      "Ġakade": 5230,
      "lette": 5231,
      "Ġpwopoze": 5232,
      "ĠEndistri": 5233,
      "Ġjenere": 5234,
      "cas": 5235,
      "Ġdipl": 5236,
      "ĠvidÃ©": 5237,
      "TE": 5238,
      "Ġandik": 5239,
      "ĠPort": 5240,
      "ĠTankou": 5241,
      "ĠEspesyal": 5242,
      "ena": 5243,
      "ĠBab": 5244,
      "Ġprese": 5245,
      "Ġespesyalis": 5246,
      "Dis": 5247,
      "ytics": 5248,
      "tap": 5249,
      "ĠOp": 5250,
      "bank": 5251,
      "ĠEkip": 5252,
      "ĠLimyÃ¨": 5253,
      "Ġ~": 5254,
      "ĠPu": 5255,
      "Ġenfra": 5256,
      "DF": 5257,
      "laj": 5258,
      "Ġkm": 5259,
      "ĠSwÃ¨d": 5260,
      "Karakteristik": 5261,
      "iss": 5262,
      "ĠenfÃ²m": 5263,
      "ĠHou": 5264,
      "orges": 5265,
      "Ġrelijye": 5266,
      "omÃ¨n": 5267,
      "ĠFak": 5268,
      "ĠApp": 5269,
      "Ġsibstans": 5270,
      "Min": 5271,
      "ĠkrÃ¨m": 5272,
      "ĠWomen": 5273,
      "ĠatlÃ¨t": 5274,
      "ground": 5275,
      "Ġlaboratwa": 5276,
      "Ġamizman": 5277,
      "pesÃ¨": 5278,
      "ASYON": 5279,
      "cam": 5280,
      "Ġbro": 5281,
      "ĠKÃ²d": 5282,
      "OD": 5283,
      "Ġfl": 5284,
      "eg": 5285,
      "ĠkriminÃ¨l": 5286,
      "Ġfavo": 5287,
      "zy": 5288,
      "Ġatann": 5289,
      "ayon": 5290,
      "Ġdistribi": 5291,
      "mark": 5292,
      "Ġmisye": 5293,
      "ĠechÃ¨l": 5294,
      "-d": 5295,
      "ments": 5296,
      "kipman": 5297,
      "Ġkwaze": 5298,
      "Ġfabrike": 5299,
      "Ġimidite": 5300,
      "miz": 5301,
      "eth": 5302,
      "Ġotan": 5303,
      "ĠAka": 5304,
      "Ġcar": 5305,
      "Ġabsoliman": 5306,
      "rome": 5307,
      "Ġdam": 5308,
      "ĠPA": 5309,
      "sijÃ¨n": 5310,
      "cial": 5311,
      "lot": 5312,
      "lÃ¨s": 5313,
      "ĠpÃ¨manan": 5314,
      "erja": 5315,
      "Ġfasilman": 5316,
      "Ġidantite": 5317,
      "dman": 5318,
      "ĠvapÃ¨": 5319,
      "ĠGwen": 5320,
      "mp": 5321,
      "Ġdj": 5322,
      "Ġglo": 5323,
      "Ġsoulye": 5324,
      "ĠMarie": 5325,
      "Ġsuper": 5326,
      "Ġzanmitay": 5327,
      "nÃ¨t": 5328,
      "ĠdezÃ¨": 5329,
      "Ġfoul": 5330,
      "ĠEstewoyid": 5331,
      "Ä°": 5332,
      "Ä±": 5333,
      "Ġkas": 5334,
      "aktif": 5335,
      "cker": 5336,
      "ĠmilimÃ¨t": 5337,
      "Ġkreyatif": 5338,
      "stagram": 5339,
      "Ġtv": 5340,
      "Ġile": 5341,
      "paye": 5342,
      "Ġatmos": 5343,
      "Ġespwa": 5344,
      "Ġwoulo": 5345,
      "ĠBreaking": 5346,
      "zman": 5347,
      "ĠAnvan": 5348,
      "ripsyon": 5349,
      "Press": 5350,
      "cio": 5351,
      "Ġplase": 5352,
      "soft": 5353,
      "âĢ¦Ċ": 5354,
      "Ġrap": 5355,
      "Ġglise": 5356,
      "ĠvidÃ©o": 5357,
      "ches": 5358,
      "ĠFanmi": 5359,
      "Ġestoke": 5360,
      "Ġnego": 5361,
      "ĠNews": 5362,
      "ĠankÃ¨t": 5363,
      "ĠDC": 5364,
      "ĠÂ»Ċ": 5365,
      "-T": 5366,
      "Ġrepitasyon": 5367,
      "ĠCe": 5368,
      "disman": 5369,
      "Ġsta": 5370,
      "ĠplanÃ¨t": 5371,
      "Ġopoze": 5372,
      "ĠKisa": 5373,
      "Ġplent": 5374,
      "zidans": 5375,
      "Nouvo": 5376,
      "-up": 5377,
      "Isit": 5378,
      "wood": 5379,
      "Ġpla": 5380,
      "rjistre": 5381,
      "itekti": 5382,
      "Ġvalv": 5383,
      "otel": 5384,
      "Ġreparasyon": 5385,
      "âĢĿ.": 5386,
      "ĠJanvye": 5387,
      "erjave": 5388,
      "ĠdwÃ¨t": 5389,
      "rjistreman": 5390,
      "ĠStre": 5391,
      "rop": 5392,
      "Ġbijou": 5393,
      "ĠTop": 5394,
      "vÃ¨tisman": 5395,
      "ĠFu": 5396,
      "ĠMinistÃ¨": 5397,
      "PR": 5398,
      "ografi": 5399,
      "ĠKoulÃ¨": 5400,
      "ĠvÃ²ltaj": 5401,
      "Ġkit": 5402,
      "ĠBla": 5403,
      "Ġkomisyon": 5404,
      "lastik": 5405,
      "Ġantoure": 5406,
      "Ar": 5407,
      "ĠGlo": 5408,
      "ĠOzetazini": 5409,
      "Jodi": 5410,
      "Les": 5411,
      "Ġenfim": 5412,
      "Ġpriyorite": 5413,
      "Ġaprantisaj": 5414,
      "ĠRey": 5415,
      "Ġamann": 5416,
      "Ġtak": 5417,
      "merik": 5418,
      "Ġfraz": 5419,
      "Ã¨i": 5420,
      "stasyon": 5421,
      "Ġrevele": 5422,
      "Ġjwenti": 5423,
      "Ġnen": 5424,
      "ĠLit": 5425,
      "Ġkoro": 5426,
      "ĠlÃ¨s": 5427,
      "ĠHam": 5428,
      "Ġkalandriye": 5429,
      "Ġvar": 5430,
      "ĠSun": 5431,
      "Ġmouye": 5432,
      "gue": 5433,
      "Ġaje": 5434,
      "ĠBas": 5435,
      "abon": 5436,
      "ĠStefani": 5437,
      "tage": 5438,
      "yet": 5439,
      "sage": 5440,
      "SÃ¨vi": 5441,
      "osta": 5442,
      "Ġjije": 5443,
      "Ġkouraj": 5444,
      "ĠJovenel": 5445,
      "Ġatitid": 5446,
      "ĠSand": 5447,
      "ĠSuper": 5448,
      "ĠMes": 5449,
      "ĠzÃ¨b": 5450,
      "rel": 5451,
      "Ġdomaje": 5452,
      "ĠFilip": 5453,
      "rio": 5454,
      "ĠHer": 5455,
      "von": 5456,
      "Ġklinik": 5457,
      "ĠespÃ¨s": 5458,
      "Ġkalkile": 5459,
      "Ġtranz": 5460,
      "OUN": 5461,
      "omon": 5462,
      "olone": 5463,
      "Ġha": 5464,
      "ĠâĦ": 5465,
      "ĠWeb": 5466,
      "erjaveÃ¨i": 5467,
      "Ġemo": 5468,
      "ĠkoÃ²done": 5469,
      "Ġpor": 5470,
      "Ġedik": 5471,
      "ĠTren": 5472,
      "Ġwww": 5473,
      "yansyon": 5474,
      "Ġtabli": 5475,
      "Ġaktris": 5476,
      "ĠJaponÃ¨": 5477,
      "ĠJack": 5478,
      "Ġrefle": 5479,
      "Ġkoresponn": 5480,
      "burg": 5481,
      "wayÃ¨nte": 5482,
      "pto": 5483,
      "ĠMel": 5484,
      "ĠBra": 5485,
      "bet": 5486,
      "oul": 5487,
      "ĠImÃ¨l": 5488,
      "Ġverifye": 5489,
      "dyen": 5490,
      "Ġser": 5491,
      "minal": 5492,
      "ayiti": 5493,
      "uiv": 5494,
      "Ã²lÃ¨": 5495,
      "ĠBan": 5496,
      "berg": 5497,
      "ĠYen": 5498,
      "Ġque": 5499,
      "tate": 5500,
      "ĠfÃ²k": 5501,
      "Ġreflete": 5502,
      "Ġkonfigirasyon": 5503,
      "ĠMaketing": 5504,
      "Ġdiskou": 5505,
      "bousman": 5506,
      "VD": 5507,
      "rage": 5508,
      "TR": 5509,
      "Ġpwopozisyon": 5510,
      "ĠangrÃ¨": 5511,
      "Ġanrejistreman": 5512,
      "ĠrichÃ¨s": 5513,
      "nam": 5514,
      "Ġmg": 5515,
      "ward": 5516,
      "Ġtradiksyon": 5517,
      "Ġweb": 5518,
      "-F": 5519,
      "wout": 5520,
      "ĠOto": 5521,
      "Ġdefinitivman": 5522,
      "Ġparye": 5523,
      "ĠDone": 5524,
      "skri": 5525,
      "ĠanlÃ¨": 5526,
      "Ġlik": 5527,
      "fÃ²mite": 5528,
      "-n": 5529,
      "Ãº": 5530,
      "Ġteyo": 5531,
      "vier": 5532,
      "mid": 5533,
      "Ġegzak": 5534,
      "Ġarete": 5535,
      "wayab": 5536,
      "ĠlektÃ¨": 5537,
      "Ġkonpetans": 5538,
      "finisyon": 5539,
      "ktop": 5540,
      "tane": 5541,
      "Ġtach": 5542,
      "-re": 5543,
      "ĠenfÃ²me": 5544,
      "derasyon": 5545,
      "ĠKounye": 5546,
      "Ġasas": 5547,
      "Ġekstansyon": 5548,
      "garde": 5549,
      "ault": 5550,
      "tip": 5551,
      "ĠVis": 5552,
      "Ġtransmisyon": 5553,
      "Ġavi": 5554,
      "ĠUAE": 5555,
      "Ġestabilite": 5556,
      "Ġabiye": 5557,
      "Travay": 5558,
      "Dapre": 5559,
      "Ġcor": 5560,
      "sie": 5561,
      "Konpayi": 5562,
      "Ġgerizon": 5563,
      "ĠVol": 5564,
      "Ġkonpre": 5565,
      "ĠAnton": 5566,
      "Ġotobis": 5567,
      "seyan": 5568,
      "Ġipo": 5569,
      "Ã²dab": 5570,
      "telly": 5571,
      "ĠEmira": 5572,
      "ĠsÃ¨vÃ¨": 5573,
      "kite": 5574,
      "Ġbonbon": 5575,
      "Ġgrangou": 5576,
      "ĠfidÃ¨l": 5577,
      "rasi": 5578,
      "Ġsemi": 5579,
      "ila": 5580,
      "ĠHack": 5581,
      "izisyen": 5582,
      "Ġposiblite": 5583,
      "Ġtip": 5584,
      "'E": 5585,
      "ism": 5586,
      "ĠensÃ¨": 5587,
      "bile": 5588,
      "%,": 5589,
      "ĠBene": 5590,
      "OB": 5591,
      "ĠIT": 5592,
      "ĠMax": 5593,
      "lektoral": 5594,
      "ĠKouman": 5595,
      "Ġretabli": 5596,
      "Ġfleksib": 5597,
      "Ġdinamik": 5598,
      "ĠPiblik": 5599,
      "Ġkonfli": 5600,
      "Ġreflechi": 5601,
      "ĠforÃ¨": 5602,
      "klizyon": 5603,
      "Ġenposib": 5604,
      "tikal": 5605,
      "Ġchape": 5606,
      "Ġinovasyon": 5607,
      "Kre": 5608,
      "gy": 5609,
      "syalite": 5610,
      "pera": 5611,
      "PE": 5612,
      "win": 5613,
      "Ġbondye": 5614,
      "Ġplato": 5615,
      "yÃ¨t": 5616,
      "ĠkontÃ¨ks": 5617,
      "Ġsenti": 5618,
      "Ġkamyon": 5619,
      ".)": 5620,
      "Ð¾": 5621,
      "Ġsekou": 5622,
      "pÃ²s": 5623,
      "fin": 5624,
      "vit": 5625,
      "Ġpwi": 5626,
      "isti": 5627,
      "set": 5628,
      "ĠPeye": 5629,
      "Ġpersonnalis": 5630,
      "ĠpÃ²tay": 5631,
      "ĠDouglas": 5632,
      "MÃ¨si": 5633,
      "lann": 5634,
      "rence": 5635,
      "bles": 5636,
      "Ġefektivman": 5637,
      "ĠCla": 5638,
      "Ġpaten": 5639,
      "ondan": 5640,
      "Ġevidan": 5641,
      "ĠchÃ¨k": 5642,
      "aka": 5643,
      "wÃ²d": 5644,
      "lizyÃ¨": 5645,
      "abore": 5646,
      "tory": 5647,
      "konte": 5648,
      "ĠÃ²dinÃ¨": 5649,
      "loud": 5650,
      "ĠCen": 5651,
      "ĠAndroid": 5652,
      "Epi": 5653,
      "ont": 5654,
      "Ġtwon": 5655,
      "Ġmenas": 5656,
      "UMX": 5657,
      "Ġrasanble": 5658,
      "Ġakonpaye": 5659,
      "Ġtwo": 5660,
      "ĠkolÃ¨j": 5661,
      "Ġferye": 5662,
      "Ġagre": 5663,
      "ĠLos": 5664,
      "vie": 5665,
      "Ġrezen": 5666,
      "Ġtranbleman": 5667,
      "ĠobsÃ¨ve": 5668,
      "Ġkanm": 5669,
      "Ġsmartph": 5670,
      "rine": 5671,
      "ĠPhilippe": 5672,
      "thumb": 5673,
      "ĠtransmÃ¨t": 5674,
      "Ġtok": 5675,
      "Ġkoray": 5676,
      "ĠpÃ¨se": 5677,
      "ĠWor": 5678,
      "Ġvalab": 5679,
      "Ġste": 5680,
      "ited": 5681,
      "ĠsÃ¨tifika": 5682,
      "ĠWondershare": 5683,
      "ĠInstagram": 5684,
      "ĠDistribisyon": 5685,
      "ĠMaj": 5686,
      "Ġdiv": 5687,
      "ditÃ¨": 5688,
      "Ġinisyativ": 5689,
      "Ġkolaborasyon": 5690,
      "ĠCoun": 5691,
      "dam": 5692,
      "Ġbla": 5693,
      "ĠAplikasyon": 5694,
      "FÃ²m": 5695,
      "alo": 5696,
      "ĠalkÃ²l": 5697,
      "Pe": 5698,
      "ï¼": 5699,
      "Ġabit": 5700,
      "tual": 5701,
      "ating": 5702,
      "Ġ?Ċ": 5703,
      "fan": 5704,
      "rane": 5705,
      "Ġraple": 5706,
      "jenyÃ¨": 5707,
      "ĠechÃ¨k": 5708,
      "charge": 5709,
      "ig": 5710,
      "rian": 5711,
      "ĠrefÃ¨": 5712,
      "Ġrandevou": 5713,
      "Ġanrjistreman": 5714,
      "Ba": 5715,
      "Ġreyini": 5716,
      "Ġelektrisite": 5717,
      "Lo": 5718,
      "Ġaj": 5719,
      "ĠvandÃ¨": 5720,
      "ĠShe": 5721,
      "âĢĻw": 5722,
      "Ġmu": 5723,
      "ĠRÃ©": 5724,
      "ĠZe": 5725,
      "ĠWayÃ²m": 5726,
      "Itili": 5727,
      "ika": 5728,
      "ĠlapÃ¨ch": 5729,
      "Ġdomin": 5730,
      "trin": 5731,
      "ĠvwayajÃ¨": 5732,
      "ĠGon": 5733,
      "HT": 5734,
      "ĠBagay": 5735,
      "Ã©nÃ©": 5736,
      "lektif": 5737,
      "ĠSente": 5738,
      "ikipedia": 5739,
      "ĠEr": 5740,
      "ĠTrans": 5741,
      "ĠdyamÃ¨t": 5742,
      "tro": 5743,
      "Ġanim": 5744,
      "joute": 5745,
      "Ġwont": 5746,
      "stiti": 5747,
      "Ġdemontre": 5748,
      "Ġpini": 5749,
      "ĠLÃ©": 5750,
      "renaj": 5751,
      "Ġkonplo": 5752,
      "ĠrekÃ²mandasyon": 5753,
      "SÃ¨vis": 5754,
      "alth": 5755,
      "lage": 5756,
      "monn": 5757,
      "Ġfu": 5758,
      "apore": 5759,
      "cky": 5760,
      "ĠDanish": 5761,
      "Ġandi": 5762,
      "lok": 5763,
      "ĠregilyÃ¨man": 5764,
      "ĠSwe": 5765,
      "ĠCD": 5766,
      "jistis": 5767,
      "Ġnavige": 5768,
      "ĠantrenÃ¨": 5769,
      "lÃ²n": 5770,
      "Ġare": 5771,
      "ĠanyÃ¨l": 5772,
      "ĠMichael": 5773,
      "tÃ¨l": 5774,
      "Ġpresi": 5775,
      "ĠMedi": 5776,
      "ownload": 5777,
      "bye": 5778,
      "ott": 5779,
      "ĠÃĴ": 5780,
      "ĠdaprÃ¨": 5781,
      "war": 5782,
      "ĠoksijÃ¨n": 5783,
      "ĠDie": 5784,
      "Ġ.ĊĊ": 5785,
      "ĠOf": 5786,
      "Ġkonpozisyon": 5787,
      "AB": 5788,
      "Ġpalman": 5789,
      "Ġfache": 5790,
      "Ġpatisipasyon": 5791,
      "-se": 5792,
      "ĠAnal": 5793,
      "ando": 5794,
      "rabolin": 5795,
      "Ġkiltiv": 5796,
      "Ã¨meyab": 5797,
      "espe": 5798,
      "tranje": 5799,
      "Ġapps": 5800,
      "abri": 5801,
      "adyen": 5802,
      "Fe": 5803,
      "lect": 5804,
      "Ġlanati": 5805,
      "Chan": 5806,
      "Ġtranzaksyon": 5807,
      "ĠmÃ©": 5808,
      "ĠpwodiktÃ¨": 5809,
      "Ġplonje": 5810,
      "ĠGÃ¨": 5811,
      "IR": 5812,
      "ĠMor": 5813,
      "lain": 5814,
      "ativman": 5815,
      "Ġizolasyon": 5816,
      "ĠKenbe": 5817,
      "ĠGil": 5818,
      "Ġraf": 5819,
      "ĠMont": 5820,
      "Ġteks": 5821,
      "ĠkonfÃ²me": 5822,
      "ĠAD": 5823,
      "ĠEli": 5824,
      "Ġlonb": 5825,
      "yolojik": 5826,
      "Ġepidemi": 5827,
      "sÃ¨yman": 5828,
      "Ale": 5829,
      "Ġchenn": 5830,
      "gratis": 5831,
      "ĠDesktop": 5832,
      "ĠâĨĴ": 5833,
      "mati": 5834,
      "vÃ¨y": 5835,
      "Ġlejis": 5836,
      "ĠenpÃ¨meyab": 5837,
      "Ġune": 5838,
      "Fin": 5839,
      "ĠayewopÃ²": 5840,
      "lien": 5841,
      "Ġkanal": 5842,
      "ĠkÃ²mandman": 5843,
      "ateur": 5844,
      "Ġ...]Ċ": 5845,
      "Ġimigran": 5846,
      "ĠWouj": 5847,
      "ĠEdikasyon": 5848,
      "ĠTwa": 5849,
      "ĠDevlopman": 5850,
      "ĠObama": 5851,
      "Ġdifize": 5852,
      "Ġdyal": 5853,
      "Ġenkwayab": 5854,
      "Ġimigrasyon": 5855,
      "ĠatmosfÃ¨": 5856,
      "EA": 5857,
      "pye": 5858,
      "enz": 5859,
      "Ã¨lko": 5860,
      "ĠGÃ©": 5861,
      "Jewo": 5862,
      "cer": 5863,
      "zÃ¨l": 5864,
      "ĠresÃ¨t": 5865,
      "chanj": 5866,
      "bl": 5867,
      "ĠOstrali": 5868,
      "ĠladrÃ¨s": 5869,
      "Ġala": 5870,
      "Ġlam": 5871,
      "ĠMol": 5872,
      "Ġzon": 5873,
      "ĠÃ²f": 5874,
      "ĠpwopriyetÃ¨": 5875,
      "Ġdye": 5876,
      "Ġrefi": 5877,
      "ĠmanyÃ¨l": 5878,
      "ĠYe": 5879,
      "ĠabÃ²dab": 5880,
      "Ġatelye": 5881,
      "ĠagrikÃ²l": 5882,
      "Ġkontribisyon": 5883,
      "ĠGason": 5884,
      "Ġkriye": 5885,
      "ĠFoto": 5886,
      "akteri": 5887,
      "ril": 5888,
      "-H": 5889,
      "Ġmayi": 5890,
      "ĠMy": 5891,
      "ĠDlo": 5892,
      "ĠAntre": 5893,
      "andone": 5894,
      "brasyon": 5895,
      "ĠAvoka": 5896,
      "ĠPale": 5897,
      "ĠÃĹ": 5898,
      "vÃ¨sÃ¨l": 5899,
      "ĠespirityÃ¨l": 5900,
      "Ġnote": 5901,
      "ĠvolontÃ¨": 5902,
      "Deskripsyon": 5903,
      "em": 5904,
      "su": 5905,
      "ĠLanm": 5906,
      "dez": 5907,
      "sosyasyon": 5908,
      "Ġbwason": 5909,
      "ĠTat": 5910,
      "ondans": 5911,
      "teurs": 5912,
      "ĠbaryÃ¨": 5913,
      "ĠðŁ": 5914,
      "-t": 5915,
      "Ġgre": 5916,
      "Ġrevan": 5917,
      "izan": 5918,
      "aryo": 5919,
      "ĠNic": 5920,
      "ĠWÃ²m": 5921,
      "Ġrakonte": 5922,
      "ĠNasyonzini": 5923,
      "bul": 5924,
      "Ġlen": 5925,
      "ĠSpe": 5926,
      "omat": 5927,
      "ĠWest": 5928,
      "ext": 5929,
      "ĠWordPress": 5930,
      "Pan": 5931,
      "ĠlapÃ²s": 5932,
      "Ġrenouv": 5933,
      "ush": 5934,
      "Ġabite": 5935,
      "pteur": 5936,
      "ĠparamÃ¨t": 5937,
      "ĠAkademi": 5938,
      "can": 5939,
      "Ġentan": 5940,
      "ĠFen": 5941,
      "bili": 5942,
      "Ġobligasyon": 5943,
      "Ġnetwayaj": 5944,
      "ĠKidonk": 5945,
      "-E": 5946,
      "Ġdivizyon": 5947,
      "monte": 5948,
      "Ġprati": 5949,
      "ĠFR": 5950,
      "ĠRam": 5951,
      "ĠPawÃ²l": 5952,
      "Met": 5953,
      "ãĢ": 5954,
      "ĠChild": 5955,
      "Ġfouye": 5956,
      "II": 5957,
      "Ġsiye": 5958,
      "Ġkonplike": 5959,
      "ĠSentespri": 5960,
      "din": 5961,
      "dom": 5962,
      "ĠfyÃ¨": 5963,
      "ĠrÃ¨d": 5964,
      "Ġimajine": 5965,
      "ĠGeorge": 5966,
      "NÃ²t": 5967,
      "ĠdÃ¨nyÃ¨man": 5968,
      "ĠvÃ²lÃ¨": 5969,
      "ĠPay": 5970,
      "ĠTV": 5971,
      "sung": 5972,
      "ĠPÃ¨s": 5973,
      "ĠentÃ¨vyou": 5974,
      "App": 5975,
      "-R": 5976,
      "Ġdanse": 5977,
      "ĠepesÃ¨": 5978,
      "ady": 5979,
      "wer": 5980,
      "tation": 5981,
      "Ġbackground": 5982,
      "Ġswete": 5983,
      "CA": 5984,
      "PN": 5985,
      "Ġdemand": 5986,
      "ĠKit": 5987,
      "ĠmeyÃ¨": 5988,
      "gnos": 5989,
      "Ġmachann": 5990,
      "nal": 5991,
      "Ġdema": 5992,
      "ĠAzi": 5993,
      "konsab": 5994,
      "Ġkarakte": 5995,
      "Ġkonsome": 5996,
      "Ġlogo": 5997,
      "ĠtransfÃ²me": 5998,
      "ĠFranÃ§ois": 5999,
      "ĠDirektÃ¨": 6000,
      "IZ": 6001,
      "Ġaktive": 6002,
      "bebe": 6003,
      "Ġnesesite": 6004,
      "Ġnwaj": 6005,
      "uvegarde": 6006,
      "Ġhttp": 6007,
      "Ġdetan": 6008,
      "Ġfikse": 6009,
      "Ġdifizyon": 6010,
      "Ġenfliyanse": 6011,
      "Ã®": 6012,
      "ĠSyans": 6013,
      "Ġmawon": 6014,
      "Ġabitid": 6015,
      "ĠObjektif": 6016,
      "ĠKarakteristik": 6017,
      "Ġranbousman": 6018,
      "Ġfile": 6019,
      "ĠchÃ¨chÃ¨": 6020,
      "ĠKlas": 6021,
      "ĠCro": 6022,
      "Ġsovaj": 6023,
      "Ġprevwa": 6024,
      "ĠanglÃ¨": 6025,
      "Mete": 6026,
      "Ġseremoni": 6027,
      "hats": 6028,
      "Ġade": 6029,
      "ĠsÃ©": 6030,
      "rÃ¨kteman": 6031,
      "ĠlÃ¨z": 6032,
      "ultu": 6033,
      "ĠLespri": 6034,
      "ĠNimewo": 6035,
      "mith": 6036,
      "Ġlach": 6037,
      "ĠItilizatÃ¨": 6038,
      "Ġgo": 6039,
      "Ã²dwo": 6040,
      "Ġrejyonal": 6041,
      "ĠAtlan": 6042,
      "Byen": 6043,
      "gital": 6044,
      "ĠvrÃ¨": 6045,
      "ayil": 6046,
      "ĠOff": 6047,
      "pot": 6048,
      "ĠreyalizatÃ¨": 6049,
      "vre": 6050,
      "ĠnÃ¨f": 6051,
      "ĠmÃ²": 6052,
      "tia": 6053,
      "ĠGid": 6054,
      "ĠUp": 6055,
      "ĠpÃ¨l": 6056,
      "ĠkolÃ²n": 6057,
      "Ġdetekte": 6058,
      "GB": 6059,
      "net": 6060,
      "rida": 6061,
      "Ġlemonn": 6062,
      "ĠCho": 6063,
      "ĠDimanch": 6064,
      "Ġsikonstans": 6065,
      ")ĊĊ": 6066,
      "vwi": 6067,
      "Ġsote": 6068,
      "Ġkonpayon": 6069,
      "âĢĿ,": 6070,
      "ĠJames": 6071,
      "Ġkonpreyansyon": 6072,
      "ance": 6073,
      "lege": 6074,
      "wÃ¨b": 6075,
      "ĠMartelly": 6076,
      "ĠPami": 6077,
      "vers": 6078,
      "gs": 6079,
      "del": 6080,
      "olas": 6081,
      "Ġmayetik": 6082,
      "Ġvitamin": 6083,
      "Ġkonsiderasyon": 6084,
      "Ġegzibisyon": 6085,
      "onim": 6086,
      "ĠIN": 6087,
      "Ġjeni": 6088,
      "ĠInc": 6089,
      "ĠRichard": 6090,
      "IA": 6091,
      "ĠeksepsyonÃ¨l": 6092,
      "ĠMadi": 6093,
      "dav": 6094,
      "engwis": 6095,
      "Ġtalan": 6096,
      "naj": 6097,
      "ĠCle": 6098,
      "rina": 6099,
      "valas": 6100,
      "âĹı": 6101,
      "ĠPit": 6102,
      "Ġtant": 6103,
      "ĠaltÃ¨nativ": 6104,
      "Ġapatman": 6105,
      "renÃ¨": 6106,
      "ĠfenomÃ¨n": 6107,
      "Ġswitch": 6108,
      "Paske": 6109,
      "bak": 6110,
      "nap": 6111,
      "ĠgrÃ¨k": 6112,
      "ĠBwat": 6113,
      "tain": 6114,
      "ĠCy": 6115,
      "ĠViz": 6116,
      "Ġkristal": 6117,
      "ĠpakÃ¨": 6118,
      "kretÃ¨": 6119,
      "pile": 6120,
      "ĠLef": 6121,
      "ramik": 6122,
      "cm": 6123,
      "lijyon": 6124,
      "ĠIl": 6125,
      "ĠbyennÃ¨t": 6126,
      "field": 6127,
      "Ġ@": 6128,
      "MAN": 6129,
      "Rez": 6130,
      "ily": 6131,
      "ĠPon": 6132,
      "Ġestime": 6133,
      "Ġdispozisyon": 6134,
      "ĠIRS": 6135,
      "lektyÃ¨l": 6136,
      "Ġetidyan": 6137,
      "ĠThomas": 6138,
      "AV": 6139,
      "bun": 6140,
      "Ġkwi": 6141,
      "Ġos": 6142,
      "ĠYO": 6143,
      "Ġrekonesans": 6144,
      "har": 6145,
      "wonim": 6146,
      ".ht": 6147,
      "tile": 6148,
      "Ġrekonpans": 6149,
      "Ġkorozyon": 6150,
      "ford": 6151,
      "Ġakize": 6152,
      "visi": 6153,
      "ĠvizyÃ¨l": 6154,
      "-li": 6155,
      "Be": 6156,
      "MA": 6157,
      "tetik": 6158,
      "Ġresan": 6159,
      "utom": 6160,
      "pawÃ²l": 6161,
      "Ã¯se": 6162,
      "ĠanivÃ¨sÃ¨": 6163,
      "ĠISO": 6164,
      "Ġouvri": 6165,
      "Ġpwoto": 6166,
      "zayik": 6167,
      "-kon": 6168,
      "enk": 6169,
      "rique": 6170,
      "chÃ¨l": 6171,
      "Ġrezistan": 6172,
      "aud": 6173,
      "Ġkonpatib": 6174,
      ".m": 6175,
      "Ġgon": 6176,
      "Ann": 6177,
      "ĠÂ»,": 6178,
      "ĠST": 6179,
      "ĠTom": 6180,
      "ĠFern": 6181,
      "Ġpriye": 6182,
      "Ġrobo": 6183,
      "Ġakademik": 6184,
      ",,": 6185,
      "ais": 6186,
      "ix": 6187,
      "ĠMini": 6188,
      "tat": 6189,
      "Ġbyento": 6190,
      "ĠVenez": 6191,
      "ĠGlasses": 6192,
      "ĠNatirÃ¨lman": 6193,
      "EG": 6194,
      "ĠvÃ¨tikal": 6195,
      "ĠavÃ¨tisman": 6196,
      "px": 6197,
      "Ġasanble": 6198,
      "Ġpadon": 6199,
      "ĠFac": 6200,
      "yalizasyon": 6201,
      "Ġetranj": 6202,
      "Ġqui": 6203,
      "jyen": 6204,
      "Ġbous": 6205,
      "ĠmalÃ¨": 6206,
      "Ġtranzisyon": 6207,
      "ĠentÃ¨lijans": 6208,
      "Ġrefwadisman": 6209,
      "ĠTÃ¨t": 6210,
      "Ġsiveyans": 6211,
      "Ġachitekti": 6212,
      "opy": 6213,
      "ĠMontre": 6214,
      "ĠAndre": 6215,
      "bra": 6216,
      "sor": 6217,
      "Ġakwonim": 6218,
      "Ġdeza": 6219,
      "Ġkadav": 6220,
      "ĠJon": 6221,
      "graph": 6222,
      "Ġenspeksyon": 6223,
      "Do": 6224,
      "otÃ¨": 6225,
      "Ġfle": 6226,
      "ĠSy": 6227,
      "ĠMwayen": 6228,
      "ĠOEM": 6229,
      "ĠsÃ¨tifye": 6230,
      "ĠHel": 6231,
      "jesyon": 6232,
      "ITE": 6233,
      "yol": 6234,
      "ĠJer": 6235,
      "Ã²nografi": 6236,
      "ĠsispÃ¨k": 6237,
      "Ġremak": 6238,
      "Ġmajik": 6239,
      "ĠXNUMX": 6240,
      "ĠAvril": 6241,
      "ĠCNC": 6242,
      "Anvan": 6243,
      "IG": 6244,
      "Ġatistik": 6245,
      "Ġtenis": 6246,
      "Ġkarakterize": 6247,
      "âĸ": 6248,
      "sifikasyon": 6249,
      "arad": 6250,
      "ĠSteel": 6251,
      "Ġpatenarya": 6252,
      "pilasyon": 6253,
      "ĠMarc": 6254,
      "Ġlojman": 6255,
      "Ġine": 6256,
      "ĠtÃ©lÃ©": 6257,
      "Ġpwogre": 6258,
      "ĠAdminist": 6259,
      "Tanpri": 6260,
      "ĠalÃ¨z": 6261,
      "Sinema": 6262,
      "Ġpoukont": 6263,
      "orgi": 6264,
      "lands": 6265,
      "'Ãī": 6266,
      "CC": 6267,
      "via": 6268,
      "ĠHotel": 6269,
      "ĠlotÃ¨l": 6270,
      "ĠBernard": 6271,
      "':": 6272,
      "Mat": 6273,
      "Pran": 6274,
      "ef": 6275,
      "ozo": 6276,
      "ĠpaspÃ²": 6277,
      "ĠBet": 6278,
      "Ġrezolisyon": 6279,
      "ĠBeach": 6280,
      "Ġilegal": 6281,
      "ptÃ¨": 6282,
      "esta": 6283,
      "ĠVandredi": 6284,
      "Ġpatikil": 6285,
      "Eg": 6286,
      "Ġbor": 6287,
      "Ġbok": 6288,
      "ĠNerjaveÃ¨i": 6289,
      "mile": 6290,
      "ĠpÃ¨sonalite": 6291,
      "stat": 6292,
      "Kalite": 6293,
      "cc": 6294,
      "the": 6295,
      "ars": 6296,
      "ĠGreen": 6297,
      "ĠfÃ²mil": 6298,
      "ITI": 6299,
      "jer": 6300,
      "lije": 6301,
      "ĠKol": 6302,
      "Ġkontinan": 6303,
      "ĠSanta": 6304,
      "Ge": 6305,
      "ĠKen": 6306,
      "fesyonÃ¨l": 6307,
      "ors": 6308,
      "ĠAnti": 6309,
      "Ġlibere": 6310,
      "ĠSegondÃ¨": 6311,
      "simal": 6312,
      "ĠArabi": 6313,
      "Ġrediksyon": 6314,
      "Ġofisye": 6315,
      "Ġsiman": 6316,
      "valye": 6317,
      "Ġtransparan": 6318,
      "Ġdimanch": 6319,
      "Ġklavye": 6320,
      "Jen": 6321,
      "pu": 6322,
      "Ġbrik": 6323,
      "Ġterapi": 6324,
      "ĠCou": 6325,
      "Ġ'.": 6326,
      "kosyon": 6327,
      "Pwogram": 6328,
      "Reponn": 6329,
      "pora": 6330,
      "Ġadrese": 6331,
      "Ġegzat": 6332,
      "pÃ²l": 6333,
      "sezon": 6334,
      "ĠKri": 6335,
      "Ã©es": 6336,
      "Ġplim": 6337,
      "EZ": 6338,
      "fra": 6339,
      "iye": 6340,
      "ĠTu": 6341,
      "ols": 6342,
      "Ġonline": 6343,
      "Ġbobin": 6344,
      "ny": 6345,
      "ĠStu": 6346,
      "Ġmanda": 6347,
      "ponsab": 6348,
      "Ġpwent": 6349,
      "Relasyon": 6350,
      "ilman": 6351,
      "Ġmati": 6352,
      "TC": 6353,
      "Ġdekon": 6354,
      "lere": 6355,
      "ĠAv": 6356,
      "kouran": 6357,
      "Ġaletranje": 6358,
      "ĠZÃ²n": 6359,
      "Ġestatistik": 6360,
      "kipasyon": 6361,
      "ĠinovatÃ¨": 6362,
      "ĠbÃ²dwo": 6363,
      "Ġtache": 6364,
      "ĠEng": 6365,
      "ĠatifisyÃ¨l": 6366,
      "Ġaz": 6367,
      "Ġnwit": 6368,
      "Ġkonstan": 6369,
      "Ġrevolisyon": 6370,
      "Ġchay": 6371,
      "Ġpreferans": 6372,
      "ĠAnt": 6373,
      "Ġgrate": 6374,
      "jistik": 6375,
      "ĠAbra": 6376,
      "Ġenfrastrikti": 6377,
      "Ġarab": 6378,
      "ĠlinÃ¨t": 6379,
      "ings": 6380,
      "Ġabandone": 6381,
      "Ġpwofite": 6382,
      "Ġewo": 6383,
      "landÃ¨": 6384,
      "ĠDurabolin": 6385,
      "Ra": 6386,
      "nwa": 6387,
      "Ġsiwo": 6388,
      "ĠBoston": 6389,
      "ĠSingapore": 6390,
      "PÃ¨": 6391,
      "gri": 6392,
      "ĠRay": 6393,
      "minis": 6394,
      "Ġpiblikasyon": 6395,
      "ĠRapÃ²": 6396,
      "Ġpwodik": 6397,
      "yÃ¨j": 6398,
      "Ġtibebe": 6399,
      "ĠHill": 6400,
      "ĠsÃ¨vitÃ¨": 6401,
      "Ġproces": 6402,
      "Ġeksepte": 6403,
      "ĠMicrosoft": 6404,
      "ontÃ¨m": 6405,
      "Ġavni": 6406,
      "ĠpremyÃ¨": 6407,
      "Ġtrape": 6408,
      "ĠKiba": 6409,
      "ĠMÃ©": 6410,
      "LA": 6411,
      "coun": 6412,
      "Ġtanpo": 6413,
      "Ġestil": 6414,
      "Ġgraf": 6415,
      "Ġalb": 6416,
      "ĠTex": 6417,
      "Ġlojik": 6418,
      "krÃ¨n": 6419,
      "Ġkonsiltasyon": 6420,
      "zye": 6421,
      "Ġata": 6422,
      "onekte": 6423,
      "âĢĿ.Ċ": 6424,
      "ĠansÃ¨yman": 6425,
      "did": 6426,
      "NouvÃ¨l": 6427,
      "ĠValen": 6428,
      "Ġtounwa": 6429,
      "iblite": 6430,
      "Ġed": 6431,
      "ĠSpa": 6432,
      "ĠMis": 6433,
      "ĠLendi": 6434,
      "detÃ¨": 6435,
      "gie": 6436,
      "Ġmasaj": 6437,
      "Ġsc": 6438,
      "ĠNap": 6439,
      "treman": 6440,
      "ĠMedia": 6441,
      "Ġpwensipal": 6442,
      "BS": 6443,
      "Res": 6444,
      "ĠDra": 6445,
      "Ġprete": 6446,
      "ĠMoÃ¯se": 6447,
      "zhou": 6448,
      "ĠGolden": 6449,
      "Next": 6450,
      "ĠLong": 6451,
      "ĠAnge": 6452,
      "beyi": 6453,
      "ĠinifÃ²m": 6454,
      "Ġgan": 6455,
      "ĠStan": 6456,
      "ĠCu": 6457,
      "ĠRad": 6458,
      "Ekonomi": 6459,
      "Ġdemo": 6460,
      "ĠpwosÃ¨": 6461,
      "pion": 6462,
      "bilize": 6463,
      "ĠSenyÃ¨": 6464,
      "Aplikasyon": 6465,
      "signer": 6466,
      "myÃ¨man": 6467,
      "ĠDar": 6468,
      "tina": 6469,
      "Ġkabrit": 6470,
      "Ġotorize": 6471,
      "'m": 6472,
      "TM": 6473,
      "ĠWh": 6474,
      "ĠrezÃ¨vasyon": 6475,
      "fesÃ¨": 6476,
      "ĠpÃ²nografi": 6477,
      "ĠApa": 6478,
      "Ġchire": 6479,
      "Ġimobilye": 6480,
      "AnviwÃ²nman": 6481,
      "klarasyon": 6482,
      "lines": 6483,
      "yetnam": 6484,
      "Edikasyon": 6485,
      "ION": 6486,
      "ĠsÃ²t": 6487,
      "ĠPwen": 6488,
      "ĠenjenyÃ¨": 6489,
      "Ġcham": 6490,
      "ĠEkipman": 6491,
      "orm": 6492,
      "Ġvwazen": 6493,
      "Ġmanifestasyon": 6494,
      "Ġpratike": 6495,
      "-z": 6496,
      "Bet": 6497,
      "Paj": 6498,
      "ĠRechÃ¨ch": 6499,
      "pin": 6500,
      "ware": 6501,
      "avans": 6502,
      "DM": 6503,
      "TS": 6504,
      "yle": 6505,
      "Ġfos": 6506,
      "ĠFra": 6507,
      "Ġpriz": 6508,
      "otball": 6509,
      "ĠZile": 6510,
      "lym": 6511,
      "Ġannapre": 6512,
      "Ġpoly": 6513,
      ".f": 6514,
      "Ġsim": 6515,
      "ĠrivyÃ¨": 6516,
      "ody": 6517,
      "Ġveye": 6518,
      "vas": 6519,
      "wil": 6520,
      "Ġklou": 6521,
      "Ġvinn": 6522,
      "ents": 6523,
      "ulation": 6524,
      "Ġegzijans": 6525,
      "ĠkonfÃ²mite": 6526,
      "Ġopozisyon": 6527,
      "ĠOs": 6528,
      "ĠmanadjÃ¨": 6529,
      "ĠgwosÃ¨s": 6530,
      "AF": 6531,
      "wÃ²s": 6532,
      "Ġbalanse": 6533,
      "ĠSantral": 6534,
      "Ġreskonsab": 6535,
      "Ġralanti": 6536,
      "ĠFÃ²mil": 6537,
      "ĠMilan": 6538,
      "INGS": 6539,
      "Ġit": 6540,
      "Politik": 6541,
      "Ri": 6542,
      "Sh": 6543,
      "bol": 6544,
      "ĠSwen": 6545,
      "ĠOS": 6546,
      "Ġ>>": 6547,
      "nier": 6548,
      "very": 6549,
      "Ġkonbat": 6550,
      "ĠPetÃ¨t": 6551,
      "ante": 6552,
      "ĠSin": 6553,
      "travÃ¨": 6554,
      "Ġsuiv": 6555,
      "ĠdÃ¨lko": 6556,
      "Ġeritaj": 6557,
      "fication": 6558,
      "Eske": 6559,
      "pati": 6560,
      "vak": 6561,
      "ĠOli": 6562,
      "ĠkÃ²n": 6563,
      "ĠPwosesis": 6564,
      "PA": 6565,
      "PC": 6566,
      "arite": 6567,
      "avirus": 6568,
      "ĠSamsung": 6569,
      "Ġ),": 6570,
      "-V": 6571,
      "WO": 6572,
      "ĠpÃ²ch": 6573,
      "ĠPost": 6574,
      "-kou": 6575,
      "Pal": 6576,
      "atu": 6577,
      "die": 6578,
      "Ġmozayik": 6579,
      "ĠrezÃ¨ve": 6580,
      "Mas": 6581,
      "cor": 6582,
      "lle": 6583,
      "Ġanbo": 6584,
      "Ġvie": 6585,
      "ĠJuan": 6586,
      "Ġentwodiksyon": 6587,
      "ĠAY": 6588,
      "anth": 6589,
      "play": 6590,
      "Qu": 6591,
      "dwa": 6592,
      "Ġdyab": 6593,
      "Ġdistribye": 6594,
      "Ġrezime": 6595,
      "-J": 6596,
      "tay": 6597,
      "zantasyon": 6598,
      "Foto": 6599,
      "Ġlendi": 6600,
      "ĠdÃ¨t": 6601,
      "akre": 6602,
      "ĠJesyon": 6603,
      "Ġsikilasyon": 6604,
      "aviris": 6605,
      "zÃ¨f": 6606,
      "Ġadore": 6607,
      "Ġasosyasyon": 6608,
      "Ġultra": 6609,
      "Jewografi": 6610,
      "Ġdezen": 6611,
      "ĠAns": 6612,
      "ĠReg": 6613,
      "ĠFevriye": 6614,
      "Ġroulette": 6615,
      "Ġprezantasyon": 6616,
      "mÃ¨l": 6617,
      "Ġemosyon": 6618,
      "ĠPral": 6619,
      "arn": 6620,
      "arch": 6621,
      "omme": 6622,
      "ĠMisye": 6623,
      "ders": 6624,
      "Ġvakans": 6625,
      "ĠTik": 6626,
      "Ġmechan": 6627,
      "ĠEndyen": 6628,
      "Ġoksid": 6629,
      "Ġtribin": 6630,
      "ĠPwoteksyon": 6631,
      "iman": 6632,
      "Ġmizisyen": 6633,
      "Ġkonsiste": 6634,
      "ĠOlye": 6635,
      "ĠmatÃ¨nite": 6636,
      "Ġlanne": 6637,
      "Ġekspresyon": 6638,
      "Ġlapenn": 6639,
      "ĠKarr": 6640,
      "ĠLefrat": 6641,
      "ĠPlu": 6642,
      "Ġtous": 6643,
      "ĠalontÃ¨m": 6644,
      "ĠnatirÃ¨lman": 6645,
      "Ġpesonn": 6646,
      "ĠabsÃ²be": 6647,
      "Åĵ": 6648,
      "chip": 6649,
      "ĠKlike": 6650,
      "amine": 6651,
      "kontre": 6652,
      "ĠonÃ¨t": 6653,
      "Ġgas": 6654,
      "Ġsoul": 6655,
      "tÃ¨nÃ¨l": 6656,
      "soci": 6657,
      "ĠGeorges": 6658,
      "cle": 6659,
      "ds": 6660,
      "plÃ¨": 6661,
      "ĠJes": 6662,
      "-Pierre": 6663,
      "MC": 6664,
      "titid": 6665,
      "ĠkonkrÃ¨": 6666,
      "ĠDayiti": 6667,
      "ĠTro": 6668,
      "ĠRus": 6669,
      "Ġkoperasyon": 6670,
      "ĠVyetnam": 6671,
      "ĠWhats": 6672,
      "ĠFrank": 6673,
      "Ġpasaj": 6674,
      "Ġenpoze": 6675,
      "nie": 6676,
      "ĠKontwÃ²l": 6677,
      "Ġliterati": 6678,
      "ĠPÃ²tigal": 6679,
      "ĠRÃ¨gleman": 6680,
      "gwo": 6681,
      "mou": 6682,
      "Ġrayi": 6683,
      "Ġmoutre": 6684,
      "Ġechwe": 6685,
      "Ġendepandans": 6686,
      "ĠMetÃ²d": 6687,
      "ĠLatin": 6688,
      "Ġchwal": 6689,
      "ako": 6690,
      "Ġladann": 6691,
      "ĠKomÃ¨s": 6692,
      "ĠadministratÃ¨": 6693,
      "Minis": 6694,
      "Pro": 6695,
      "ines": 6696,
      "els": 6697,
      "Ġdit": 6698,
      "bilizasyon": 6699,
      "iden": 6700,
      "ĠMedite": 6701,
      "Ġdekore": 6702,
      "Ġsegonn": 6703,
      "tem": 6704,
      "Ġbeni": 6705,
      "ĠAngletÃ¨": 6706,
      "ĠLajan": 6707,
      "vÃ©": 6708,
      "Ġtradui": 6709,
      "Ã²lf": 6710,
      "Ġkolabore": 6711,
      "fans": 6712,
      "ĠSalomon": 6713,
      "Ġsilenn": 6714,
      "Ġakonpli": 6715,
      "Eksp": 6716,
      "ĠMoskou": 6717,
      "He": 6718,
      "ĠpalÃ¨": 6719,
      "yore": 6720,
      "ĠsipÃ¨": 6721,
      "Ã²f": 6722,
      "ĠJosÃ©": 6723,
      "ĠChrist": 6724,
      "ĠMauri": 6725,
      "Ġespre": 6726,
      "Ġesplike": 6727,
      "Ġotreman": 6728,
      "Ġapiye": 6729,
      "soti": 6730,
      "Ġik": 6731,
      "Klike": 6732,
      "Ġpolisyon": 6733,
      "ridge": 6734,
      "Ġkondane": 6735,
      "ĠSup": 6736,
      "ĠSayil": 6737,
      "ĠDaniel": 6738,
      "ĠTer": 6739,
      "ĠMonte": 6740,
      "Ġdavans": 6741,
      "Ġtemwen": 6742,
      "Ġsig": 6743,
      "Ġkochon": 6744,
      "ĠtablÃ¨t": 6745,
      "ĠdistribitÃ¨": 6746,
      "Ġ;Ċ": 6747,
      "Kap": 6748,
      "Ob": 6749,
      "ĠAsosyasyon": 6750,
      "Ġinondasyon": 6751,
      "ĠJoint": 6752,
      "ĠKÃ²manse": 6753,
      "Cre": 6754,
      "Ñģ": 6755,
      "Ġred": 6756,
      "sibilite": 6757,
      "ĠNY": 6758,
      "ĠOke": 6759,
      "ĠSelon": 6760,
      "Ġmodil": 6761,
      "Ġplanifikasyon": 6762,
      "ĠTribinal": 6763,
      "ĠMizik": 6764,
      "Ġkomik": 6765,
      "Ġekspansyon": 6766,
      "Ġkonsantrasyon": 6767,
      "var": 6768,
      "Ġem": 6769,
      "ory": 6770,
      "ĠDemok": 6771,
      "ĠotÃ²n": 6772,
      "Ġaplikab": 6773,
      "bit": 6774,
      "Ġgide": 6775,
      "Ġlonje": 6776,
      "Ġdisponiblite": 6777,
      "ĠPÃ¨p": 6778,
      "ristian": 6779,
      "ristide": 6780,
      "dÃ²l": 6781,
      "Ġtole": 6782,
      "ĠSis": 6783,
      "Ġkoud": 6784,
      "Ġmidi": 6785,
      "ĠfiltÃ¨": 6786,
      "TO": 6787,
      "col": 6788,
      "titi": 6789,
      "ĠRF": 6790,
      "Paul": 6791,
      "ĠEgz": 6792,
      "ĠâĦĥ": 6793,
      "-nan": 6794,
      "ĠAjan": 6795,
      "ĠLwÃ¨s": 6796,
      "feran": 6797,
      "ĠKonte": 6798,
      "Ġbenediksyon": 6799,
      "Ġliksye": 6800,
      "ĠSlo": 6801,
      "apa": 6802,
      "Ġkonpozan": 6803,
      "ĠRezo": 6804,
      "Ne": 6805,
      "Ġpreskripsyon": 6806,
      "coo": 6807,
      "Lou": 6808,
      "ĠSon": 6809,
      "Ġjiri": 6810,
      "Ġatizan": 6811,
      "ĠBonus": 6812,
      "gant": 6813,
      "piye": 6814,
      "Angle": 6815,
      "ĠKontakte": 6816,
      "bs": 6817,
      "vik": 6818,
      "tisyen": 6819,
      "Ġsof": 6820,
      "imo": 6821,
      "Ġparfe": 6822,
      "ĠLondon": 6823,
      "ĠMediterane": 6824,
      "aval": 6825,
      "zine": 6826,
      "zone": 6827,
      "Ġver": 6828,
      "ĠDVD": 6829,
      "Ġvizib": 6830,
      "Ġoral": 6831,
      "astik": 6832,
      "Ġmeta": 6833,
      "Ġatraksyon": 6834,
      "ĠzidÃ²l": 6835,
      "Ġranplasman": 6836,
      "pisode": 6837,
      "kapab": 6838,
      "Lis": 6839,
      "Ġseramik": 6840,
      "Ġtrennen": 6841,
      "Genyen": 6842,
      "ĠMadanm": 6843,
      "tur": 6844,
      "ÑĢ": 6845,
      "ĠIkrÃ¨n": 6846,
      "UN": 6847,
      "Ġya": 6848,
      "Ġprekosyon": 6849,
      "Ġalfab": 6850,
      "yatik": 6851,
      "Ġentegrasyon": 6852,
      "ĠretrÃ¨t": 6853,
      "ĠÃ¨s": 6854,
      "ĠSatan": 6855,
      "ĠAnba": 6856,
      "ĠpÃ²tab": 6857,
      "cre": 6858,
      "Ġtoupre": 6859,
      "ĠpÃ¨s": 6860,
      "ĠzÃ¨l": 6861,
      "Ġrespire": 6862,
      "Alman": 6863,
      "ĠBrook": 6864,
      "ĠRetrie": 6865,
      "Ġlengwis": 6866,
      "ĠlejÃ¨": 6867,
      "Ġuit": 6868,
      "apo": 6869,
      "plifye": 6870,
      "ĠAndrÃ©": 6871,
      "ĠImaj": 6872,
      "Ex": 6873,
      "day": 6874,
      "Ġautom": 6875,
      "terÃ¨": 6876,
      "ĠSmith": 6877,
      "vok": 6878,
      "Ġteyori": 6879,
      "Ġup": 6880,
      "aren": 6881,
      "ĠEnstiti": 6882,
      "CO": 6883,
      "Ret": 6884,
      "ian": 6885,
      "Ġeti": 6886,
      "pektiv": 6887,
      "ĠFestival": 6888,
      "pore": 6889,
      "Ġcam": 6890,
      "mic": 6891,
      "Chwazi": 6892,
      "Ġrejte": 6893,
      "ĠensÃ¨k": 6894,
      "ĠAksyon": 6895,
      "yole": 6896,
      "adÃ¨": 6897,
      "gio": 6898,
      "ĠMadrid": 6899,
      "Date": 6900,
      "kwa": 6901,
      "ĠKolon": 6902,
      "ĠKong": 6903,
      "kriminasyon": 6904,
      "Char": 6905,
      "ĠHenry": 6906,
      "%.": 6907,
      "bot": 6908,
      "kin": 6909,
      "tice": 6910,
      "Twa": 6911,
      "Ġbab": 6912,
      "Ġkouto": 6913,
      "ĠLag": 6914,
      "una": 6915,
      "ĠPwoblÃ¨m": 6916,
      "ĠItilize": 6917,
      "ĠSÃ¨ks": 6918,
      "meriken": 6919,
      "ĠSamdi": 6920,
      "Ġsiviv": 6921,
      "ĠStreet": 6922,
      "'O": 6923,
      "yografik": 6924,
      "Ane": 6925,
      "Ġfranch": 6926,
      "ĠfonksyonÃ¨l": 6927,
      "ĠCorpo": 6928,
      "SA": 6929,
      "ĠAsire": 6930,
      "ĠDay": 6931,
      "ĠSÃ¨l": 6932,
      "ĠAnjeneral": 6933,
      "vwaye": 6934,
      "ĠJozÃ¨f": 6935,
      "Ġamoure": 6936,
      "----": 6937,
      "bour": 6938,
      "metik": 6939,
      "Ġestim": 6940,
      "ĠLÃ¨zetazini": 6941,
      "ĠZouti": 6942,
      "Ġenteg": 6943,
      "ĠpwofondÃ¨": 6944,
      "Ġdyagnos": 6945,
      "Ġsiyifikativman": 6946,
      "lympi": 6947,
      "Ġnu": 6948,
      "wodwi": 6949,
      "ĠPara": 6950,
      "MP": 6951,
      "SistÃ¨m": 6952,
      "rifye": 6953,
      "ĠCham": 6954,
      "ĠSimon": 6955,
      "ĠkomÃ¨t": 6956,
      "Ġdansite": 6957,
      "TH": 6958,
      "ĠFondasyon": 6959,
      "ĠUl": 6960,
      "ĠAnglÃ¨": 6961,
      "Ġagrikilti": 6962,
      "ĠNorth": 6963,
      "ĠMizajou": 6964,
      "Ġakizasyon": 6965,
      "Ġbakteri": 6966,
      "wor": 6967,
      "andye": 6968,
      "ĠLatÃ¨": 6969,
      "Ġtwouve": 6970,
      "izisyon": 6971,
      "Ġlonbraj": 6972,
      "Ġpay": 6973,
      "ĠON": 6974,
      "ĠOU": 6975,
      "ategori": 6976,
      "Ġkonsilte": 6977,
      "ouden": 6978,
      "Ġ)Ċ": 6979,
      "Pl": 6980,
      "SE": 6981,
      "teman": 6982,
      "stru": 6983,
      "Ġplanche": 6984,
      "stanbul": 6985,
      "Ġpantalon": 6986,
      "Ġregle": 6987,
      "Ġokouran": 6988,
      "ĠGer": 6989,
      "ĠGuil": 6990,
      "zekitif": 6991,
      "Ġdepl": 6992,
      "Ã±a": 6993,
      "cations": 6994,
      "Ġfla": 6995,
      "ĠPin": 6996,
      "ĠRas": 6997,
      "stale": 6998,
      "ĠGN": 6999,
      "Ġrapidman": 7000,
      "Ġdrapo": 7001,
      "ĠPhil": 7002,
      "tomatik": 7003,
      "-gratis": 7004,
      "Ġekolojik": 7005,
      "ĠIndi": 7006,
      "plwa": 7007,
      "ricants": 7008,
      "ĠByenveni": 7009,
      "Ġpespektiv": 7010,
      "Fim": 7011,
      "Ġanvay": 7012,
      "ĠAristide": 7013,
      "ĠPouvwa": 7014,
      "ĠMarÃŃa": 7015,
      "Ġtwonpe": 7016,
      "chaj": 7017,
      "Ġpile": 7018,
      "ĠLavi": 7019,
      "ĠRepon": 7020,
      "Ġeksplwa": 7021,
      "Ġjewo": 7022,
      "Ġpatwon": 7023,
      "ĠfondatÃ¨": 7024,
      "ĠRezilta": 7025,
      "YEN": 7026,
      "stra": 7027,
      "ĠFederal": 7028,
      "Top": 7029,
      "Ġkid": 7030,
      "ĠMize": 7031,
      "batÃ¨": 7032,
      "ĠSara": 7033,
      "kara": 7034,
      "ĠRosa": 7035,
      "Ġoptik": 7036,
      "ĠMaria": 7037,
      "%Ċ": 7038,
      "cast": 7039,
      "Ġfestival": 7040,
      "ĠPaj": 7041,
      "ĠPren": 7042,
      "ĠChanm": 7043,
      "ĠKontra": 7044,
      "ĠRose": 7045,
      "atisation": 7046,
      "MI": 7047,
      "rier": 7048,
      "ĠEtid": 7049,
      "vign": 7050,
      "ĠVit": 7051,
      "ĠSip": 7052,
      "Ġru": 7053,
      "ĠFaktori": 7054,
      "ĠdyalÃ²g": 7055,
      "lem": 7056,
      "Ġwoman": 7057,
      "Ġwotasyon": 7058,
      "ĠentÃ¨raksyon": 7059,
      "Bay": 7060,
      "ĠAti": 7061,
      "wÃ²f": 7062,
      "ĠVisa": 7063,
      "ĠentÃ¨pre": 7064,
      "ĠtranspÃ²te": 7065,
      "Ã¢tre": 7066,
      "ĠmizÃ¨": 7067,
      "ĠAntonio": 7068,
      "ĠID": 7069,
      "ĠLive": 7070,
      "yaji": 7071,
      "ĠOstralyen": 7072,
      "kol": 7073,
      "ĠSMS": 7074,
      "Ġsaa": 7075,
      "lock": 7076,
      "ĠsÃ¨tifikasyon": 7077,
      "midi": 7078,
      "ĠUne": 7079,
      "Ġkatri": 7080,
      "chiv": 7081,
      "Ġchemiz": 7082,
      "ĠLar": 7083,
      "ĠBrun": 7084,
      "lor": 7085,
      "coin": 7086,
      "Ġdenonse": 7087,
      "cription": 7088,
      "Ġbwo": 7089,
      "Ġkatal": 7090,
      "ĠAbi": 7091,
      "athe": 7092,
      "ĠGri": 7093,
      "Ġsikwi": 7094,
      "mont": 7095,
      "spektiv": 7096,
      "ĠzepÃ²l": 7097,
      "ĠKomite": 7098,
      "ente": 7099,
      "Ġpatipri": 7100,
      "Ġfinansman": 7101,
      "Ġsansasyon": 7102,
      "lier": 7103,
      "Ġsouri": 7104,
      "ĠMod": 7105,
      "ĠWholesale": 7106,
      "EnfÃ²masyon": 7107,
      "ĠDonald": 7108,
      "ĠHouse": 7109,
      "Sam": 7110,
      "py": 7111,
      "Ġend": 7112,
      "Ġavanti": 7113,
      "Ġpolisye": 7114,
      "ĠKantite": 7115,
      "Ġdezas": 7116,
      "Ġandikap": 7117,
      ".go": 7118,
      "Ġaux": 7119,
      "enm": 7120,
      "Ġtrik": 7121,
      "ĠgÃ¨": 7122,
      "Ġkonsyan": 7123,
      "ĠBiznis": 7124,
      "ĠsÃ¨man": 7125,
      "Ã¨ne": 7126,
      "Ġpopilarite": 7127,
      "Ġdomine": 7128,
      "Ġavek": 7129,
      "ĠPowder": 7130,
      "vlÃ²pman": 7131,
      "Ġsom": 7132,
      "ĠGroup": 7133,
      "tooth": 7134,
      "Ġmani": 7135,
      "ĠentelektyÃ¨l": 7136,
      "angzhou": 7137,
      "lyn": 7138,
      "ĠlÃ¨zÃ²m": 7139,
      "Ġdeplwaye": 7140,
      "Jwe": 7141,
      "Th": 7142,
      "tizasyon": 7143,
      "Ġfann": 7144,
      "Ġparal": 7145,
      "ĠCru": 7146,
      "ĠCAS": 7147,
      "Ġkonstitisyon": 7148,
      "ĠJakÃ²b": 7149,
      "ovela": 7150,
      "-o": 7151,
      "Dou": 7152,
      "bus": 7153,
      "tativ": 7154,
      "Ġkwayans": 7155,
      "ĠtanpÃ¨t": 7156,
      "ĠPok": 7157,
      "ĠenkÃ²": 7158,
      "ĠEntÃ¨": 7159,
      "ĠPafwa": 7160,
      "ĠWorld": 7161,
      "ĠchÃ²k": 7162,
      "ĠKwa": 7163,
      "qui": 7164,
      "ÃĪL": 7165,
      "Ġfiltra": 7166,
      "ĠView": 7167,
      "Lu": 7168,
      "tinye": 7169,
      "ĠJere": 7170,
      "ĠepÃ¨": 7171,
      "SD": 7172,
      "Ġantan": 7173,
      "Ġkonmansman": 7174,
      "ova": 7175,
      "Ġretou": 7176,
      "No": 7177,
      "get": 7178,
      "tz": 7179,
      "Ã¤": 7180,
      "lique": 7181,
      "Ġsauvegarde": 7182,
      "tore": 7183,
      "Ġsont": 7184,
      "Jou": 7185,
      "lab": 7186,
      "teknoloji": 7187,
      "mant": 7188,
      "ĠSA": 7189,
      "ĠCi": 7190,
      "ĠClub": 7191,
      "Ġplenn": 7192,
      "Ġsansi": 7193,
      "oro": 7194,
      "ĠSeptanm": 7195,
      "ĠConne": 7196,
      "ĠLaurent": 7197,
      "ĠkatriyÃ¨m": 7198,
      "Co": 7199,
      "Jis": 7200,
      "Ġvandredi": 7201,
      "ablo": 7202,
      "Ġmirak": 7203,
      "Ġvilaj": 7204,
      "sant": 7205,
      "Ġmoulen": 7206,
      "ĠThÃ©": 7207,
      "Ġvyolasyon": 7208,
      "Tradiksyon": 7209,
      "ĠalamÃ²d": 7210,
      "cÃ©": 7211,
      "Ġorizon": 7212,
      "ĠNik": 7213,
      "ondisman": 7214,
      "Ġ--": 7215,
      "ĠyÃ¨": 7216,
      "pozan": 7217,
      "ĠChÃ¨f": 7218,
      "ĠZuri": 7219,
      "Ġlajounen": 7220,
      "GEN": 7221,
      "ls": 7222,
      "manite": 7223,
      "ĠKite": 7224,
      "piyon": 7225,
      "ĠOlympi": 7226,
      "ilyen": 7227,
      "Ġense": 7228,
      "tres": 7229,
      "ĠkÃ²rÃ¨kteman": 7230,
      "gade": 7231,
      "ĠQue": 7232,
      "FR": 7233,
      "Ġpwopa": 7234,
      "box": 7235,
      "ply": 7236,
      "Kay": 7237,
      "bine": 7238,
      "ĠNBA": 7239,
      "stalasyon": 7240,
      "htt": 7241,
      "Â¨": 7242,
      "Ġakou": 7243,
      "atris": 7244,
      "toine": 7245,
      "ĠdevlopÃ¨": 7246,
      "Ġmineral": 7247,
      "KonsÃ¨y": 7248,
      "Ġelegant": 7249,
      "ÑĤ": 7250,
      "Ġtris": 7251,
      "Ġantere": 7252,
      "Ġelektoral": 7253,
      "ĠDal": 7254,
      "ĠpÃ¨sonn": 7255,
      "Ġreklame": 7256,
      "tni": 7257,
      "rial": 7258,
      "ĠEkri": 7259,
      "ĠGR": 7260,
      "Ġkomite": 7261,
      "ĠRed": 7262,
      "gmante": 7263,
      "Ġekstra": 7264,
      "Televizyon": 7265,
      "ĠFrancisco": 7266,
      "twodiksyon": 7267,
      "onal": 7268,
      "Ġreyaji": 7269,
      "ĠDer": 7270,
      "inia": 7271,
      "ĠHong": 7272,
      "pring": 7273,
      "quet": 7274,
      "Ġkatast": 7275,
      "hood": 7276,
      "guel": 7277,
      "ĠministÃ¨": 7278,
      "ozofi": 7279,
      "faksyon": 7280,
      "tout": 7281,
      "Ġkg": 7282,
      "ĠbyÃ¨": 7283,
      "Ġvyole": 7284,
      "uru": 7285,
      "âĢĻl": 7286,
      "ĠakÃ²de": 7287,
      "yester": 7288,
      "AndrÃ©": 7289,
      "buntu": 7290,
      "cou": 7291,
      "ries": 7292,
      "Ġdeka": 7293,
      "ĠemosyonÃ¨l": 7294,
      "Ġkultu": 7295,
      "ĠKu": 7296,
      "ĠFrÃ¨": 7297,
      "ĠReef": 7298,
      "ĠPres": 7299,
      "count": 7300,
      "Ġensidan": 7301,
      "ĠTour": 7302,
      "ĠOk": 7303,
      "ĠMande": 7304,
      "Ġnwayo": 7305,
      "Ã«l": 7306,
      "Ġrepiblik": 7307,
      "ĠModÃ¨l": 7308,
      "saw": 7309,
      "cien": 7310,
      "Ġkalifikasyon": 7311,
      "Ġblesi": 7312,
      "Ġliberasyon": 7313,
      "mat": 7314,
      "Ġsourit": 7315,
      "tÃ¨r": 7316,
      "ipal": 7317,
      "ĠtÃ¨minal": 7318,
      "ticle": 7319,
      "Ġregleman": 7320,
      "ĠpÃ²mdetÃ¨": 7321,
      "Ġkolore": 7322,
      "-sou": 7323,
      "Sel": 7324,
      "mun": 7325,
      "ĠKondisyon": 7326,
      "Hz": 7327,
      "chat": 7328,
      "Ġnich": 7329,
      "Ġchapit": 7330,
      "ounal": 7331,
      "sert": 7332,
      "ĠkiltivatÃ¨": 7333,
      "DÃ¨nye": 7334,
      "dad": 7335,
      "mande": 7336,
      "Ġoton": 7337,
      "ĠPÃ©": 7338,
      "def": 7339,
      "Videyo": 7340,
      "chwa": 7341,
      "ĠAkÃ²z": 7342,
      "ĠabÃ²nman": 7343,
      "Franse": 7344,
      "Ġavec": 7345,
      "Ġdemokrasi": 7346,
      "ĠZurich": 7347,
      "wÃłn": 7348,
      "ĠavÃ¨ti": 7349,
      "Ġlabank": 7350,
      "ĠJouden": 7351,
      "odyÃ¨": 7352,
      "ĠvakyÃ²m": 7353,
      "'Ã©": 7354,
      "ĠMÃ¨kredi": 7355,
      "ĠLake": 7356,
      "ĠUV": 7357,
      "sante": 7358,
      "ĠTanp": 7359,
      "ĠgouvÃ¨nen": 7360,
      "Gratis": 7361,
      "alou": 7362,
      "Ġdepite": 7363,
      "vizwa": 7364,
      "Ġbriyan": 7365,
      "Ab": 7366,
      "dika": 7367,
      "Ġrefleksyon": 7368,
      "Ġimajinasyon": 7369,
      "merce": 7370,
      "ĠenfÃ²mÃ¨l": 7371,
      "ĠAbraram": 7372,
      "Plan": 7373,
      "mber": 7374,
      "itÃ©s": 7375,
      "ĠFort": 7376,
      "ĠSekretÃ¨": 7377,
      "mir": 7378,
      "Ġelektwo": 7379,
      "ĠBor": 7380,
      "ĠNational": 7381,
      "Ġkorije": 7382,
      "grame": 7383,
      "ĠsiklÃ²n": 7384,
      "Ġpwofesyon": 7385,
      "ĠrekÃ²manse": 7386,
      "Ġsmartphone": 7387,
      "Sal": 7388,
      "gwa": 7389,
      "Ġflash": 7390,
      "septe": 7391,
      "ĠTcheke": 7392,
      "Ġmoral": 7393,
      "ĠbwÃ²s": 7394,
      "ĠCB": 7395,
      "ĠTÃ¨s": 7396,
      "Ġmenase": 7397,
      "Ġwholesale": 7398,
      "Ġkaton": 7399,
      "Ġpentire": 7400,
      "ĠFlorida": 7401,
      "Ġajisteman": 7402,
      "ĠVincent": 7403,
      "-j": 7404,
      "Ju": 7405,
      "OC": 7406,
      "Ð¸": 7407,
      "Ġter": 7408,
      "ĠPU": 7409,
      "Ġtifi": 7410,
      "Ġjeyografik": 7411,
      "Ġlojistik": 7412,
      "Ġkonsiderab": 7413,
      "Ġaksesib": 7414,
      "Ġmekanis": 7415,
      "volye": 7416,
      "Kat": 7417,
      "ader": 7418,
      "ique": 7419,
      "Ġkalkil": 7420,
      "Ġamor": 7421,
      "ĠFilm": 7422,
      "mme": 7423,
      "sia": 7424,
      "ĠendikatÃ¨": 7425,
      "Kesyon": 7426,
      "ĠBlack": 7427,
      "Ġpwan": 7428,
      "ĠNavi": 7429,
      "ĠavÃ¨g": 7430,
      "ĠToujou": 7431,
      "ĠGuy": 7432,
      "ĠkomÃ¨san": 7433,
      "Ġautomatisation": 7434,
      "/w": 7435,
      "Ġrepare": 7436,
      "ĠDE": 7437,
      "ĠDam": 7438,
      "ĠCl": 7439,
      "Ġbenyen": 7440,
      "Ġdesigner": 7441,
      "Ġrecho": 7442,
      "otal": 7443,
      "DevlÃ²pman": 7444,
      "wonaviris": 7445,
      "more": 7446,
      "Ġotorizasyon": 7447,
      "plo": 7448,
      "ĠanmÃ¨": 7449,
      "ĠRom": 7450,
      "kÃ²mansman": 7451,
      "usta": 7452,
      "ĠÃģ": 7453,
      "ĠRenÃ©": 7454,
      "SS": 7455,
      "âĨ": 7456,
      "ĠLib": 7457,
      "ĠpÃ¨spektiv": 7458,
      "ĠrÃ©s": 7459,
      "ĠiPod": 7460,
      "oge": 7461,
      "xt": 7462,
      "ĠafÃ¨": 7463,
      "syonÃ¨": 7464,
      "ĠPra": 7465,
      "vanjil": 7466,
      "ĠDeta": 7467,
      "ĠekspÃ²te": 7468,
      "ĠJedi": 7469,
      "Ġreyalizasyon": 7470,
      "ĠQui": 7471,
      "ĠRail": 7472,
      "ĠVegas": 7473,
      "bar": 7474,
      "ozisyon": 7475,
      "Ġretansyon": 7476,
      "ĠEsta": 7477,
      "atfÃ²m": 7478,
      "Ġsili": 7479,
      "Ġelve": 7480,
      "Ġsispansyon": 7481,
      "Ġtipikman": 7482,
      "Is": 7483,
      "ÅŁ": 7484,
      "Ġsam": 7485,
      "ĠLame": 7486,
      "ĠJersey": 7487,
      "Kom": 7488,
      "Kounye": 7489,
      "UT": 7490,
      "tier": 7491,
      "ĠKijan": 7492,
      "Ġlu": 7493,
      "ĠChris": 7494,
      "Ġlokasyon": 7495,
      ".gov": 7496,
      ".F": 7497,
      "Ġsh": 7498,
      "rey": 7499,
      "ĠKim": 7500,
      "ĠCast": 7501,
      "Ġekspe": 7502,
      "Ġpolitisyen": 7503,
      "Ġprizonye": 7504,
      "ĠFacts": 7505,
      "opyright": 7506,
      "DezyÃ¨m": 7507,
      "RL": 7508,
      "Ġtas": 7509,
      "Ġchar": 7510,
      "ĠDÃ¨nye": 7511,
      "ĠElÃ¨v": 7512,
      "ghai": 7513,
      "Ġroman": 7514,
      "Ġmikro": 7515,
      "Ġpitye": 7516,
      "syÃ¨t": 7517,
      "late": 7518,
      "ador": 7519,
      "poren": 7520,
      "Ġetone": 7521,
      "ĠEndistriyÃ¨l": 7522,
      "TF": 7523,
      "rich": 7524,
      "ĠbÃ¨": 7525,
      "Ġvenn": 7526,
      "tact": 7527,
      "Ġprevansyon": 7528,
      "Ġespyon": 7529,
      "ĠofisyÃ¨lman": 7530,
      "Bou": 7531,
      "fou": 7532,
      "Ġdetann": 7533,
      "yel": 7534,
      "ĠMay": 7535,
      "wÃ²done": 7536,
      "Ġrate": 7537,
      "ĠIntern": 7538,
      "ĠBox": 7539,
      "Ġegzekitif": 7540,
      "IB": 7541,
      "Kote": 7542,
      "ĠSwa": 7543,
      "ĠOpen": 7544,
      "vann": 7545,
      "Ġrido": 7546,
      "ĠvÃ¨sÃ¨": 7547,
      "ĠPanama": 7548,
      "ĠFree": 7549,
      "PM": 7550,
      "kaj": 7551,
      "Ġpwon": 7552,
      "ĠPoli": 7553,
      "ĠRezon": 7554,
      "Ġkoube": 7555,
      "Ġpete": 7556,
      "ĠMoise": 7557,
      "ĠLabib": 7558,
      "Ġdistenksyon": 7559,
      "ĠenkÃ²pore": 7560,
      "mini": 7561,
      "Â²": 7562,
      "rer": 7563,
      "Ġevolye": 7564,
      "sement": 7565,
      "ics": 7566,
      "ĠinivÃ¨sÃ¨l": 7567,
      "ĠbaskÃ¨t": 7568,
      "ĠWarsaw": 7569,
      "Ġpresize": 7570,
      "PanyÃ²l": 7571,
      "kg": 7572,
      "ĠAyewopÃ²": 7573,
      "ĠPalman": 7574,
      "ĠTal": 7575,
      "ĠYON": 7576,
      "Ġmedam": 7577,
      "Ġï¼": 7578,
      "ira": 7579,
      "Ġokipasyon": 7580,
      "rism": 7581,
      "Ġfinans": 7582,
      "ĠAuto": 7583,
      "Ġalmanak": 7584,
      "ata": 7585,
      "ĠFit": 7586,
      "ĠranvÃ¨se": 7587,
      "tidyo": 7588,
      "Ġdefault": 7589,
      "Ġmagazin": 7590,
      "Ġstrik": 7591,
      "ua": 7592,
      "Ġline": 7593,
      "ĠaklÃ¨": 7594,
      "ĠfÃ¨nwa": 7595,
      "Ġpwoche": 7596,
      "ĠFire": 7597,
      "konomik": 7598,
      "MateryÃ¨l": 7599,
      "ĠBenj": 7600,
      "Ġspa": 7601,
      "antal": 7602,
      "Ġenstan": 7603,
      "OUT": 7604,
      "lief": 7605,
      "trich": 7606,
      "'w": 7607,
      "MT": 7608,
      "flix": 7609,
      "ĠHal": 7610,
      "ĠUbuntu": 7611,
      "santaj": 7612,
      "ĠkominotÃ¨": 7613,
      "ovasyon": 7614,
      "ĠpanyÃ²l": 7615,
      "pann": 7616,
      "Ġkonklizyon": 7617,
      "Ġchok": 7618,
      "Ġtantativ": 7619,
      "ĠGold": 7620,
      "Ġkoripsyon": 7621,
      "mie": 7622,
      "Ġkontanporen": 7623,
      "IST": 7624,
      "Ġmatirite": 7625,
      ");": 7626,
      "Mak": 7627,
      "tr": 7628,
      "Ġbel": 7629,
      "este": 7630,
      "Ġdouble": 7631,
      "Ġfarin": 7632,
      "Ġenstantane": 7633,
      "ksy": 7634,
      "Ġobeyi": 7635,
      "androl": 7636,
      "ĠCarlos": 7637,
      "Ġroulo": 7638,
      "bral": 7639,
      "Ġpasyon": 7640,
      "ĠSP": 7641,
      "ĠSov": 7642,
      "ilt": 7643,
      "ĠPwa": 7644,
      "ĠTon": 7645,
      "vice": 7646,
      "ĠIstanbul": 7647,
      "rypto": 7648,
      "Ġplede": 7649,
      "ĠResponsab": 7650,
      "Ġsijesyon": 7651,
      "New": 7652,
      "Ġdemisyon": 7653,
      "ĠSE": 7654,
      "Ġgentan": 7655,
      "ĠOlandÃ¨": 7656,
      "laje": 7657,
      "amman": 7658,
      "plier": 7659,
      "ourt": 7660,
      "ĠdezÃ²d": 7661,
      ".S": 7662,
      ".AT": 7663,
      "Espe": 7664,
      "Ġpandye": 7665,
      "risyon": 7666,
      "Ġendiksyon": 7667,
      "ĠKam": 7668,
      "Ġray": 7669,
      "Ġaksep": 7670,
      "ĠandeyÃ²": 7671,
      "ĠDenmark": 7672,
      "anthate": 7673,
      "Etazini": 7674,
      "PifÃ²": 7675,
      "basyon": 7676,
      "Ġezite": 7677,
      "ĠPrÃ©": 7678,
      "ĠFason": 7679,
      "well": 7680,
      "Ã¨klÃ¨": 7681,
      "ĠselilÃ¨": 7682,
      "ĠDoubay": 7683,
      "Ġanboche": 7684,
      "Ġsiz": 7685,
      "ĠSÃ©": 7686,
      "ĠMag": 7687,
      "koz": 7688,
      "form": 7689,
      "ĠAssoci": 7690,
      "Ġasistan": 7691,
      "sten": 7692,
      "Ġkritike": 7693,
      "Ġsakre": 7694,
      "ĠMagazine": 7695,
      "Go": 7696,
      "cur": 7697,
      "ĠnÃ¨j": 7698,
      "Ġapati": 7699,
      "tiki": 7700,
      "covery": 7701,
      "ĠdouzÃ¨n": 7702,
      "Ġkonfimasyon": 7703,
      "Ġfondamantalman": 7704,
      "Ġremakab": 7705,
      "Epitou": 7706,
      "bel": 7707,
      "iyaj": 7708,
      "Ġpaka": 7709,
      "ĠGaming": 7710,
      "Ġporn": 7711,
      "Ġprefere": 7712,
      "ames": 7713,
      "Ġtu": 7714,
      "Ġsakri": 7715,
      "Ġkoki": 7716,
      "Ġkaptire": 7717,
      "ĠHGR": 7718,
      "ĠAnsyen": 7719,
      "ĠMarin": 7720,
      "ĠminÃ¨": 7721,
      "ĠManman": 7722,
      "ĠFrance": 7723,
      "atolik": 7724,
      "ĠMouvman": 7725,
      "We": 7726,
      "olÃ¨": 7727,
      "ĠWatch": 7728,
      "ĠKonsÃ¨": 7729,
      "asket": 7730,
      "rayj": 7731,
      "Ġvanyan": 7732,
      "ĠPad": 7733,
      "Ġcou": 7734,
      "ĠPase": 7735,
      "ĠZanmi": 7736,
      "Ġwoz": 7737,
      "gnac": 7738,
      "Bonjou": 7739,
      "ĠChanjman": 7740,
      "ĠCenter": 7741,
      "Ġarom": 7742,
      "Ġmale": 7743,
      "Ġakom": 7744,
      "ĠAla": 7745,
      "ĠAjans": 7746,
      "ved": 7747,
      "ages": 7748,
      "Ġakselere": 7749,
      "cess": 7750,
      "Ġsiyifikatif": 7751,
      "pionate": 7752,
      "ĠWhatsApp": 7753,
      "Bondye": 7754,
      "ii": 7755,
      "ayik": 7756,
      "ĠFab": 7757,
      "Ġsena": 7758,
      "ustin": 7759,
      "ĠProdu": 7760,
      "ĠenvestisÃ¨": 7761,
      "Ġkosmetik": 7762,
      "ĠBabil": 7763,
      "bab": 7764,
      "labl": 7765,
      "ĠSmart": 7766,
      "Ġsosy": 7767,
      "ĠpowÃ¨t": 7768,
      "ĠâĢĿ": 7769,
      "ĠEnves": 7770,
      "ĠkonsÃ¨pteur": 7771,
      "ĠpÃ¨sonalize": 7772,
      "ĠDokiman": 7773,
      "GS": 7774,
      "KINGS": 7775,
      "zer": 7776,
      "ĠSpi": 7777,
      "ĠPlizyÃ¨": 7778,
      "ĠHy": 7779,
      "ĠMary": 7780,
      "ĠentÃ¨vansyon": 7781,
      "'an": 7782,
      "Ġfay": 7783,
      "Ġlimen": 7784,
      "ĠVilla": 7785,
      "ĠmityÃ¨l": 7786,
      "Ġkontablite": 7787,
      "Che": 7788,
      "pwa": 7789,
      "ĠAdo": 7790,
      "bec": 7791,
      "lekilÃ¨": 7792,
      "ĠJoe": 7793,
      "Ġrafine": 7794,
      "Ji": 7795,
      "Ġmulti": 7796,
      "ĠeditÃ¨": 7797,
      "Ġju": 7798,
      "ĠMOUN": 7799,
      "siv": 7800,
      "Ġgradye": 7801,
      "Ġatri": 7802,
      ".ph": 7803,
      "ModÃ¨l": 7804,
      "cin": 7805,
      "Ġlajistis": 7806,
      "erra": 7807,
      "ĠKin": 7808,
      "pes": 7809,
      "Seri": 7810,
      "ĠRio": 7811,
      "Ġzewo": 7812,
      "Ġizole": 7813,
      "Peyi": 7814,
      "oa": 7815,
      "ĠbÃ²n": 7816,
      "Ġseparasyon": 7817,
      "Ġwith": 7818,
      "Ġpep": 7819,
      "ĠChip": 7820,
      "okal": 7821,
      "ĠKongrÃ¨": 7822,
      "Ġsatisfaksyon": 7823,
      "Ã²dinÃ¨": 7824,
      "Ġegzekite": 7825,
      "ĠKonstitisyon": 7826,
      "arans": 7827,
      "ĠAvi": 7828,
      "ĠAug": 7829,
      "ĠTrÃ¨": 7830,
      "ĠRol": 7831,
      "leste": 7832,
      "Ġselebrasyon": 7833,
      "ĠAnalytics": 7834,
      "Gu": 7835,
      "cteur": 7836,
      "ization": 7837,
      "ĠOne": 7838,
      "ĠMobile": 7839,
      "Ġaktyalizasyon": 7840,
      "artz": 7841,
      "ydro": 7842,
      "Ġenpresyonan": 7843,
      "ikleyÃ¨": 7844,
      "Ġrit": 7845,
      "ĠGame": 7846,
      "Laj": 7847,
      "ĠKil": 7848,
      "ĠCR": 7849,
      "ĠTwal": 7850,
      "wouj": 7851,
      "ĠKanadyen": 7852,
      "ĠadaptÃ¨": 7853,
      "ĠAdministrasyon": 7854,
      ".)Ċ": 7855,
      "Ġranpa": 7856,
      "ĠInter": 7857,
      "Ġandirans": 7858,
      "rica": 7859,
      "chans": 7860,
      "Ġvlope": 7861,
      "ĠSky": 7862,
      "ĠMap": 7863,
      "deo": 7864,
      "ĠTous": 7865,
      "Ġlejand": 7866,
      "Ġteknolojik": 7867,
      "ĠDeskripsyon": 7868,
      "Ġafilye": 7869,
      "ĠDominikÃ¨n": 7870,
      "ĠChildhood": 7871,
      "Haiti": 7872,
      "gad": 7873,
      "ĠMS": 7874,
      "ĠEast": 7875,
      "ĠFÃ©": 7876,
      "fimen": 7877,
      "Ġfinanse": 7878,
      "hio": 7879,
      "rican": 7880,
      "Ġfatige": 7881,
      "Or": 7882,
      "tiy": 7883,
      "Ġakizisyon": 7884,
      "Ġgang": 7885,
      "Ġensiste": 7886,
      "aste": 7887,
      "pel": 7888,
      "ĠChrome": 7889,
      "avier": 7890,
      "ĠKovÃ¨ti": 7891,
      "Ġespesifye": 7892,
      "Ġdebarase": 7893,
      "ĠDisplay": 7894,
      "ĠPower": 7895,
      "Ġmodere": 7896,
      "Gou": 7897,
      "ĠTay": 7898,
      "sac": 7899,
      "Ġabsans": 7900,
      "ĠGÃ©rard": 7901,
      "Ġpann": 7902,
      "Ġpent": 7903,
      "Ġsoulaje": 7904,
      "aspora": 7905,
      "ĠRele": 7906,
      "Ġdiskriminasyon": 7907,
      "Ġfranchiz": 7908,
      "androlone": 7909,
      "LI": 7910,
      "bÃ²": 7911,
      "Ġpu": 7912,
      "Ġkouvwi": 7913,
      "lÃ¨kt": 7914,
      "Ġblanchi": 7915,
      "ktak": 7916,
      "basti": 7917,
      "ĠChapter": 7918,
      "Ġrenouvle": 7919,
      "MetÃ²d": 7920,
      "ĠtanporÃ¨": 7921,
      "Ġmap": 7922,
      "Ġaks": 7923,
      "Ġparayj": 7924,
      "ĠManm": 7925,
      "ĠchodyÃ¨": 7926,
      "ĠKing": 7927,
      "Ġsipriz": 7928,
      "yote": 7929,
      "ĠzÃ¨klÃ¨": 7930,
      "mate": 7931,
      "ĠFÃ²masyon": 7932,
      "ĠPolyester": 7933,
      "ĠdetÃ¨minasyon": 7934,
      "Ġditou": 7935,
      ".php": 7936,
      "zÃ²": 7937,
      "liy": 7938,
      "ĠMedikal": 7939,
      "Ġachiv": 7940,
      "sosyete": 7941,
      "venman": 7942,
      "________": 7943,
      "ĠTattoo": 7944,
      "prÃ¨": 7945,
      "zz": 7946,
      "Ġlimanite": 7947,
      "ĠAjoute": 7948,
      "primÃ©": 7949,
      "âĢ¦âĢ¦": 7950,
      "ĠHenri": 7951,
      "Viz": 7952,
      "ness": 7953,
      "wÃ²t": 7954,
      "ĠCann": 7955,
      "ĠTÃ¨": 7956,
      "Ġmatematik": 7957,
      "risaj": 7958,
      "ĠSiri": 7959,
      "Ġkonparezon": 7960,
      "Ġlengwistik": 7961,
      "xBet": 7962,
      "Ã²di": 7963,
      "ayan": 7964,
      "minen": 7965,
      "Ġdisiplin": 7966,
      "ĠBabilÃ²n": 7967,
      "Ġfyab": 7968,
      "ĠAtravÃ¨": 7969,
      "deta": 7970,
      "aksi": 7971,
      "ĠFar": 7972,
      "yang": 7973,
      "ĠkritÃ¨": 7974,
      "vignette": 7975,
      "Ġfiltraj": 7976,
      "Ha": 7977,
      "pÃ©": 7978,
      "ĠkiyÃ¨": 7979,
      "tary": 7980,
      "Ġmonnen": 7981,
      "AND": 7982,
      "valan": 7983,
      "ĠlidÃ¨chip": 7984,
      "sky": 7985,
      "Ġglisman": 7986,
      "ksyÃ²nman": 7987,
      ").ĊĊ": 7988,
      "\\_": 7989,
      "fat": 7990,
      "pal": 7991,
      "vÃ²l": 7992,
      "ref": 7993,
      "Ġfour": 7994,
      "Ġouvriye": 7995,
      "jeksyon": 7996,
      "ĠFant": 7997,
      "Ġamerik": 7998,
      "ĠklÃ¨man": 7999,
      "Ġgaspiye": 8000,
      "ĠRepons": 8001,
      "Ġvs": 8002,
      "ĠKatolik": 8003,
      "ĠNat": 8004,
      "ĠFan": 8005,
      "ĠGB": 8006,
      "ĠGad": 8007,
      "ĠRoad": 8008,
      "ĠIslam": 8009,
      "ĠBrown": 8010,
      "Ġflanm": 8011,
      "ame": 8012,
      "Ã¨che": 8013,
      "sic": 8014,
      "ĠCO": 8015,
      "otes": 8016,
      "ĠabÃ²de": 8017,
      "Ġespesifikasyon": 8018,
      "ĠprezidansyÃ¨l": 8019,
      "ĠMario": 8020,
      "Lap": 8021,
      "ree": 8022,
      "Ġbr": 8023,
      "Ġperi": 8024,
      "ĠVÃ¨": 8025,
      "ĠpÃ¨misyon": 8026,
      "ĠSena": 8027,
      "Ġdemokratik": 8028,
      "ĠenvantÃ¨": 8029,
      "ela": 8030,
      "ĠapwÃ¨": 8031,
      "Ġdite": 8032,
      "sifik": 8033,
      "ĠTam": 8034,
      "view": 8035,
      "ĠdefÃ¨t": 8036,
      "ĠShan": 8037,
      "ĠremÃ¨d": 8038,
      "Ġsilans": 8039,
      "Ġeksplozyon": 8040,
      "Ġrebati": 8041,
      "ĠrÃ¨l": 8042,
      "-mail": 8043,
      "gÃłn": 8044,
      "Ġgato": 8045,
      "ĠSouth": 8046,
      "Ġpwograme": 8047,
      "ĠCra": 8048,
      "ĠJim": 8049,
      "zitÃ¨": 8050,
      "ĠOtrich": 8051,
      "valier": 8052,
      "ĠGarc": 8053,
      "ĠCorporation": 8054,
      "Download": 8055,
      "ibilite": 8056,
      "tie": 8057,
      "Ġgaming": 8058,
      "ĠCÃ©": 8059,
      "ĠsentÃ¨z": 8060,
      "Ġbouyon": 8061,
      "rabl": 8062,
      "ĠGlass": 8063,
      "ĠWood": 8064,
      "Ekri": 8065,
      "yak": 8066,
      "Ã¨res": 8067,
      "Ġiri": 8068,
      "Ġtaye": 8069,
      "ĠMache": 8070,
      ".CO": 8071,
      "ĠExpress": 8072,
      "Ã»": 8073,
      "ĠasyÃ¨t": 8074,
      "Ġlistwa": 8075,
      "ĠLaw": 8076,
      "Ġcap": 8077,
      "ĠLevi": 8078,
      "ĠbÃ²s": 8079,
      "ĠimÃ¨n": 8080,
      "ĠMinisipalite": 8081,
      "ĠbaskÃ¨tbÃ²l": 8082,
      "Rap": 8083,
      "Ġpatant": 8084,
      "ĠPolis": 8085,
      "ĠRelasyon": 8086,
      "Ġtoutouni": 8087,
      "orts": 8088,
      "Ġbilten": 8089,
      "Ġconfi": 8090,
      "ĠFilisti": 8091,
      "ĠFerra": 8092,
      "ĠdivÃ²s": 8093,
      "itor": 8094,
      "ĠKA": 8095,
      "ĠCE": 8096,
      "ĠWes": 8097,
      "fiche": 8098,
      "ĠAksÃ¨": 8099,
      "-K": 8100,
      ".w": 8101,
      "ĠPhoto": 8102,
      "ĠÃ©lÃ©": 8103,
      "ĠEkran": 8104,
      "-i": 8105,
      "tru": 8106,
      "Ġlwe": 8107,
      "Ġlansman": 8108,
      "ĠSOU": 8109,
      "omo": 8110,
      "ĠFÃ¨y": 8111,
      "yÃ¨v": 8112,
      "ĠLatiki": 8113,
      "ĠRevizyon": 8114,
      "ĠPage": 8115,
      "Ġbourik": 8116,
      "Ãªte": 8117,
      "Ġesklavaj": 8118,
      "als": 8119,
      "Ġevolisyon": 8120,
      "ĠLÃ¨t": 8121,
      "ĠFlÃ¨": 8122,
      "Ġploge": 8123,
      "Ġkomanse": 8124,
      "ury": 8125,
      "Ġfimen": 8126,
      "Ġtrankil": 8127,
      "ĠCapteur": 8128,
      "ĠAzyatik": 8129,
      "Ġflote": 8130,
      "DI": 8131,
      "WEN": 8132,
      "ĠCab": 8133,
      "jitim": 8134,
      "Ġinon": 8135,
      "Ġegzistans": 8136,
      "Ġbalkon": 8137,
      "Ġorizontal": 8138,
      "Trans": 8139,
      "ĠrefÃ²m": 8140,
      "ded": 8141,
      "Ġchip": 8142,
      "ĠKredi": 8143,
      "ĠRejyon": 8144,
      "Ġbandi": 8145,
      "ĠosijÃ¨": 8146,
      "ĠLuis": 8147,
      "Ġegzeyat": 8148,
      "Ġtemwayaj": 8149,
      ":ĊĊ": 8150,
      "cen": 8151,
      "ĠbÃ²l": 8152,
      "raz": 8153,
      "ĠSab": 8154,
      "Ġdivil": 8155,
      "ĠBill": 8156,
      "yÃ¨d": 8157,
      "lanche": 8158,
      "ophi": 8159,
      "Liv": 8160,
      "Ġsikile": 8161,
      "ÃĪT": 8162,
      "Ġbatiman": 8163,
      "ĠCarol": 8164,
      "poul": 8165,
      "kontrÃ¨": 8166,
      "ĠFasil": 8167,
      "Ġanvayi": 8168,
      "-ap": 8169,
      "PL": 8170,
      "Ġnaje": 8171,
      "ĠBol": 8172,
      "bolik": 8173,
      "Ġkonsakre": 8174,
      "Ġdyagnostik": 8175,
      "eurs": 8176,
      "yatÃ¨": 8177,
      "onnen": 8178,
      "ĠMid": 8179,
      "ĠMezon": 8180,
      "omasyon": 8181,
      "jidÃ¨": 8182,
      "Ġsentetik": 8183,
      "Ġresort": 8184,
      "ĠTexas": 8185,
      "BC": 8186,
      "Ġdyo": 8187,
      "ĠSim": 8188,
      "ĠInite": 8189,
      "ĠTech": 8190,
      "board": 8191,
      "ĠlineyÃ¨": 8192,
      "dya": 8193,
      "ĠOx": 8194,
      "ĠIran": 8195,
      "Ġbouyi": 8196,
      "ĠfowÃ²m": 8197,
      "ĠadmÃ¨t": 8198,
      "ĠAparÃ¨y": 8199,
      "Ġinisyal": 8200,
      "Ġâī": 8201,
      "ĠBarcel": 8202,
      "ĠDisney": 8203,
      "ĠeskÃ²t": 8204,
      "Ġ!Ċ": 8205,
      "ografik": 8206,
      "Ġsyn": 8207,
      "ĠPE": 8208,
      "Ġjeu": 8209,
      "edro": 8210,
      "ĠentÃ¨r": 8211,
      "ĠPatrick": 8212,
      "Cloud": 8213,
      "VA": 8214,
      "à¤": 8215,
      "Ġtur": 8216,
      "Ġdok": 8217,
      "ĠSak": 8218,
      "ativite": 8219,
      "andre": 8220,
      "ĠSipÃ²": 8221,
      "acques": 8222,
      "ĠSenatÃ¨": 8223,
      "licone": 8224,
      "ĠKesyon": 8225,
      "ĠFilipin": 8226,
      "ĠMedica": 8227,
      "ouch": 8228,
      "ĠScho": 8229,
      "ĠAT": 8230,
      "ĠTai": 8231,
      "pos": 8232,
      "Ġposts": 8233,
      "Ġtoksik": 8234,
      "Ġadezif": 8235,
      "ĠAnsanm": 8236,
      "Ġpanno": 8237,
      "ĠBit": 8238,
      "EMA": 8239,
      "Ġestimasyon": 8240,
      "Per": 8241,
      "RC": 8242,
      "Tit": 8243,
      "Ġvwal": 8244,
      "ĠremÃ¨t": 8245,
      "illes": 8246,
      "ĠVI": 8247,
      "ĠEnte": 8248,
      "Ġmasiv": 8249,
      "herlands": 8250,
      "olonÃ¨": 8251,
      "Nimewo": 8252,
      "Ġkonsantman": 8253,
      "ĠkÃ²lÃ¨g": 8254,
      "Ġvale": 8255,
      "Ġiben": 8256,
      "Ġekou": 8257,
      "tod": 8258,
      "Ġjedi": 8259,
      "tivasyon": 8260,
      "gregasyon": 8261,
      "Ġenspirasyon": 8262,
      "Ġdeseni": 8263,
      "ĠFinalman": 8264,
      "medyÃ¨": 8265,
      "Avantaj": 8266,
      "Ren": 8267,
      "RON": 8268,
      "Ġast": 8269,
      "Ġlig": 8270,
      "ĠOkenn": 8271,
      "darite": 8272,
      "vizib": 8273,
      "Ġsoufrans": 8274,
      "ĠHealth": 8275,
      "Ġkorespondans": 8276,
      "uf": 8277,
      "Ġgast": 8278,
      "ĠBos": 8279,
      "ĠImi": 8280,
      "ĠLig": 8281,
      "Ġriral": 8282,
      "ĠMizilman": 8283,
      "ĠsigarÃ¨t": 8284,
      "cto": 8285,
      "ĠPDF": 8286,
      "ĠFlash": 8287,
      "andal": 8288,
      "ĠZel": 8289,
      "Ġkalori": 8290,
      "ĠMassa": 8291,
      "ĠmiskilÃ¨": 8292,
      "PÃ²t": 8293,
      "Â·": 8294,
      "ĠMalerezman": 8295,
      "ĠCop": 8296,
      "Ġmeksik": 8297,
      "Ġmarin": 8298,
      "kie": 8299,
      "ĠEnskripsyon": 8300,
      "ĠAll": 8301,
      "ĠNivo": 8302,
      "Ġosnon": 8303,
      "gwi": 8304,
      "yik": 8305,
      "zal": 8306,
      "biye": 8307,
      "valyasyon": 8308,
      "Ġandro": 8309,
      "ĠalbÃ²m": 8310,
      "/in": 8311,
      "ura": 8312,
      "ĠzÃ¨v": 8313,
      "ĠsitwayÃ¨nte": 8314,
      "ĠchantÃ¨": 8315,
      "Ġoff": 8316,
      "SeyÃ¨": 8317,
      "ĠMarcel": 8318,
      "ĠKomÃ¨syal": 8319,
      "Ġpipiti": 8320,
      "ual": 8321,
      "ĠmÃ¨g": 8322,
      "ĠpasyÃ¨l": 8323,
      "Ġdeli": 8324,
      "lian": 8325,
      "ĠKilti": 8326,
      "ĠNow": 8327,
      "Ġkolektif": 8328,
      "nica": 8329,
      "sanbleman": 8330,
      "ĠAprÃ¨": 8331,
      "Ġdekoratif": 8332,
      "ĠChristop": 8333,
      "ime": 8334,
      "Ġanonim": 8335,
      "Ġge": 8336,
      "ĠMik": 8337,
      "ĠBy": 8338,
      "ĠFla": 8339,
      "ĠMach": 8340,
      "Ġdepan": 8341,
      "motÃ¨": 8342,
      "Con": 8343,
      "inal": 8344,
      "ĠPalÃ¨": 8345,
      "ĠDwe": 8346,
      "ansasyon": 8347,
      "tilize": 8348,
      "Ġetc": 8349,
      "ĠKreye": 8350,
      "ĠGaranti": 8351,
      "Ġgadyen": 8352,
      "ĠLagrÃ¨s": 8353,
      "Â®": 8354,
      "ĠestwojÃ¨n": 8355,
      "Ġdouz": 8356,
      "Un": 8357,
      "dal": 8358,
      "Ġmab": 8359,
      "Ġdine": 8360,
      "Ġder": 8361,
      "ĠSpring": 8362,
      "ĠBlog": 8363,
      "quel": 8364,
      "pres": 8365,
      "ĠLÃ¨fini": 8366,
      "Ġpwezi": 8367,
      "ĠkatastwÃ²f": 8368,
      "As": 8369,
      "NatirÃ¨l": 8370,
      "Vil": 8371,
      "tilasyon": 8372,
      "Ġsavon": 8373,
      "ĠRon": 8374,
      "Ġestidyo": 8375,
      "vantyÃ¨lman": 8376,
      "........": 8377,
      "ĠAtlantik": 8378,
      "Ġ>>Ċ": 8379,
      "DC": 8380,
      "EW": 8381,
      "OK": 8382,
      "prann": 8383,
      "chÃ©": 8384,
      "Ġlaf": 8385,
      "ĠSom": 8386,
      "ĠBull": 8387,
      "ĠHC": 8388,
      "tino": 8389,
      "ĠDeklarasyon": 8390,
      "Ġwoulib": 8391,
      "ĠtransfÃ²masyon": 8392,
      "Ġpakin": 8393,
      "ĠUnited": 8394,
      "ĠKominote": 8395,
      "af": 8396,
      "ĠSous": 8397,
      "Ġenpri": 8398,
      "ardi": 8399,
      "jeur": 8400,
      "Ġsimen": 8401,
      "knik": 8402,
      "Ġsalon": 8403,
      "HD": 8404,
      "Â°": 8405,
      "Ġanbas": 8406,
      "ĠBluetooth": 8407,
      "Ġresi": 8408,
      "Ġchonje": 8409,
      "ĠHi": 8410,
      "ĠAnviwÃ²nman": 8411,
      "stein": 8412,
      "ĠManadjÃ¨": 8413,
      "Ġamitye": 8414,
      "ĠGlobal": 8415,
      "itab": 8416,
      "ĠpwopÃ²": 8417,
      "row": 8418,
      "Ġmoniman": 8419,
      "Ġinter": 8420,
      "lyore": 8421,
      "Ġverifikasyon": 8422,
      "-pa": 8423,
      "Dire": 8424,
      "Fon": 8425,
      "mbre": 8426,
      "lizyon": 8427,
      "sica": 8428,
      "Ġce": 8429,
      "Ġinyore": 8430,
      "kate": 8431,
      "Ġmakiyaj": 8432,
      "ANT": 8433,
      "ĠRoger": 8434,
      "ĠPeter": 8435,
      "ĠBig": 8436,
      "ĠFederasyon": 8437,
      "star": 8438,
      "ĠBlanch": 8439,
      "Ġaterisaj": 8440,
      "Ġedike": 8441,
      "EF": 8442,
      "Ġtouden": 8443,
      "ĠBag": 8444,
      "Ġfonse": 8445,
      "Ġnitritif": 8446,
      ",âĢĿ": 8447,
      "yr": 8448,
      "Ġtin": 8449,
      "rest": 8450,
      "ĠSho": 8451,
      "ĠPho": 8452,
      "Ġenfekte": 8453,
      "ĠDim": 8454,
      "yÃ¨r": 8455,
      "olÃ²g": 8456,
      "ĠIC": 8457,
      "Ġcan": 8458,
      "Ġsendika": 8459,
      "ther": 8460,
      "ĠonÃ¨": 8461,
      "ĠSalv": 8462,
      "ĠflÃ¨ch": 8463,
      "Ġminisipalite": 8464,
      "ĠrapÃ¨l": 8465,
      "ĠLanmÃ¨": 8466,
      "'An": 8467,
      "Sant": 8468,
      "Ġdrenaj": 8469,
      "inivÃ¨": 8470,
      "Ġrasanbleman": 8471,
      "ĠMai": 8472,
      "Ġdesine": 8473,
      "ĠbÃ²di": 8474,
      "Ġnotifikasyon": 8475,
      "ĠEksperyans": 8476,
      "Ġdezavantaj": 8477,
      "Ġtoudenkou": 8478,
      "-yon": 8479,
      "Ġkonsistan": 8480,
      "Ġlantiy": 8481,
      "ĠÂ©": 8482,
      "Ġnavigasyon": 8483,
      "Post": 8484,
      "Ġfavorab": 8485,
      "Ġpwovoke": 8486,
      "latab": 8487,
      "ĠLim": 8488,
      "ĠArt": 8489,
      "ĠVoye": 8490,
      "ĠÃ²t": 8491,
      "Ġital": 8492,
      "Esp": 8493,
      "ule": 8494,
      "ĠnikleyÃ¨": 8495,
      "Ġdepresyon": 8496,
      "Ġsenaryo": 8497,
      "ĠZo": 8498,
      "toria": 8499,
      "ĠentÃ¨aktif": 8500,
      "Ġchato": 8501,
      "ĠUSD": 8502,
      "Ġlokalize": 8503,
      "ĠeksteryÃ¨": 8504,
      "ĠPlugin": 8505,
      "AA": 8506,
      "gÃ©": 8507,
      "nd": 8508,
      "relijyon": 8509,
      "Ġaki": 8510,
      "ĠbÃ¨s": 8511,
      "Ġbras": 8512,
      "lec": 8513,
      "Ġtet": 8514,
      "Ġkopye": 8515,
      "spit": 8516,
      "Ġher": 8517,
      "ĠVie": 8518,
      "Ġmaren": 8519,
      "ĠHaÃ¯ti": 8520,
      "ĠnitwojÃ¨n": 8521,
      "ĠliterÃ¨": 8522,
      "ĠFRANS": 8523,
      "Gran": 8524,
      "Ġkonkou": 8525,
      "ĠrepÃ²": 8526,
      "Ġcas": 8527,
      "minÃ¨": 8528,
      "yÃ²k": 8529,
      "Ġestratejik": 8530,
      "par": 8531,
      "tyÃ¨m": 8532,
      "taire": 8533,
      "zibisyon": 8534,
      "ĠOhio": 8535,
      "Ġcol": 8536,
      "Ġeksplikasyon": 8537,
      "Ġresikle": 8538,
      "Konbyen": 8539,
      "ĠponyÃ¨t": 8540,
      "Ġplafon": 8541,
      "ĠReyinyon": 8542,
      "atherine": 8543,
      "Syans": 8544,
      "alizasyon": 8545,
      "Ġterib": 8546,
      "mesi": 8547,
      "ĠImobilye": 8548,
      "ĠVwa": 8549,
      "Ġtag": 8550,
      "wÃ¨m": 8551,
      "onso": 8552,
      "Ġpatri": 8553,
      "you": 8554,
      "Ġna": 8555,
      "ĠAS": 8556,
      "ĠEfÃ¨": 8557,
      "ĠElekt": 8558,
      "ked": 8559,
      "Ġpostal": 8560,
      "Ġfilozofi": 8561,
      "Ġblanch": 8562,
      "ĠGeorgi": 8563,
      "ĠPapye": 8564,
      "ĠPolÃ²y": 8565,
      "ĠWilliams": 8566,
      "ĠNicolas": 8567,
      "-ki": 8568,
      "panse": 8569,
      "Ð½": 8570,
      "Ġdemi": 8571,
      "ĠDat": 8572,
      "Antre": 8573,
      "davi": 8574,
      "Ġmanifeste": 8575,
      "-di": 8576,
      "Lin": 8577,
      "Mou": 8578,
      "epi": 8579,
      "ĠPL": 8580,
      "ĠBak": 8581,
      "omb": 8582,
      "Ġpet": 8583,
      "yalis": 8584,
      "ĠendÃ¨ks": 8585,
      "Ġlay": 8586,
      "viwon": 8587,
      "ĠkowÃ²done": 8588,
      "Ã²ni": 8589,
      "matematik": 8590,
      "ĠRoman": 8591,
      "Ã¡s": 8592,
      "title": 8593,
      "Ġchapo": 8594,
      "ĠFonksyon": 8595,
      "ĠKominikasyon": 8596,
      "defend": 8597,
      "/index": 8598,
      "EX": 8599,
      "Ġkonje": 8600,
      "Ġsache": 8601,
      "sed": 8602,
      "ĠBara": 8603,
      "ĠJaden": 8604,
      "cetate": 8605,
      "ĠKonferans": 8606,
      "Ġlalin": 8607,
      "ĠpwotokÃ²l": 8608,
      "ĠrÃ©sine": 8609,
      "trand": 8610,
      "Ġnomin": 8611,
      "ĠGP": 8612,
      "gari": 8613,
      "tures": 8614,
      "xbet": 8615,
      "quot": 8616,
      "Ġgrand": 8617,
      "Ġgoute": 8618,
      "phen": 8619,
      "ĠpÃ¨sonÃ¨lman": 8620,
      "Jezi": 8621,
      "Ġidro": 8622,
      "HS": 8623,
      "gel": 8624,
      "Ġlafimen": 8625,
      "ĠAR": 8626,
      "ats": 8627,
      "mel": 8628,
      "ĠSep": 8629,
      "ative": 8630,
      "anton": 8631,
      "ĠRecovery": 8632,
      "Ġekriti": 8633,
      "Ġmatris": 8634,
      "Ġtransparans": 8635,
      "Ġminimize": 8636,
      "ĠHolland": 8637,
      "ĠVirtual": 8638,
      "ĠChristian": 8639,
      "ĠpriyÃ¨": 8640,
      "Ġaleka": 8641,
      "tha": 8642,
      "Ġsiyati": 8643,
      "Ġparagraf": 8644,
      "ĠBÃ¨ljik": 8645,
      "Au": 8646,
      "dle": 8647,
      "sad": 8648,
      "ĠdechÃ¨": 8649,
      "Ġsoutni": 8650,
      "ĠCer": 8651,
      "eza": 8652,
      "fice": 8653,
      "ĠKonnen": 8654,
      "lisite": 8655,
      "ront": 8656,
      "ĠPorn": 8657,
      "Ġpasyans": 8658,
      "Ġdiro": 8659,
      "pilÃ¨": 8660,
      "ifÃ²ni": 8661,
      "Ġtranpe": 8662,
      "abili": 8663,
      "Ġdeziyen": 8664,
      "ĠNetherlands": 8665,
      "ĠfrijidÃ¨": 8666,
      "ĠpersonnalisÃ©": 8667,
      "blÃ¨s": 8668,
      "jene": 8669,
      "ute": 8670,
      "Ġantite": 8671,
      "ratin": 8672,
      "ables": 8673,
      "Ġlejitim": 8674,
      "tiste": 8675,
      "Ġdefo": 8676,
      "ĠBob": 8677,
      "Ġsekre": 8678,
      "KoulÃ¨": 8679,
      "Ġadministratif": 8680,
      "ving": 8681,
      "Ġlyon": 8682,
      "ties": 8683,
      "Ġchabon": 8684,
      "ĠkÃ²nen": 8685,
      "ĠPwofesÃ¨": 8686,
      "ĠAprann": 8687,
      "ĠLove": 8688,
      "Machin": 8689,
      "ĠMaurice": 8690,
      "-Fi": 8691,
      "NenpÃ²t": 8692,
      "Ġderanje": 8693,
      "ĠdivÃ¨site": 8694,
      "ĠESP": 8695,
      "ĠTÃ¨m": 8696,
      "Ġ(\"": 8697,
      "divÃ¨tisman": 8698,
      "velo": 8699,
      "Ġpreche": 8700,
      "ĠHall": 8701,
      "Ġfonction": 8702,
      "lywood": 8703,
      "Ġankenn": 8704,
      "Ġvalid": 8705,
      "ĠDesigner": 8706,
      "Ġlejislasyon": 8707,
      "ĠJeremi": 8708,
      "ĠBl": 8709,
      "ĠBang": 8710,
      "cking": 8711,
      "ĠdevlÃ²pman": 8712,
      "Ġasiyen": 8713,
      "ĠÃ¨r": 8714,
      "ĠKoupe": 8715,
      "Ġdeteksyon": 8716,
      ".Li": 8717,
      "Âº": 8718,
      "Ġpit": 8719,
      "Ġtwoup": 8720,
      "Ġsemen": 8721,
      "ĠSyl": 8722,
      "ĠFond": 8723,
      "ĠGir": 8724,
      "ĠOl": 8725,
      "nia": 8726,
      "Ġmontan": 8727,
      "ĠsenatÃ¨": 8728,
      "ates": 8729,
      "ĠestriktirÃ¨l": 8730,
      "ĠpalÃ¨t": 8731,
      "Ġkoloni": 8732,
      "ĠArawon": 8733,
      "chargement": 8734,
      "Ġape": 8735,
      "dier": 8736,
      "wesyon": 8737,
      "ĠVPN": 8738,
      "yante": 8739,
      "bia": 8740,
      "Ġgrad": 8741,
      "SegondÃ¨": 8742,
      "ower": 8743,
      "Ġtrip": 8744,
      "ĠRenmen": 8745,
      "Ġtomat": 8746,
      "Ġsaj": 8747,
      "ĠFib": 8748,
      "Ġsanksyon": 8749,
      "Ġprale": 8750,
      "inga": 8751,
      "Ġadmi": 8752,
      "ĠPwofesyonÃ¨l": 8753,
      "trait": 8754,
      "Â¶": 8755,
      "rif": 8756,
      "ĠCosta": 8757,
      "ĠThi": 8758,
      "Ġiman": 8759,
      "veurs": 8760,
      "ĠayisyÃ¨n": 8761,
      "ĠsenkyÃ¨m": 8762,
      "ĠÎ": 8763,
      "%.Ċ": 8764,
      "-N": 8765,
      "..Ċ": 8766,
      "Ġankoura": 8767,
      "Ġlabou": 8768,
      "Ġgu": 8769,
      "Ġgren": 8770,
      "ĠSS": 8771,
      "seurs": 8772,
      "omaj": 8773,
      "ĠURL": 8774,
      "ĠXi": 8775,
      "Ġtowo": 8776,
      "Ġfleksibilite": 8777,
      "ĠShanghai": 8778,
      "Vo": 8779,
      "sol": 8780,
      "ĠoratÃ¨": 8781,
      "iko": 8782,
      "vansyonÃ¨l": 8783,
      "ĠretrÃ¨": 8784,
      "Apple": 8785,
      "ĠendijÃ¨n": 8786,
      "spitalite": 8787,
      "Sup": 8788,
      "To": 8789,
      "dizan": 8790,
      "hy": 8791,
      "wone": 8792,
      "Ġfet": 8793,
      "ĠPP": 8794,
      "danse": 8795,
      "Ġkoron": 8796,
      "Ġlangaj": 8797,
      "ĠShenz": 8798,
      "Ġbouchon": 8799,
      "stitu": 8800,
      "Ġantrennman": 8801,
      "Ġfwomaj": 8802,
      "Selon": 8803,
      "ĠCent": 8804,
      "ĠIma": 8805,
      "oster": 8806,
      "Ġtranble": 8807,
      "vertis": 8808,
      "priyete": 8809,
      "ĠRive": 8810,
      "Ġfidbak": 8811,
      "KÃ²manse": 8812,
      "'Ċ": 8813,
      ".p": 8814,
      "AG": 8815,
      "ures": 8816,
      "abeth": 8817,
      "ĠHan": 8818,
      "ĠHis": 8819,
      "Ġleman": 8820,
      "Ġabondan": 8821,
      "ĠPwodiksyon": 8822,
      "Ġmasisi": 8823,
      "ĠkwazyÃ¨": 8824,
      "iskal": 8825,
      "Ġreprezantasyon": 8826,
      "Ġkoupab": 8827,
      "ĠOryan": 8828,
      "ĠIslands": 8829,
      "ĠMajistra": 8830,
      "ĠdyezÃ¨l": 8831,
      "Frans": 8832,
      "dust": 8833,
      "pÃ¨t": 8834,
      "rado": 8835,
      "ĠFM": 8836,
      "kouvri": 8837,
      "ĠLegal": 8838,
      "Ġkontantman": 8839,
      "Ġreprann": 8840,
      "Ġseryezman": 8841,
      "Ġsyantis": 8842,
      "Ġamizan": 8843,
      "ĠfransÃ¨z": 8844,
      "ĠShenzhen": 8845,
      "Ġreyon": 8846,
      "ĠRelief": 8847,
      "Dep": 8848,
      "Ġresepsyon": 8849,
      "âĢĿĊ": 8850,
      "arawon": 8851,
      "ĠSosyete": 8852,
      "ĠTurkey": 8853,
      "Ġfatig": 8854,
      "Ser": 8855,
      "dit": 8856,
      "Ġski": 8857,
      "wopoli": 8858,
      "ĠAkÃ²": 8859,
      "Ġsor": 8860,
      "ondwi": 8861,
      "Ġino": 8862,
      "Ġdesandan": 8863,
      "Ġfebli": 8864,
      "Ġ[...": 8865,
      "Ġanplwa": 8866,
      "Ġev": 8867,
      "ĠodÃ¨": 8868,
      "ĠEseye": 8869,
      "store": 8870,
      "Ġkoub": 8871,
      "Ġprix": 8872,
      "gance": 8873,
      "ĠantreprenÃ¨": 8874,
      "Com": 8875,
      "Imaj": 8876,
      "Lim": 8877,
      "OF": 8878,
      "kat": 8879,
      "omatik": 8880,
      "Ġmennaj": 8881,
      "wiye": 8882,
      "Ġsamdi": 8883,
      "fes": 8884,
      "stÃ¨": 8885,
      "ĠsÃ²": 8886,
      "ĠmÃ¨": 8887,
      "rec": 8888,
      "ĠlapawÃ²l": 8889,
      "ĠAsanble": 8890,
      "ĠPil": 8891,
      "ĠKh": 8892,
      "vÃ¨j": 8893,
      "Ġtanbou": 8894,
      "str": 8895,
      "baz": 8896,
      "Ġatenn": 8897,
      "Ġkalm": 8898,
      "ĠXX": 8899,
      "ĠRetounen": 8900,
      "ograph": 8901,
      "rick": 8902,
      "mani": 8903,
      "ĠMulti": 8904,
      "pez": 8905,
      "Ġkeratin": 8906,
      "Ã©rie": 8907,
      "rentif": 8908,
      "ĠAnpi": 8909,
      "oka": 8910,
      "ĠPwochen": 8911,
      "ĠreseptÃ¨": 8912,
      "ĠPress": 8913,
      "PwojÃ¨": 8914,
      "uela": 8915,
      "ision": 8916,
      "Ġkonfidan": 8917,
      "ĠSingle": 8918,
      "\"\"": 8919,
      "tilis": 8920,
      "Ġfrom": 8921,
      "Ġdetire": 8922,
      "ĠBiden": 8923,
      "ĠEUR": 8924,
      "Ġalye": 8925,
      "Ġlegalman": 8926,
      "Ġekivalan": 8927,
      "Ġkonsiltan": 8928,
      "Ġantanke": 8929,
      "lestewÃ²l": 8930,
      ".g": 8931,
      "DS": 8932,
      "Ġkondu": 8933,
      "Ġenpre": 8934,
      "dition": 8935,
      "strÃ¨": 8936,
      "onduc": 8937,
      "ĠAnplwaye": 8938,
      "giman": 8939,
      "ĠJistis": 8940,
      "Created": 8941,
      "Ġseche": 8942,
      "ĠStock": 8943,
      "ĠTin": 8944,
      "olÃ¨t": 8945,
      "Ġkonpansasyon": 8946,
      "ÃĪS": 8947,
      "ĠBeau": 8948,
      "ĠPÃ¨son": 8949,
      "ĠSovyetik": 8950,
      "'h": 8951,
      "-des": 8952,
      "Mac": 8953,
      "Ġmason": 8954,
      "ĠTok": 8955,
      "ĠGrenn": 8956,
      "ĠkÃ²mandan": 8957,
      "ĠManif": 8958,
      "guez": 8959,
      "bility": 8960,
      ".fr": 8961,
      "Flo": 8962,
      "Ġflu": 8963,
      "ĠbÃ²t": 8964,
      "pere": 8965,
      "inique": 8966,
      "bian": 8967,
      "Ġegzamine": 8968,
      "ĠÃĪd": 8969,
      "Ġsupriz": 8970,
      "abriel": 8971,
      "chanste": 8972,
      "ĠmÃ¨kredi": 8973,
      "ĠDor": 8974,
      "ĠEvÃ¨nman": 8975,
      "ĠRO": 8976,
      "ĠWork": 8977,
      "ĠLeon": 8978,
      "sipyan": 8979,
      "ĠvÃ¨r": 8980,
      "ĠkontwolÃ¨": 8981,
      "ĠPlatfÃ²m": 8982,
      "Ġvaryab": 8983,
      "-zanmitay": 8984,
      ");Ċ": 8985,
      "ace": 8986,
      "kal": 8987,
      "Ġsouke": 8988,
      "Ġwik": 8989,
      "Ġjisteman": 8990,
      "Ġespektak": 8991,
      "ĠDigital": 8992,
      "Ġtrant": 8993,
      "stem": 8994,
      "ĠSerge": 8995,
      "nes": 8996,
      "ĠnÃ¨": 8997,
      "ĠrevÃ¨y": 8998,
      "Ġopozan": 8999,
      "Ġijan": 9000,
      "Ġapwobasyon": 9001,
      "brid": 9002,
      "jwen": 9003,
      "uma": 9004,
      "Ġlans": 9005,
      "inte": 9006,
      "woris": 9007,
      "ĠAdan": 9008,
      "Ġkek": 9009,
      "Ġadmin": 9010,
      "ĠregrÃ¨t": 9011,
      "Ġreveye": 9012,
      "iro": 9013,
      "Ã²p": 9014,
      "Ġgroup": 9015,
      "ĠjÃ²di": 9016,
      "Ġory": 9017,
      "ĠMale": 9018,
      "ĠLÃ²d": 9019,
      "ĠDin": 9020,
      "Ġbonjan": 9021,
      "ĠSezon": 9022,
      "amond": 9023,
      "Ġeskan": 9024,
      "ots": 9025,
      "ĠkalsyÃ²m": 9026,
      "ĠLuc": 9027,
      "tosiklÃ¨t": 9028,
      "ĠOtorite": 9029,
      "Objektif": 9030,
      "gni": 9031,
      "istre": 9032,
      "ĠjÃ¨l": 9033,
      "ĠPle": 9034,
      "velasyon": 9035,
      "ĠkontinyÃ¨lman": 9036,
      "Ġzegwi": 9037,
      "Ġdominik": 9038,
      "ĠMoldavi": 9039,
      "?title": 9040,
      "Etap": 9041,
      "bad": 9042,
      "lans": 9043,
      "enÃ¨": 9044,
      "ĠesÃ¨": 9045,
      "ĠelÃ¨kt": 9046,
      "ilton": 9047,
      "andra": 9048,
      "PwoblÃ¨m": 9049,
      "jenik": 9050,
      "pikal": 9051,
      "ĠsekretÃ¨": 9052,
      "-Ch": 9053,
      "Ġakote": 9054,
      "Ġdega": 9055,
      "oldid": 9056,
      "ĠRub": 9057,
      "ĠAngeles": 9058,
      "Fas": 9059,
      "Komin": 9060,
      "Ġdetant": 9061,
      "Ġchin": 9062,
      "ĠKel": 9063,
      "ĠJun": 9064,
      "ĠJour": 9065,
      "Ġmesaje": 9066,
      "ĠJane": 9067,
      "ĠContact": 9068,
      "ĠAYITI": 9069,
      "Ġsoulajman": 9070,
      "ym": 9071,
      "Ġantik": 9072,
      "Ġpoupe": 9073,
      "ĠKas": 9074,
      "quo": 9075,
      "yage": 9076,
      "ĠSouvan": 9077,
      "Ġonore": 9078,
      "Ġradyasyon": 9079,
      "ĠÃ©pisode": 9080,
      "Ġenvante": 9081,
      "Ġakimile": 9082,
      "-g": 9083,
      "-ak": 9084,
      "HC": 9085,
      "kra": 9086,
      "king": 9087,
      "Ġklub": 9088,
      "ĠAVI": 9089,
      "abel": 9090,
      "strik": 9091,
      "osistÃ¨m": 9092,
      "ĠÃ²gÃłn": 9093,
      "Ġwoutin": 9094,
      "Wou": 9095,
      "Ġasiste": 9096,
      "ĠNov": 9097,
      "Ġmechanste": 9098,
      "Ġgram": 9099,
      "ĠDivizyon": 9100,
      "ĠÃ²ganizatÃ¨": 9101,
      "KonsÃ¨": 9102,
      "Ġpanyen": 9103,
      "zÃ¨ve": 9104,
      "Ġdramatik": 9105,
      "ĠIII": 9106,
      "cooter": 9107,
      "ĠamerikÃ¨n": 9108,
      "-fÃ¨": 9109,
      "Fil": 9110,
      "Ã¦": 9111,
      "Ġswi": 9112,
      "mansyon": 9113,
      "Ġselman": 9114,
      "Ã¨ten": 9115,
      "ĠAL": 9116,
      "ĠAri": 9117,
      "disyÃ¨": 9118,
      "Ã©r": 9119,
      "rison": 9120,
      "ĠantyÃ¨man": 9121,
      "Ġchemine": 9122,
      "-pwo": 9123,
      "Ġmajistra": 9124,
      "Ġchimen": 9125,
      "Ġkonvenk": 9126,
      "Ġaplikan": 9127,
      "Ġsakrifis": 9128,
      "Ġ<": 9129,
      "Fak": 9130,
      "vans": 9131,
      "telit": 9132,
      "ĠSonje": 9133,
      "ĠPW": 9134,
      "olf": 9135,
      "ĠOspitalite": 9136,
      "Ġfootball": 9137,
      "ĠalÃ¨ji": 9138,
      "ĠekstrÃ¨mman": 9139,
      "Ġgalvan": 9140,
      "ĠPÃ²tigÃ¨": 9141,
      "pren": 9142,
      "yas": 9143,
      "yad": 9144,
      "zak": 9145,
      "Äģ": 9146,
      "Ġarive": 9147,
      "ĠsÃ²m": 9148,
      "Ġtron": 9149,
      "ĠmÃ²t": 9150,
      "Ġfoun": 9151,
      "was": 9152,
      "ĠBras": 9153,
      "ĠGro": 9154,
      "Ġkoumanse": 9155,
      "Ġrak": 9156,
      "ĠJeu": 9157,
      "aut": 9158,
      "links": 9159,
      "Ġsilikon": 9160,
      "-te": 9161,
      "Ġdeg": 9162,
      "lil": 9163,
      "ĠShi": 9164,
      "ĠLun": 9165,
      "ĠkolestewÃ²l": 9166,
      "Ġtiwa": 9167,
      "ĠDivÃ¨s": 9168,
      "Ġreglabl": 9169,
      "ĠkonpozitÃ¨": 9170,
      "ĠpalmantÃ¨": 9171,
      "ĠAtizay": 9172,
      "ĠPrescription": 9173,
      "bran": 9174,
      "lesan": 9175,
      "Ġantay": 9176,
      "ĠRoyal": 9177,
      "Ġelektwon": 9178,
      "-Lou": 9179,
      "ACH": 9180,
      "ĠSolÃ¨y": 9181,
      "Kreye": 9182,
      "ĠOffline": 9183,
      "Ġensekirite": 9184,
      "Ġemi": 9185,
      "leur": 9186,
      "ĠMsye": 9187,
      "definisyon": 9188,
      "ĠCari": 9189,
      "ĠJozye": 9190,
      "long": 9191,
      "Ġkloti": 9192,
      "Ġwebcam": 9193,
      "Finalman": 9194,
      "ku": 9195,
      "yoloji": 9196,
      "ĠLon": 9197,
      "Ġendis": 9198,
      "Ġposte": 9199,
      "lÃ¨ne": 9200,
      "lace": 9201,
      "ĠVle": 9202,
      "ĠVib": 9203,
      "elis": 9204,
      "ĠSamyÃ¨l": 9205,
      "ĠCustomize": 9206,
      "ĠKÃ²mantÃ¨": 9207,
      "ĠKalifÃ²ni": 9208,
      "-ch": 9209,
      "ĠStÃ©": 9210,
      "tati": 9211,
      "oney": 9212,
      "ĠDeyÃ²": 9213,
      "othe": 9214,
      "Ġanalytics": 9215,
      "Ġdeklanche": 9216,
      "SitwÃ¨b": 9217,
      "ĠrezidansyÃ¨l": 9218,
      "Ġnegosyasyon": 9219,
      "ĠdetantÃ¨": 9220,
      "ĠalfabÃ¨": 9221,
      "Ġchokola": 9222,
      "Ġmalere": 9223,
      "ĠkonvansyonÃ¨l": 9224,
      "ĠOK": 9225,
      "tery": 9226,
      "adel": 9227,
      "ĠPrice": 9228,
      "Ġfabricants": 9229,
      "klizif": 9230,
      "Tran": 9231,
      "zyen": 9232,
      "ĠpwotÃ¨": 9233,
      "ĠCC": 9234,
      "ather": 9235,
      "Ġicon": 9236,
      "ĠJwÃ¨": 9237,
      "ferik": 9238,
      "ĠLavalas": 9239,
      "âĢĻs": 9240,
      "fox": 9241,
      "ĠJamayik": 9242,
      "ĠCounty": 9243,
      ".wikipedia": 9244,
      "dra": 9245,
      "hÃ©": 9246,
      "mman": 9247,
      "ster": 9248,
      "ander": 9249,
      "ĠBC": 9250,
      "ĠGEN": 9251,
      "grad": 9252,
      "Ġboulon": 9253,
      "Ġkonfizyon": 9254,
      "Ġzoranj": 9255,
      "Ġkreyativite": 9256,
      "Ġdetache": 9257,
      "ĠNetflix": 9258,
      "ĠkonpetitÃ¨": 9259,
      "ograf": 9260,
      "Ġfren": 9261,
      "Ġlav": 9262,
      "abis": 9263,
      "tang": 9264,
      "ĠRekon": 9265,
      "ĠUr": 9266,
      "Read": 9267,
      "pliye": 9268,
      "ĠSenp": 9269,
      "ĠExcel": 9270,
      "ĠState": 9271,
      "Ġchiri": 9272,
      "Ġdistenge": 9273,
      "-vi": 9274,
      "dr": 9275,
      "Ġtro": 9276,
      "Ġakne": 9277,
      "Ġrepa": 9278,
      "ĠMwa": 9279,
      "ĠLite": 9280,
      "Ġentim": 9281,
      "ĠBran": 9282,
      "omÃ¨r": 9283,
      "estin": 9284,
      "ĠOri": 9285,
      "initÃ¨": 9286,
      "quare": 9287,
      "ĠentÃ¨medyÃ¨": 9288,
      "Ġrefijye": 9289,
      "Kenbe": 9290,
      "xer": 9291,
      "ĠAy": 9292,
      "prin": 9293,
      "Ġdeform": 9294,
      "rÃ©dÃ©": 9295,
      "Ġidantifikasyon": 9296,
      "Ġrelatif": 9297,
      ".it": 9298,
      "cta": 9299,
      "erÃ¨z": 9300,
      "ĠBour": 9301,
      "Ġsimonte": 9302,
      "Ġenflatab": 9303,
      "Ġpouswiv": 9304,
      "ĠBÃ¨len": 9305,
      "Ġvaryasyon": 9306,
      "wale": 9307,
      "Ġtrou": 9308,
      "wodui": 9309,
      "ĠAh": 9310,
      "ĠLal": 9311,
      "Ġchou": 9312,
      "ĠBr": 9313,
      "ĠLagÃ¨": 9314,
      "sole": 9315,
      "ĠPrim": 9316,
      "Ġvete": 9317,
      "Â»,": 9318,
      "vlope": 9319,
      "Ġkonvenyans": 9320,
      "vision": 9321,
      "Supplier": 9322,
      "My": 9323,
      "onavirus": 9324,
      "Ġpouw": 9325,
      "Ġkago": 9326,
      "ĠAvantaj": 9327,
      "taires": 9328,
      "ĠTR": 9329,
      "ĠOperasyon": 9330,
      "ĠReal": 9331,
      "ĠMart": 9332,
      "ĠimÃ¨": 9333,
      "Ġpwatrin": 9334,
      "Aprann": 9335,
      "ĠHawa": 9336,
      "Pet": 9337,
      "Patri": 9338,
      "cine": 9339,
      "Åŀ": 9340,
      "Ġlenn": 9341,
      "Ġanpile": 9342,
      "ĠevantyÃ¨lman": 9343,
      "woz": 9344,
      "Ġvers": 9345,
      "ilon": 9346,
      "ĠBir": 9347,
      "Ġ-Ċ": 9348,
      "Michel": 9349,
      "-Dade": 9350,
      "Ali": 9351,
      "Ġake": 9352,
      "Ġpwovizwa": 9353,
      "ĠTag": 9354,
      "ĠFam": 9355,
      "fisi": 9356,
      "Ġlespas": 9357,
      "ĠStone": 9358,
      "ĠSolÃ¨": 9359,
      "brÃłn": 9360,
      "malt": 9361,
      "ĠFerrari": 9362,
      "sadwa": 9363,
      "Air": 9364,
      "Ġnuit": 9365,
      "iland": 9366,
      "Ġdiz": 9367,
      "ĠiCloud": 9368,
      "atize": 9369,
      "jousi": 9370,
      "Ġreyalis": 9371,
      "ĠwayÃ²m": 9372,
      "Pwosesis": 9373,
      "Ġklasman": 9374,
      "Ġvantilasyon": 9375,
      "perÃ¨": 9376,
      "Ġneglije": 9377,
      "IKEN": 9378,
[...]
