{
  "version": "1.0",
  "truncation": null,
  "padding": null,
  "added_tokens": [
    {
      "id": 24567,
      "content": "<|bos|>",
      "single_word": false,
      "lstrip": false,
      "rstrip": false,
      "normalized": false,
      "special": true
    },
    {
      "id": 24568,
      "content": "<|user_start|>",
      "single_word": false,
      "lstrip": false,
      "rstrip": false,
      "normalized": false,
      "special": true
    },
    {
      "id": 24569,
      "content": "<|user_end|>",
      "single_word": false,
      "lstrip": false,
      "rstrip": false,
      "normalized": false,
      "special": true
    },
    {
      "id": 24570,
      "content": "<|assistant_start|>",
      "single_word": false,
      "lstrip": false,
      "rstrip": false,
      "normalized": false,
      "special": true
    },
    {
      "id": 24571,
      "content": "<|assistant_end|>",
      "single_word": false,
      "lstrip": false,
      "rstrip": false,
      "normalized": false,
      "special": true
    },
    {
      "id": 24572,
      "content": "<|python_start|>",
      "single_word": false,
      "lstrip": false,
      "rstrip": false,
      "normalized": false,
      "special": true
    },
    {
      "id": 24573,
      "content": "<|python_end|>",
      "single_word": false,
      "lstrip": false,
      "rstrip": false,
      "normalized": false,
      "special": true
    },
    {
      "id": 24574,
      "content": "<|output_start|>",
      "single_word": false,
      "lstrip": false,
      "rstrip": false,
      "normalized": false,
      "special": true
    },
    {
      "id": 24575,
      "content": "<|output_end|>",
      "single_word": false,
      "lstrip": false,
      "rstrip": false,
      "normalized": false,
      "special": true
    }
  ],
  "normalizer": null,
  "pre_tokenizer": {
    "type": "Sequence",
    "pretokenizers": [
      {
        "type": "Split",
        "pattern": {
          "Regex": "[^\\r\\n\\p{L}\\p{N}]?+\\p{L}+|\\p{N}{1,2}| ?[^\\s\\p{L}\\p{N}]++[\\r\\n]*|\\s*[\\r\\n]|\\s+(?!\\S)|\\s+"
        },
        "behavior": "Isolated",
        "invert": false
      },
      {
        "type": "ByteLevel",
        "add_prefix_space": false,
        "trim_offsets": true,
        "use_regex": false
      }
    ]
  },
  "post_processor": null,
  "decoder": {
    "type": "ByteLevel",
    "add_prefix_space": true,
    "trim_offsets": true,
    "use_regex": true
  },
  "model": {
    "type": "BPE",
    "dropout": null,
    "unk_token": null,
    "continuing_subword_prefix": null,
    "end_of_word_suffix": null,
    "fuse_unk": false,
    "byte_fallback": false,
    "ignore_merges": false,
    "vocab": {
      "Ā": 0,
      "ā": 1,
      "Ă": 2,
      "ă": 3,
      "Ą": 4,
      "ą": 5,
      "Ć": 6,
      "ć": 7,
      "Ĉ": 8,
      "ĉ": 9,
      "Ċ": 10,
      "ċ": 11,
      "Č": 12,
      "č": 13,
      "Ď": 14,
      "ď": 15,
      "Đ": 16,
      "đ": 17,
      "Ē": 18,
      "ē": 19,
      "Ĕ": 20,
      "ĕ": 21,
      "Ė": 22,
      "ė": 23,
      "Ę": 24,
      "ę": 25,
      "Ě": 26,
      "ě": 27,
      "Ĝ": 28,
      "ĝ": 29,
      "Ğ": 30,
      "ğ": 31,
      "Ġ": 32,
      "!": 33,
      "\"": 34,
      "#": 35,
      "$": 36,
      "%": 37,
      "&": 38,
      "'": 39,
      "(": 40,
      ")": 41,
      "*": 42,
      "+": 43,
      ",": 44,
      "-": 45,
      ".": 46,
      "/": 47,
      "0": 48,
      "1": 49,
      "2": 50,
      "3": 51,
      "4": 52,
      "5": 53,
      "6": 54,
      "7": 55,
      "8": 56,
      "9": 57,
      ":": 58,
      ";": 59,
      "<": 60,
      "=": 61,
      ">": 62,
      "?": 63,
      "@": 64,
      "A": 65,
      "B": 66,
      "C": 67,
      "D": 68,
      "E": 69,
      "F": 70,
      "G": 71,
      "H": 72,
      "I": 73,
      "J": 74,
      "K": 75,
      "L": 76,
      "M": 77,
      "N": 78,
      "O": 79,
      "P": 80,
      "Q": 81,
      "R": 82,
      "S": 83,
      "T": 84,
      "U": 85,
      "V": 86,
      "W": 87,
      "X": 88,
      "Y": 89,
      "Z": 90,
      "[": 91,
      "\\": 92,
      "]": 93,
      "^": 94,
      "_": 95,
      "`": 96,
      "a": 97,
      "b": 98,
      "c": 99,
      "d": 100,
      "e": 101,
      "f": 102,
      "g": 103,
      "h": 104,
      "i": 105,
      "j": 106,
      "k": 107,
      "l": 108,
      "m": 109,
      "n": 110,
      "o": 111,
      "p": 112,
      "q": 113,
      "r": 114,
      "s": 115,
      "t": 116,
      "u": 117,
      "v": 118,
      "w": 119,
      "x": 120,
      "y": 121,
      "z": 122,
      "{": 123,
      "|": 124,
      "}": 125,
      "~": 126,
      "ġ": 127,
      "Ģ": 128,
      "ģ": 129,
      "Ĥ": 130,
      "ĥ": 131,
      "Ħ": 132,
      "ħ": 133,
      "Ĩ": 134,
      "ĩ": 135,
      "Ī": 136,
      "ī": 137,
      "Ĭ": 138,
      "ĭ": 139,
      "Į": 140,
      "į": 141,
      "İ": 142,
      "ı": 143,
      "Ĳ": 144,
      "ĳ": 145,
      "Ĵ": 146,
      "ĵ": 147,
      "Ķ": 148,
      "ķ": 149,
      "ĸ": 150,
      "Ĺ": 151,
      "ĺ": 152,
      "Ļ": 153,
      "ļ": 154,
      "Ľ": 155,
      "ľ": 156,
      "Ŀ": 157,
      "ŀ": 158,
      "Ł": 159,
      "ł": 160,
      "¡": 161,
      "¢": 162,
      "£": 163,
      "¤": 164,
      "¥": 165,
      "¦": 166,
      "§": 167,
      "¨": 168,
      "©": 169,
      "ª": 170,
      "«": 171,
      "¬": 172,
      "Ń": 173,
      "®": 174,
      "¯": 175,
      "°": 176,
      "±": 177,
      "²": 178,
      "³": 179,
      "´": 180,
      "µ": 181,
      "¶": 182,
      "·": 183,
      "¸": 184,
      "¹": 185,
      "º": 186,
      "»": 187,
      "¼": 188,
      "½": 189,
      "¾": 190,
      "¿": 191,
      "À": 192,
      "Á": 193,
      "Â": 194,
      "Ã": 195,
      "Ä": 196,
      "Å": 197,
      "Æ": 198,
      "Ç": 199,
      "È": 200,
      "É": 201,
      "Ê": 202,
      "Ë": 203,
      "Ì": 204,
      "Í": 205,
      "Î": 206,
      "Ï": 207,
      "Ð": 208,
      "Ñ": 209,
      "Ò": 210,
      "Ó": 211,
      "Ô": 212,
      "Õ": 213,
      "Ö": 214,
      "×": 215,
      "Ø": 216,
      "Ù": 217,
      "Ú": 218,
      "Û": 219,
      "Ü": 220,
      "Ý": 221,
      "Þ": 222,
      "ß": 223,
      "à": 224,
      "á": 225,
      "â": 226,
      "ã": 227,
      "ä": 228,
      "å": 229,
      "æ": 230,
      "ç": 231,
      "è": 232,
      "é": 233,
      "ê": 234,
      "ë": 235,
      "ì": 236,
      "í": 237,
      "î": 238,
      "ï": 239,
      "ð": 240,
      "ñ": 241,
      "ò": 242,
      "ó": 243,
      "ô": 244,
      "õ": 245,
      "ö": 246,
      "÷": 247,
      "ø": 248,
      "ù": 249,
      "ú": 250,
      "û": 251,
      "ü": 252,
      "ý": 253,
      "þ": 254,
      "ÿ": 255,
      "Ġt": 256,
      "Ġa": 257,
      "in": 258,
      "he": 259,
      "re": 260,
      "on": 261,
      "Ġthe": 262,
      "er": 263,
      "Ġs": 264,
      "Ġw": 265,
      "at": 266,
      "Ġo": 267,
      "nd": 268,
      "Ġc": 269,
      "it": 270,
      "or": 271,
      "es": 272,
      "is": 273,
      "en": 274,
      "ou": 275,
      "Ġf": 276,
      "Ġb": 277,
      "ing": 278,
      "Ġp": 279,
      "ed": 280,
      "an": 281,
      "al": 282,
      "Ġto": 283,
      "Ġm": 284,
      "ar": 285,
      "Ġand": 286,
      "Ġof": 287,
      "Ġin": 288,
      "Ġd": 289,
      "ic": 290,
      "Ġh": 291,
      "le": 292,
      "as": 293,
      "om": 294,
      "ion": 295,
      "Ġth": 296,
      "ll": 297,
      "âĢ": 298,
      "ent": 299,
      ".Ċ": 300,
      "Ġl": 301,
      "ve": 302,
      "st": 303,
      "Ġe": 304,
      "Ġre": 305,
      "Ġn": 306,
      "ro": 307,
      "Ġy": 308,
      "Ġg": 309,
      "ly": 310,
      "ĠI": 311,
      "ct": 312,
      "Ġbe": 313,
      "ĠT": 314,
      "ut": 315,
      "et": 316,
      "ot": 317,
      "ĠS": 318,
      "Ġis": 319,
      "id": 320,
      "Ġyou": 321,
      "ay": 322,
      "Ġon": 323,
      "Ġfor": 324,
      "ow": 325,
      "ĠA": 326,
      "ĠC": 327,
      "ur": 328,
      "se": 329,
      "im": 330,
      "ad": 331,
      "ig": 332,
      "ce": 333,
      "am": 334,
      "ver": 335,
      "Ġthat": 336,
      "Ġu": 337,
      "ch": 338,
      "il": 339,
      "ith": 340,
      "ation": 341,
      "Ġst": 342,
      "ol": 343,
      "ir": 344,
      "âĢĻ": 345,
      "Ġwith": 346,
      "ĠM": 347,
      "Ġhe": 348,
      "Ġit": 349,
      "ra": 350,
      "Ġwe": 351,
      "ĠB": 352,
      "Ġwh": 353,
      "ĠP": 354,
      "Ġas": 355,
      "Ġan": 356,
      "ill": 357,
      "ers": 358,
      "if": 359,
      "ke": 360,
      "Ġpro": 361,
      "ter": 362,
      "Ġare": 363,
      "Ġha": 364,
      "ge": 365,
      "ĠW": 366,
      "Ġcon": 367,
      "ld": 368,
      "oo": 369,
      "her": 370,
      "ul": 371,
      "ĠH": 372,
      "ate": 373,
      "Ġor": 374,
      "ck": 375,
      "ess": 376,
      "ĠD": 377,
      "pp": 378,
      "Ġat": 379,
      "Ġse": 380,
      "Ġcom": 381,
      "ri": 382,
      "ore": 383,
      "ment": 384,
      "est": 385,
      "ĠThe": 386,
      "Ġde": 387,
      "ĠR": 388,
      "us": 389,
      "ĠF": 390,
      "igh": 391,
      "th": 392,
      "ab": 393,
      "Ġwas": 394,
      "Ġ(": 395,
      "ist": 396,
      "rom": 397,
      "Ġne": 398,
      "pe": 399,
      "un": 400,
      "Ġex": 401,
      "res": 402,
      "ĠL": 403,
      "ant": 404,
      "qu": 405,
      "Ġsu": 406,
      "ity": 407,
      "ive": 408,
      "Ġv": 409,
      "Ġr": 410,
      "ĠâĢ": 411,
      "op": 412,
      "em": 413,
      "Ġhave": 414,
      "ĠG": 415,
      "ort": 416,
      "ĠN": 417,
      "ain": 418,
      "âĢĻs": 419,
      "art": 420,
      "ĠE": 421,
      "Ġthis": 422,
      "Ġnot": 423,
      "ust": 424,
      "nt": 425,
      "Ġfrom": 426,
      "Ġsh": 427,
      "Ġyour": 428,
      "um": 429,
      "el": 430,
      "os": 431,
      "ies": 432,
      "Ġby": 433,
      "and": 434,
      "ight": 435,
      "Ġal": 436,
      "Ġch": 437,
      "Ġcan": 438,
      "all": 439,
      "ome": 440,
      "ie": 441,
      "Ġle": 442,
      "ĠO": 443,
      "ard": 444,
      "20": 445,
      "out": 446,
      "ould": 447,
      "Ġwill": 448,
      "red": 449,
      "our": 450,
      "Ġdo": 451,
      "Ġab": 452,
      "ud": 453,
      "gh": 454,
      "iv": 455,
      "ost": 456,
      "ally": 457,
      "Ġwor": 458,
      "te": 459,
      "'s": 460,
      "Ġpl": 461,
      "od": 462,
      "rou": 463,
      "ast": 464,
      "ĠJ": 465,
      "Ġall": 466,
      "ear": 467,
      "ci": 468,
      "Ġj": 469,
      "ak": 470,
      "ide": 471,
      "The": 472,
      "ine": 473,
      "Ġk": 474,
      "ag": 475,
      "ure": 476,
      "fe": 477,
      "Ġhas": 478,
      "per": 479,
      "Ġme": 480,
      "Ġso": 481,
      "pt": 482,
      "Ġwhe": 483,
      "Ġbut": 484,
      "ack": 485,
      "âĢĿ": 486,
      "ice": 487,
      "Ġus": 488,
      "ction": 489,
      "age": 490,
      "ich": 491,
      "ther": 492,
      "ac": 493,
      "Ġout": 494,
      "Ġad": 495,
      "pl": 496,
      "ĠU": 497,
      "ake": 498,
      "Ġup": 499,
      "ook": 500,
      "Ġthey": 501,
      "ind": 502,
      "one": 503,
      "ry": 504,
      "so": 505,
      "ong": 506,
      "are": 507,
      "Ġmore": 508,
      "og": 509,
      "Ġtheir": 510,
      "Ġcomp": 511,
      "very": 512,
      "Ġhis": 513,
      "Ġen": 514,
      "able": 515,
      "ated": 516,
      "ime": 517,
      "Ġmy": 518,
      "ood": 519,
      "Ġte": 520,
      "ous": 521,
      "Ġcl": 522,
      "cc": 523,
      "Ġone": 524,
      "ame": 525,
      "ans": 526,
      "iz": 527,
      "ite": 528,
      "Ġsa": 529,
      "ike": 530,
      "ip": 531,
      "Ġwho": 532,
      "Ġabout": 533,
      "orm": 534,
      "ĠTh": 535,
      "Ġim": 536,
      "ĠâĢľ": 537,
      "ĠIn": 538,
      "ber": 539,
      "Ġcont": 540,
      "Ġour": 541,
      "ru": 542,
      "Ġgo": 543,
      "ions": 544,
      "Ġman": 545,
      "ance": 546,
      "ne": 547,
      "du": 548,
      "Ġwhich": 549,
      "cl": 550,
      "Ġfe": 551,
      "ĠK": 552,
      "ia": 553,
      "to": 554,
      "act": 555,
      "ib": 556,
      "ase": 557,
      "ire": 558,
      "ff": 559,
      "Ġres": 560,
      "ree": 561,
      "Ġwork": 562,
      "ays": 563,
      "ail": 564,
      "reat": 565,
      "ĠY": 566,
      "oc": 567,
      "Ġper": 568,
      "ign": 569,
      "ach": 570,
      "ary": 571,
      "Ġapp": 572,
      "ace": 573,
      "ap": 574,
      "Ġother": 575,
      "ations": 576,
      "ick": 577,
      "ult": 578,
      "ven": 579,
      "ep": 580,
      "au": 581,
      "ĠSt": 582,
      "ass": 583,
      "Ġyear": 584,
      "ub": 585,
      "Ġoff": 586,
      "Ġsome": 587,
      "Ġtime": 588,
      "Ġqu": 589,
      "ical": 590,
      "ue": 591,
      "Ġlike": 592,
      "ile": 593,
      "Ġ\"": 594,
      "Ġany": 595,
      "Ġalso": 596,
      "ount": 597,
      "Ġhad": 598,
      "now": 599,
      "Ġdis": 600,
      "ence": 601,
      "ark": 602,
      "Ġget": 603,
      "ress": 604,
      "Ġun": 605,
      "ove": 606,
      "ĠIt": 607,
      "form": 608,
      "..": 609,
      "ord": 610,
      "Ġbeen": 611,
      "Ġthem": 612,
      "ĠV": 613,
      "ings": 614,
      "Ġsp": 615,
      "Ġnew": 616,
      "erv": 617,
      "Ġwere": 618,
      "Ġpart": 619,
      "Ġher": 620,
      "ĠCh": 621,
      "Ġag": 622,
      "Ġthere": 623,
      "ond": 624,
      "ose": 625,
      "vel": 626,
      "Ġ-": 627,
      "Ġover": 628,
      "Ġwould": 629,
      "Ġpe": 630,
      "Ġwhen": 631,
      "ough": 632,
      "ition": 633,
      "av": 634,
      "Ġwhat": 635,
      "19": 636,
      "âĢĻt": 637,
      "10": 638,
      "Ġif": 639,
      "Ġar": 640,
      "ial": 641,
      "ink": 642,
      "ors": 643,
      "ens": 644,
      "ents": 645,
      "Ġthan": 646,
      "Ġtr": 647,
      "Ġjust": 648,
      "ound": 649,
      "mer": 650,
      "Ġro": 651,
      "ob": 652,
      "irst": 653,
      "Ġbec": 654,
      "Ġspe": 655,
      "port": 656,
      "int": 657,
      "Ġpre": 658,
      "Ġrec": 659,
      "Ġknow": 660,
      "ish": 661,
      "ild": 662,
      "Ġinto": 663,
      "wn": 664,
      "ople": 665,
      "ĠWe": 666,
      "Ġsaid": 667,
      "ren": 668,
      "ĠHe": 669,
      "ory": 670,
      "own": 671,
      "fter": 672,
      "nder": 673,
      "ov": 674,
      "Ġneed": 675,
      "Ġam": 676,
      "rough": 677,
      "oy": 678,
      "Ġsc": 679,
      "Ġhow": 680,
      "ater": 681,
      "ade": 682,
      "itt": 683,
      "Ġco": 684,
      "Ġits": 685,
      "Ġacc": 686,
      "Ġtw": 687,
      "ang": 688,
      "old": 689,
      "vers": 690,
      "Ġpeople": 691,
      "lic": 692,
      "ning": 693,
      "Ġbl": 694,
      "Ġshe": 695,
      "Ġdes": 696,
      "Ġfirst": 697,
      "Ġmay": 698,
      "ons": 699,
      "we": 700,
      "ĠâĢĵ": 701,
      "Ġno": 702,
      "clud": 703,
      "ces": 704,
      "ause": 705,
      "hed": 706,
      "ian": 707,
      "ual": 708,
      "cial": 709,
      "'t": 710,
      "Ġcomm": 711,
      "amp": 712,
      "ates": 713,
      "Ġonly": 714,
      "ft": 715,
      "ull": 716,
      "lp": 717,
      "Ġtra": 718,
      "Ġmake": 719,
      "Ġbet": 720,
      "ric": 721,
      "Ġback": 722,
      "Ġadd": 723,
      "day": 724,
      "ments": 725,
      "Ġmost": 726,
      "rent": 727,
      "Ġpo": 728,
      "Ġlook": 729,
      "ĠRe": 730,
      "end": 731,
      "Ġhelp": 732,
      "ily": 733,
      "tern": 734,
      "Ġem": 735,
      "Ġfl": 736,
      "ĠThis": 737,
      "round": 738,
      "Ġwant": 739,
      "Ġevery": 740,
      "Ġind": 741,
      "Ġprov": 742,
      "Ġthrough": 743,
      "hing": 744,
      "ious": 745,
      "iew": 746,
      "ating": 747,
      "Ġsee": 748,
      "Ġinclud": 749,
      "Ġcons": 750,
      "cts": 751,
      "les": 752,
      "Ġtwo": 753,
      "ise": 754,
      "gr": 755,
      "Ġuse": 756,
      "Ġprodu": 757,
      "Ġwell": 758,
      "00": 759,
      "Ġthese": 760,
      "ks": 761,
      "Ġunder": 762,
      "iss": 763,
      "Ġafter": 764,
      "Ġbu": 765,
      "Ġcould": 766,
      "ew": 767,
      "xt": 768,
      "sel": 769,
      "ities": 770,
      "Ġact": 771,
      "je": 772,
      "ph": 773,
      "oll": 774,
      "ced": 775,
      "ife": 776,
      "fore": 777,
      "Ġph": 778,
      "aw": 779,
      "Th": 780,
      "urn": 781,
      "Ġserv": 782,
      "ific": 783,
      "Ġdif": 784,
      "Ġplay": 785,
      "pport": 786,
      "hen": 787,
      "Ġhim": 788,
      "Ġyears": 789,
      "Ġvery": 790,
      "Ġrel": 791,
      "row": 792,
      "uch": 793,
      "?Ċ": 794,
      "ting": 795,
      "Ġinc": 796,
      "Ġeven": 797,
      "Ġway": 798,
      "rit": 799,
      "Ġgood": 800,
      "ert": 801,
      "Ġsy": 802,
      "ange": 803,
      "ont": 804,
      "Ġreg": 805,
      "Ġnow": 806,
      "erson": 807,
      "!Ċ": 808,
      "als": 809,
      "ock": 810,
      "Ġra": 811,
      "12": 812,
      "Ġpr": 813,
      "Ġmany": 814,
      "Ġinv": 815,
      "Ġimp": 816,
      "Ġke": 817,
      "aking": 818,
      "lect": 819,
      "Ġrem": 820,
      "Ġwhere": 821,
      "Ġev": 822,
      "ational": 823,
      "Ġthen": 824,
      "oss": 825,
      "ful": 826,
      "com": 827,
      "iness": 828,
      "Ġstud": 829,
      "Ġdid": 830,
      "cess": 831,
      "oth": 832,
      "Ġcol": 833,
      "Ġsm": 834,
      "ffe": 835,
      "Ġshould": 836,
      "ool": 837,
      "ased": 838,
      "ĠYou": 839,
      "Ġright": 840,
      ":Ċ": 841,
      "Ġbecause": 842,
      "ility": 843,
      "ident": 844,
      "||": 845,
      "olog": 846,
      "ible": 847,
      "any": 848,
      "ath": 849,
      ".âĢĿ": 850,
      "ĠUn": 851,
      "Ġsec": 852,
      "ward": 853,
      "ts": 854,
      "ble": 855,
      "ures": 856,
      "Ġstart": 857,
      "ĠWh": 858,
      "bs": 859,
      "Ġown": 860,
      "Ġdon": 861,
      "get": 862,
      "ied": 863,
      "),": 864,
      "ĠSe": 865,
      "ower": 866,
      "ty": 867,
      "ular": 868,
      "Ġgu": 869,
      "ĠAs": 870,
      "erm": 871,
      "Ġdown": 872,
      "Ġac": 873,
      "Ġexper": 874,
      "hip": 875,
      "Ġtoo": 876,
      "Ġfin": 877,
      "Ġgreat": 878,
      "uring": 879,
      "Ġmuch": 880,
      "Ġbus": 881,
      "Ġsuch": 882,
      "Ġthink": 883,
      "Ġatt": 884,
      "ices": 885,
      "ys": 886,
      "hes": 887,
      "ĠAnd": 888,
      "Ġent": 889,
      "formation": 890,
      "ative": 891,
      "other": 892,
      "Ġagain": 893,
      "Ġ$": 894,
      "its": 895,
      "11": 896,
      "ork": 897,
      "ĠCom": 898,
      "pect": 899,
      "stem": 900,
      "ited": 901,
      ")Ċ": 902,
      "Ġday": 903,
      "alth": 904,
      "up": 905,
      "arch": 906,
      "In": 907,
      "Ġtake": 908,
      "gan": 909,
      "ell": 910,
      "Ġhigh": 911,
      "Ġlong": 912,
      "Ġinst": 913,
      "Ġset": 914,
      "ict": 915,
      "omet": 916,
      "ics": 917,
      "velop": 918,
      "Ġhere": 919,
      "rib": 920,
      "air": 921,
      "Ġdec": 922,
      "Ġfind": 923,
      "Ġbefore": 924,
      "ener": 925,
      "Ġinte": 926,
      "Ġthose": 927,
      "Ġdoes": 928,
      "und": 929,
      "Ġend": 930,
      "Ġbel": 931,
      "Ġshow": 932,
      "Ġpres": 933,
      "Ġmon": 934,
      "Ġwee": 935,
      "Ġmade": 936,
      "ason": 937,
      "Ġcall": 938,
      "Ġread": 939,
      "Ġ&": 940,
      "Ġbeing": 941,
      "Ġins": 942,
      "Ġdiffe": 943,
      "ĠPro": 944,
      "ner": 945,
      "ract": 946,
      "ĠDe": 947,
      "Ġbest": 948,
      "ĠAn": 949,
      "alk": 950,
      "15": 951,
      "ix": 952,
      "Ġperson": 953,
      "ues": 954,
      "ollow": 955,
      "Ġworld": 956,
      "âĢľ": 957,
      "cy": 958,
      "rest": 959,
      "ually": 960,
      "Ġlast": 961,
      "Ġrequ": 962,
      "way": 963,
      "Ġcar": 964,
      "Ġass": 965,
      "Ġmin": 966,
      "ax": 967,
      "Ġloc": 968,
      "Ġsur": 969,
      "Ġfam": 970,
      "Ġsim": 971,
      "Ġbr": 972,
      "ĠIf": 973,
      "Ġhome": 974,
      "chool": 975,
      "io": 976,
      ").": 977,
      "ĠNew": 978,
      "ank": 979,
      "ject": 980,
      "Ġhand": 981,
      "18": 982,
      "Ġinformation": 983,
      "gram": 984,
      "Ġlife": 985,
      "ng": 986,
      "li": 987,
      "self": 988,
      "Ġbusiness": 989,
      "Ġche": 990,
      "Ġav": 991,
      "Ġpol": 992,
      "ving": 993,
      "line": 994,
      "Ġear": 995,
      "led": 996,
      "ave": 997,
      "ins": 998,
      "ublic": 999,
      "ĠBut": 1000,
      "pen": 1001,
      "We": 1002,
      "ince": 1003,
      "Ġused": 1004,
      ".\"": 1005,
      "Ġlead": 1006,
      "Ġtrans": 1007,
      "Ġwhile": 1008,
      "atch": 1009,
      "30": 1010,
      "Ġmed": 1011,
      "Ġmem": 1012,
      "Ġmark": 1013,
      "Ġdevelop": 1014,
      "ouse": 1015,
      "ros": 1016,
      "Ġsystem": 1017,
      "az": 1018,
      "Ġcount": 1019,
      "Ġinter": 1020,
      "chn": 1021,
      "ather": 1022,
      "Ġeach": 1023,
      "Ġreally": 1024,
      "ness": 1025,
      "Ġcre": 1026,
      "view": 1027,
      "Ġthough": 1028,
      "Ġgoing": 1029,
      "ives": 1030,
      "ple": 1031,
      "arm": 1032,
      "pr": 1033,
      "Ġmod": 1034,
      "Ġsub": 1035,
      "akes": 1036,
      "ĠAl": 1037,
      "Ġret": 1038,
      "Ġart": 1039,
      "land": 1040,
      "imes": 1041,
      "Ġnum": 1042,
      "Ġaround": 1043,
      "Ġdet": 1044,
      "Ġform": 1045,
      "13": 1046,
      "Ġsomet": 1047,
      "cept": 1048,
      "meric": 1049,
      "Ġfollow": 1050,
      ",âĢĿ": 1051,
      "ween": 1052,
      "ines": 1053,
      "ience": 1054,
      "ĠSh": 1055,
      "gg": 1056,
      "ene": 1057,
      "Ġsupport": 1058,
      "read": 1059,
      "Ġdisc": 1060,
      "ale": 1061,
      "oun": 1062,
      "Ġstill": 1063,
      "Ġser": 1064,
      "ctions": 1065,
      "Ġvis": 1066,
      "Ġdesign": 1067,
      "Ġsay": 1068,
      "ional": 1069,
      "ever": 1070,
      "Ġcour": 1071,
      "Ġbook": 1072,
      "Ġcur": 1073,
      "roup": 1074,
      "riend": 1075,
      "ize": 1076,
      "ash": 1077,
      "Ġsk": 1078,
      "ets": 1079,
      "ality": 1080,
      "irect": 1081,
      "Ġcomple": 1082,
      "Ġteam": 1083,
      "ah": 1084,
      "Ġsl": 1085,
      "Ġrun": 1086,
      "lease": 1087,
      "ved": 1088,
      "Ġcare": 1089,
      "Ġed": 1090,
      "Ġdifferent": 1091,
      "the": 1092,
      "ata": 1093,
      "Ġpoint": 1094,
      "Ġsame": 1095,
      "Ġadv": 1096,
      "Ġaut": 1097,
      "Ġgr": 1098,
      "ages": 1099,
      "ĠAr": 1100,
      "Ġbetween": 1101,
      "ĠSo": 1102,
      "Ġstr": 1103,
      "der": 1104,
      "Ġchar": 1105,
      "This": 1106,
      "ĠFor": 1107,
      "Ġsign": 1108,
      "ittle": 1109,
      "ivers": 1110,
      "Ġprovid": 1111,
      "16": 1112,
      "Ġfeel": 1113,
      "Ġboth": 1114,
      "ĠThey": 1115,
      "man": 1116,
      "Ġthree": 1117,
      "Ġchild": 1118,
      "14": 1119,
      "Wh": 1120,
      "Ġcommun": 1121,
      "Ġfound": 1122,
      "ĠCl": 1123,
      "ute": 1124,
      "ars": 1125,
      "It": 1126,
      "Ġplace": 1127,
      "ĠBe": 1128,
      "Ġcle": 1129,
      "ustom": 1130,
      "ex": 1131,
      ".âĢĿĊ": 1132,
      "|Ċ": 1133,
      "Ġstate": 1134,
      "Ġprogram": 1135,
      "Ġgl": 1136,
      "ĠAmeric": 1137,
      "Ġfew": 1138,
      "Ġeas": 1139,
      "Ġbo": 1140,
      "ution": 1141,
      "less": 1142,
      "ways": 1143,
      "ĠLe": 1144,
      "Ġlot": 1145,
      "Ġrep": 1146,
      "Ġpost": 1147,
      "Ġhapp": 1148,
      "Ġpur": 1149,
      "Ġexp": 1150,
      "ized": 1151,
      "ton": 1152,
      "Ġlist": 1153,
      "be": 1154,
      "ody": 1155,
      "ten": 1156,
      "Ġfree": 1157,
      "ired": 1158,
      "Ġmet": 1159,
      "ĠAd": 1160,
      "ient": 1161,
      "Ġthings": 1162,
      "orn": 1163,
      "ety": 1164,
      "ves": 1165,
      "Ġfun": 1166,
      "Ġlove": 1167,
      "âĢĻre": 1168,
      "thing": 1169,
      "ffect": 1170,
      "ames": 1171,
      "Ġhealth": 1172,
      "Ġext": 1173,
      "Ġmonth": 1174,
      "oh": 1175,
      "Ġfull": 1176,
      "Ġlittle": 1177,
      "Ġprof": 1178,
      "vern": 1179,
      "uc": 1180,
      "Ġimport": 1181,
      "Ġlar": 1182,
      "Ġtop": 1183,
      "Ġgener": 1184,
      "Ġreal": 1185,
      "17": 1186,
      "Ġreport": 1187,
      "ature": 1188,
      "Ġprocess": 1189,
      "Ġtechn": 1190,
      "ross": 1191,
      "Ġfact": 1192,
      "ists": 1193,
      "Ġkeep": 1194,
      "Ġplan": 1195,
      "bers": 1196,
      "ital": 1197,
      "50": 1198,
      "ug": 1199,
      "ished": 1200,
      "ailable": 1201,
      "ering": 1202,
      "Ġfil": 1203,
      "arn": 1204,
      "Ġcome": 1205,
      "Ġref": 1206,
      "cent": 1207,
      "Ġduring": 1208,
      "cer": 1209,
      ",\"": 1210,
      "ants": 1211,
      "ology": 1212,
      "tt": 1213,
      "ield": 1214,
      "Ġopen": 1215,
      "con": 1216,
      "Ġdef": 1217,
      "att": 1218,
      "Ġsomething": 1219,
      "Ġfr": 1220,
      "Ġob": 1221,
      "ically": 1222,
      "rand": 1223,
      "ms": 1224,
      "Ġinterest": 1225,
      "Ġappro": 1226,
      "Ġint": 1227,
      "Ġrest": 1228,
      "Ġcent": 1229,
      "Ġposs": 1230,
      "Ġusing": 1231,
      "Ġgot": 1232,
      "Ġcontin": 1233,
      "iving": 1234,
      "Ġpartic": 1235,
      "ĠBl": 1236,
      "Ġiss": 1237,
      "ention": 1238,
      "Ġresp": 1239,
      "ared": 1240,
      "oad": 1241,
      "Ġmight": 1242,
      ".com": 1243,
      "...": 1244,
      "oot": 1245,
      "Ġbig": 1246,
      "Ġbetter": 1247,
      "Ġcor": 1248,
      "Ġnext": 1249,
      "atur": 1250,
      "-s": 1251,
      "Ġput": 1252,
      "Ġcustom": 1253,
      "Ġresult": 1254,
      "ĠThere": 1255,
      "Ġcompany": 1256,
      "ined": 1257,
      "Ġgame": 1258,
      "Ġallow": 1259,
      "Ġconf": 1260,
      "gy": 1261,
      "Ġmust": 1262,
      "Ġtry": 1263,
      "ining": 1264,
      "Ġwithout": 1265,
      "Ġanother": 1266,
      "Ġpri": 1267,
      "Ġfriend": 1268,
      "ger": 1269,
      "Ġty": 1270,
      "Ġpass": 1271,
      "Ġschool": 1272,
      "ĠShe": 1273,
      "Ġsmall": 1274,
      "Ġsol": 1275,
      "Ġvar": 1276,
      "Ġpat": 1277,
      "Ġincluding": 1278,
      "Ġgroup": 1279,
      "Ġdist": 1280,
      "ĠâĢĺ": 1281,
      "Ġhead": 1282,
      "Ġalways": 1283,
      "Ġsecond": 1284,
      "Ġstand": 1285,
      "Ġtri": 1286,
      "Ġavailable": 1287,
      "Ġfamily": 1288,
      "Ġquest": 1289,
      "Ġdata": 1290,
      "Ġdri": 1291,
      "-b": 1292,
      "Ġide": 1293,
      "Ġsince": 1294,
      "ik": 1295,
      "Ġnever": 1296,
      "Ġweek": 1297,
      "Ġmus": 1298,
      "Ġorgan": 1299,
      "iqu": 1300,
      "âĢ¦": 1301,
      "ploy": 1302,
      "uss": 1303,
      "reen": 1304,
      "Ġmain": 1305,
      "ĠHow": 1306,
      ".\"Ċ": 1307,
      "Ġval": 1308,
      "stand": 1309,
      "Ġmov": 1310,
      "Ġwater": 1311,
      "Ġhard": 1312,
      "ism": 1313,
      "ertain": 1314,
      "ier": 1315,
      "ĠEx": 1316,
      "Ġbuild": 1317,
      "rol": 1318,
      "Ġwr": 1319,
      "ately": 1320,
      "Ġproble": 1321,
      "Ġmarket": 1322,
      "ample": 1323,
      "ĠIs": 1324,
      "Ġincre": 1325,
      "illion": 1326,
      "Ġnumber": 1327,
      "ware": 1328,
      "Ġcr": 1329,
      "Ġopt": 1330,
      "Ġask": 1331,
      "ĠAll": 1332,
      "ling": 1333,
      "Ġrece": 1334,
      "Ġperform": 1335,
      "ĠFr": 1336,
      "ĠâĢĶ": 1337,
      "Ġold": 1338,
      "Ġclass": 1339,
      "ĠOn": 1340,
      "aj": 1341,
      "Ġpublic": 1342,
      "ps": 1343,
      "âĢĶ": 1344,
      "Ġlaw": 1345,
      "ision": 1346,
      "Ġpay": 1347,
      "Ġpower": 1348,
      "Ġdays": 1349,
      "Ġexpl": 1350,
      "ral": 1351,
      "Ġsure": 1352,
      "ĠQ": 1353,
      "ted": 1354,
      "rence": 1355,
      "co": 1356,
      "ĠPl": 1357,
      "Ġdirect": 1358,
      "els": 1359,
      "-f": 1360,
      "ĠInd": 1361,
      "me": 1362,
      "Ġwom": 1363,
      "Ġspec": 1364,
      "Ġel": 1365,
      "Ġimportant": 1366,
      "ense": 1367,
      "Ġexperience": 1368,
      "Ġlevel": 1369,
      "Ġbro": 1370,
      "Ġagainst": 1371,
      "iversity": 1372,
      "ER": 1373,
      "Ġinf": 1374,
      "If": 1375,
      "oney": 1376,
      "rist": 1377,
      "Ġcost": 1378,
      "ccess": 1379,
      "uck": 1380,
      "Ġservice": 1381,
      "Ġseem": 1382,
      "work": 1383,
      "ior": 1384,
      "ird": 1385,
      "Ġtest": 1386,
      "Ġgive": 1387,
      "Ġsays": 1388,
      "Ġwin": 1389,
      "25": 1390,
      "ote": 1391,
      "ok": 1392,
      "Ġca": 1393,
      "Ġlet": 1394,
      "Ġable": 1395,
      "Ġve": 1396,
      "Ġbelie": 1397,
      "Ġhum": 1398,
      "inal": 1399,
      "Ġless": 1400,
      "pend": 1401,
      "Ġpos": 1402,
      "Ġlight": 1403,
      "Ġfour": 1404,
      "Ġbre": 1405,
      "ards": 1406,
      "Ġinvest": 1407,
      "Ġunt": 1408,
      "Ġi": 1409,
      "ases": 1410,
      "Ġ'": 1411,
      "raph": 1412,
      "âĢĻve": 1413,
      "ably": 1414,
      "Ġrese": 1415,
      "Ġgrow": 1416,
      "Ġleg": 1417,
      "ours": 1418,
      "ered": 1419,
      "gin": 1420,
      "here": 1421,
      "Ġcurrent": 1422,
      "ĠTe": 1423,
      "ats": 1424,
      "ĠCon": 1425,
      ").Ċ": 1426,
      "ration": 1427,
      "Ġonline": 1428,
      "Ġwithin": 1429,
      "outh": 1430,
      "pos": 1431,
      "Ġmeet": 1432,
      "Ġsit": 1433,
      "Ġdi": 1434,
      "He": 1435,
      "Ġprovide": 1436,
      "ator": 1437,
      "pped": 1438,
      "ĠZ": 1439,
      "ĠPh": 1440,
      "Ġgovern": 1441,
      "Ġturn": 1442,
      "ope": 1443,
      ".,": 1444,
      "ivid": 1445,
      "Ġpop": 1446,
      "ĠCol": 1447,
      "ww": 1448,
      "ret": 1449,
      "cing": 1450,
      "ffic": 1451,
      "ann": 1452,
      "ĠThat": 1453,
      "Ġaway": 1454,
      "Ġorder": 1455,
      "ission": 1456,
      "ently": 1457,
      "ency": 1458,
      "ĠUS": 1459,
      "ains": 1460,
      "pping": 1461,
      "Ġann": 1462,
      "aut": 1463,
      "Ġproper": 1464,
      "med": 1465,
      "Ġtoday": 1466,
      "ron": 1467,
      "ider": 1468,
      "Ġest": 1469,
      "hor": 1470,
      "Ġoper": 1471,
      "ec": 1472,
      "Ġjob": 1473,
      "ember": 1474,
      "ury": 1475,
      "Ġhist": 1476,
      "Ġsupp": 1477,
      "ients": 1478,
      "âĢĻm": 1479,
      "ott": 1480,
      "ruct": 1481,
      "Ġrecord": 1482,
      "Ġfood": 1483,
      "Ġaccess": 1484,
      "Ġbeh": 1485,
      "-p": 1486,
      "Ġnight": 1487,
      "ney": 1488,
      "Ġworking": 1489,
      "ised": 1490,
      "Ġdem": 1491,
      "Ġprote": 1492,
      "oint": 1493,
      "Ġmaking": 1494,
      "Ġarea": 1495,
      "As": 1496,
      "Ġprev": 1497,
      "You": 1498,
      "Ġpresent": 1499,
      "Ġaddition": 1500,
      "min": 1501,
      "ged": 1502,
      "Ġview": 1503,
      "iron": 1504,
      "Ġuntil": 1505,
      "atter": 1506,
      "cu": 1507,
      "Ġeng": 1508,
      "Ġsing": 1509,
      "ified": 1510,
      "tend": 1511,
      "ream": 1512,
      "21": 1513,
      "aring": 1514,
      "ĠComm": 1515,
      ".S": 1516,
      "Ġtru": 1517,
      "Ġprom": 1518,
      "ium": 1519,
      "ids": 1520,
      "Ġthing": 1521,
      "Ġchange": 1522,
      "Ġservices": 1523,
      "ĠTo": 1524,
      "ley": 1525,
      "orth": 1526,
      "ĠOr": 1527,
      "Ġcourse": 1528,
      "Ġcase": 1529,
      "Ġchang": 1530,
      "ead": 1531,
      "24": 1532,
      "irl": 1533,
      "Ġpast": 1534,
      "ories": 1535,
      "Ġspecial": 1536,
      "IN": 1537,
      "por": 1538,
      "ina": 1539,
      "of": 1540,
      "lish": 1541,
      "ĠMan": 1542,
      "soci": 1543,
      "Ġlocal": 1544,
      "lection": 1545,
      "ured": 1546,
      "ĠRes": 1547,
      "Ġequ": 1548,
      "Ġword": 1549,
      "Ġseason": 1550,
      "Ġsal": 1551,
      "-d": 1552,
      "Ġwhy": 1553,
      "fect": 1554,
      "ĠSp": 1555,
      "'re": 1556,
      "Ġchildren": 1557,
      "Ġleft": 1558,
      "ĠTr": 1559,
      "Ġlooking": 1560,
      "ĠSc": 1561,
      "ify": 1562,
      "Ġdev": 1563,
      "iting": 1564,
      "Ġcap": 1565,
      "ability": 1566,
      "Ġphot": 1567,
      "Ġeffect": 1568,
      "augh": 1569,
      "ges": 1570,
      "Ġpract": 1571,
      "Ġbas": 1572,
      "Ġstudents": 1573,
      "Ġkind": 1574,
      "icle": 1575,
      "ohn": 1576,
      "Ġroom": 1577,
      "Ġconst": 1578,
      "conom": 1579,
      "Ġprofess": 1580,
      "joy": 1581,
      "Ġfac": 1582,
      "let": 1583,
      "Ġtalk": 1584,
      "Ġlarge": 1585,
      "ump": 1586,
      "ries": 1587,
      "enn": 1588,
      "Ġterm": 1589,
      "Ġunderstand": 1590,
      "Ġ[": 1591,
      "ĠCan": 1592,
      "Ġintern": 1593,
      "Ġdidn": 1594,
      "Ġtimes": 1595,
      "22": 1596,
      "Ġwebs": 1597,
      "Ġtell": 1598,
      "Ġenough": 1599,
      "Ġmoney": 1600,
      "omm": 1601,
      "Ġdr": 1602,
      "Ġwrit": 1603,
      "ĠCent": 1604,
      "Ġoften": 1605,
      "Ġalong": 1606,
      "Ġemploy": 1607,
      "40": 1608,
      "Ġsuccess": 1609,
      "Ġevent": 1610,
      "Ġdra": 1611,
      "itions": 1612,
      "Ġactiv": 1613,
      "ĠNo": 1614,
      "arent": 1615,
      "âĢĻll": 1616,
      "ĠMar": 1617,
      "bo": 1618,
      "Ġmove": 1619,
      "gether": 1620,
      "Ġtogether": 1621,
      "Ġname": 1622,
      "ode": 1623,
      "ination": 1624,
      "Ġhaving": 1625,
      "Ġnear": 1626,
      "ising": 1627,
      "Ġimpro": 1628,
      "Ġapplic": 1629,
      "Ġvide": 1630,
      "ization": 1631,
      "Ġcomplete": 1632,
      "ready": 1633,
      ",Ċ": 1634,
      "ived": 1635,
      "Ġindust": 1636,
      "-c": 1637,
      "Ġsite": 1638,
      "Ġes": 1639,
      "agement": 1640,
      "ĠWhen": 1641,
      "ĠChrist": 1642,
      "Ġever": 1643,
      "ajor": 1644,
      "ills": 1645,
      "alf": 1646,
      "ording": 1647,
      "Ġcheck": 1648,
      "ential": 1649,
      "aster": 1650,
      "Ġsw": 1651,
      "Ġcond": 1652,
      "Ġtreat": 1653,
      "ocus": 1654,
      "Ġproduct": 1655,
      "aim": 1656,
      "une": 1657,
      "iven": 1658,
      "Ġcommunity": 1659,
      "utes": 1660,
      "Ġproducts": 1661,
      "Ġcreat": 1662,
      "veral": 1663,
      "Ġshort": 1664,
      "Ġlearn": 1665,
      "Ġhouse": 1666,
      "ĠAt": 1667,
      "urs": 1668,
      "ee": 1669,
      "Ġbit": 1670,
      "Ġbene": 1671,
      "Ġexpect": 1672,
      "ĠWhat": 1673,
      "Ġ.": 1674,
      "Ġcountry": 1675,
      "Ġbecome": 1676,
      "by": 1677,
      "Ġdone": 1678,
      "What": 1679,
      "ĠMay": 1680,
      "ane": 1681,
      "ush": 1682,
      "Ġair": 1683,
      "Ġside": 1684,
      "Ġcame": 1685,
      "itive": 1686,
      "ĠWith": 1687,
      "ĠCo": 1688,
      "Ġline": 1689,
      "Ġstory": 1690,
      "Ġcalled": 1691,
      "Ġmen": 1692,
      "aterial": 1693,
      "ows": 1694,
      "Ġconne": 1695,
      "ĠUniversity": 1696,
      "Ġmembers": 1697,
      "'m": 1698,
      "Ġpain": 1699,
      "Ġinclude": 1700,
      "Ġalready": 1701,
      "Ġfar": 1702,
      "Ġfollowing": 1703,
      "Ġbuy": 1704,
      "Ġbody": 1705,
      "ividual": 1706,
      "Ġpa": 1707,
      "ern": 1708,
      "Ġcontrol": 1709,
      "Ġmar": 1710,
      "ĠCar": 1711,
      "br": 1712,
      "Ġoffer": 1713,
      "viron": 1714,
      "Ġwent": 1715,
      "allen": 1716,
      "son": 1717,
      "ĠEng": 1718,
      "Ġmean": 1719,
      "Ġoffic": 1720,
      "Ġcertain": 1721,
      "ery": 1722,
      "Ġfeat": 1723,
      "ots": 1724,
      "Ġothers": 1725,
      "ored": 1726,
      "ained": 1727,
      "ON": 1728,
      "Ġtrad": 1729,
      "Ġenjoy": 1730,
      "-m": 1731,
      "-t": 1732,
      "Ġmil": 1733,
      "Ġaccount": 1734,
      "Ġresearch": 1735,
      "Ġlive": 1736,
      "ĠGod": 1737,
      "ĠAmerican": 1738,
      "Ġmeans": 1739,
      "ither": 1740,
      "Ġfore": 1741,
      "For": 1742,
      "Ġseveral": 1743,
      "Ġreview": 1744,
      "fer": 1745,
      "Ġmakes": 1746,
      "ands": 1747,
      "Ġhold": 1748,
      "Ġocc": 1749,
      "rap": 1750,
      "Ġreturn": 1751,
      "Ġpersonal": 1752,
      "Ġpossible": 1753,
      "Ġgovernment": 1754,
      "side": 1755,
      "Ġgetting": 1756,
      "part": 1757,
      "St": 1758,
      "Ġneeds": 1759,
      "Ġsocial": 1760,
      "Ġnews": 1761,
      "Ġmusic": 1762,
      "Ġtook": 1763,
      "Ġmillion": 1764,
      "Ġcou": 1765,
      "ĠFl": 1766,
      "Ġdoing": 1767,
      "rop": 1768,
      "Ġeasy": 1769,
      "uture": 1770,
      "pportun": 1771,
      "Ġleast": 1772,
      "Ġtre": 1773,
      "Ġbased": 1774,
      "ails": 1775,
      "'ve": 1776,
      "ĠJohn": 1777,
      "wh": 1778,
      "ances": 1779,
      "Ġlim": 1780,
      "Ġquality": 1781,
      "ien": 1782,
      "Ġeduc": 1783,
      "mber": 1784,
      "Ġdoesn": 1785,
      "Ġbenef": 1786,
      "Ġ|": 1787,
      "oice": 1788,
      "Ġfav": 1789,
      "Ġfocus": 1790,
      "Ġmind": 1791,
      "osed": 1792,
      "Ġpot": 1793,
      "aps": 1794,
      "Ġla": 1795,
      "Ġmajor": 1796,
      "fort": 1797,
      "ĠMy": 1798,
      "Ġindividual": 1799,
      "AT": 1800,
      "AR": 1801,
      "Ġwon": 1802,
      "uff": 1803,
      "Ġthought": 1804,
      "ES": 1805,
      "app": 1806,
      "idd": 1807,
      "Ġcamp": 1808,
      "Ġyoung": 1809,
      "ians": 1810,
      "ique": 1811,
      "atic": 1812,
      "Ġproject": 1813,
      "Ġactually": 1814,
      "lement": 1815,
      "Ġclear": 1816,
      "err": 1817,
      "orts": 1818,
      "ully": 1819,
      "ides": 1820,
      "Ġpercent": 1821,
      "Ġvisit": 1822,
      "AN": 1823,
      "80": 1824,
      "ging": 1825,
      "aff": 1826,
      "ched": 1827,
      "rodu": 1828,
      "ĠSte": 1829,
      "cially": 1830,
      "Ġcomes": 1831,
      "Ġnon": 1832,
      "wards": 1833,
      "Ġelect": 1834,
      "Ġmom": 1835,
      "ĠAm": 1836,
      "not": 1837,
      "Ġnet": 1838,
      "Ġcreate": 1839,
      "ches": 1840,
      "ĠSu": 1841,
      "Ġwomen": 1842,
      "ama": 1843,
      "vironment": 1844,
      "Ġacross": 1845,
      "Ġopportun": 1846,
      "Ġlow": 1847,
      "Ġwebsite": 1848,
      "Ġanal": 1849,
      "ript": 1850,
      "most": 1851,
      "Ġorig": 1852,
      "crib": 1853,
      "ĠApp": 1854,
      "eb": 1855,
      "yle": 1856,
      "Ġquick": 1857,
      "oor": 1858,
      "Ġeconom": 1859,
      "--": 1860,
      "Ġfund": 1861,
      "Ġcharact": 1862,
      "over": 1863,
      "Ġey": 1864,
      "Ġreason": 1865,
      "Ġparticular": 1866,
      "Ġstarted": 1867,
      "Ġdeal": 1868,
      "Ġhappen": 1869,
      "ai": 1870,
      "60": 1871,
      "There": 1872,
      "Ġyet": 1873,
      "ones": 1874,
      "aken": 1875,
      "Ġmaterial": 1876,
      "uro": 1877,
      "Ġonce": 1878,
      "Ġtold": 1879,
      "lished": 1880,
      "23": 1881,
      "arr": 1882,
      "ĠRep": 1883,
      "Ġlink": 1884,
      "urther": 1885,
      "Ġcut": 1886,
      "lf": 1887,
      "ctor": 1888,
      "Ġdevelopment": 1889,
      "09": 1890,
      "Ġtax": 1891,
      "ference": 1892,
      "Ġhours": 1893,
      "Ġfuture": 1894,
      "Ġpar": 1895,
      "Ġinvol": 1896,
      "Ġhuman": 1897,
      "Ġlater": 1898,
      "Ġearly": 1899,
      "Ġce": 1900,
      "Ġvers": 1901,
      "ony": 1902,
      "Ġkey": 1903,
      "OR": 1904,
      "Ġexample": 1905,
      "sh": 1906,
      "Ġmult": 1907,
      "ĠX": 1908,
      "Ġcontact": 1909,
      "Ġcity": 1910,
      "Ġsoft": 1911,
      "Ġmonths": 1912,
      "ift": 1913,
      "ĠBr": 1914,
      "Ġbeaut": 1915,
      "Ġfriends": 1916,
      "An": 1917,
      "Ġstrong": 1918,
      "ape": 1919,
      "And": 1920,
      "ister": 1921,
      "ĠUnited": 1922,
      "mm": 1923,
      "verage": 1924,
      "Ġbring": 1925,
      "ograph": 1926,
      "Ġfield": 1927,
      "Ġstudy": 1928,
      "Ġpolit": 1929,
      "-l": 1930,
      "Ġauthor": 1931,
      "'ll": 1932,
      "ateg": 1933,
      "Ġfive": 1934,
      "Ġredu": 1935,
      "Ġident": 1936,
      "âĢĵ": 1937,
      "ĠMed": 1938,
      "Ġspecific": 1939,
      "use": 1940,
      "ĠIntern": 1941,
      "cle": 1942,
      "ĠÂ": 1943,
      "ulation": 1944,
      "Ġknown": 1945,
      "ource": 1946,
      "Ġbelow": 1947,
      "Ġcult": 1948,
      "Ġris": 1949,
      "jects": 1950,
      "Ġpress": 1951,
      "ĠState": 1952,
      "Ġbegin": 1953,
      "room": 1954,
      "ĠThese": 1955,
      "Ġperfect": 1956,
      "ips": 1957,
      "Ġtyp": 1958,
      "Ġvideo": 1959,
      "Ġheart": 1960,
      "Ġshare": 1961,
      "iday": 1962,
      "Ġprob": 1963,
      "Ġappear": 1964,
      "Ġhot": 1965,
      "resent": 1966,
      "Ġitem": 1967,
      "Ġtem": 1968,
      "icy": 1969,
      "Ġclose": 1970,
      "Ġhig": 1971,
      "illed": 1972,
      "Ġrequire": 1973,
      "ober": 1974,
      "ights": 1975,
      "08": 1976,
      "yl": 1977,
      "Ġwa": 1978,
      "Ġemail": 1979,
      "Ġ--": 1980,
      "But": 1981,
      "Ġproblem": 1982,
      "book": 1983,
      "lling": 1984,
      "//": 1985,
      "acy": 1986,
      "ĠOne": 1987,
      "Ġpriv": 1988,
      "ourn": 1989,
      "eral": 1990,
      "Ġpack": 1991,
      "Ġdiscuss": 1992,
      "iod": 1993,
      "oon": 1994,
      "reet": 1995,
      "Ġface": 1996,
      "Ġrele": 1997,
      "unch": 1998,
      "Ġstep": 1999,
      "Ġpick": 2000,
      "Ġsound": 2001,
      "ĠCont": 2002,
      "Ġcomb": 2003,
      "itor": 2004,
      "ources": 2005,
      "Ġhistory": 2006,
      "Ġet": 2007,
      "oose": 2008,
      "ensive": 2009,
      "Ġwalk": 2010,
      "go": 2011,
      "for": 2012,
      "ĠWor": 2013,
      "Ġindustry": 2014,
      "Ġcompan": 2015,
      "utions": 2016,
      "Ġpurch": 2017,
      "Ġeverything": 2018,
      "How": 2019,
      "ĠCal": 2020,
      "sw": 2021,
      ".m": 2022,
      "Ġtaking": 2023,
      "Ġaddress": 2024,
      "Ġdeli": 2025,
      "new": 2026,
      "ĠNe": 2027,
      "idence": 2028,
      "urity": 2029,
      "Ġpage": 2030,
      "play": 2031,
      "Ġhalf": 2032,
      "ĠDo": 2033,
      "ster": 2034,
      "Ġamong": 2035,
      "ural": 2036,
      "Ġrespons": 2037,
      "Ġwind": 2038,
      "ĠComp": 2039,
      "Ġmor": 2040,
      "Ġchallen": 2041,
      "ners": 2042,
      "Ġseen": 2043,
      "che": 2044,
      "Ġvari": 2045,
      "ĠEn": 2046,
      "atural": 2047,
      "Ġstay": 2048,
      "ille": 2049,
      "ilities": 2050,
      "Ġwhole": 2051,
      "Ġpie": 2052,
      "Ġcomput": 2053,
      "though": 2054,
      "Ġago": 2055,
      "Ġrelations": 2056,
      "Ġcompet": 2057,
      "Ġsomeone": 2058,
      "fic": 2059,
      "lege": 2060,
      "load": 2061,
      "ino": 2062,
      "Ġens": 2063,
      "Ġspace": 2064,
      "Ġsingle": 2065,
      "On": 2066,
      "Ġquestion": 2067,
      "ned": 2068,
      "ison": 2069,
      "Ġwhether": 2070,
      "osp": 2071,
      "ilar": 2072,
      "rain": 2073,
      "Ġener": 2074,
      "ĠCount": 2075,
      "Ġbelieve": 2076,
      "ued": 2077,
      "Ġgirl": 2078,
      "When": 2079,
      "Ġclaim": 2080,
      "imate": 2081,
      "Ġtot": 2082,
      "irm": 2083,
      "Ġste": 2084,
      "aces": 2085,
      "Ġgames": 2086,
      "rew": 2087,
      "ĠPr": 2088,
      "ĠYork": 2089,
      "Ġsci": 2090,
      "ĠInst": 2091,
      "Ġminutes": 2092,
      "org": 2093,
      "ided": 2094,
      "cted": 2095,
      "-y": 2096,
      "ĠHowever": 2097,
      "af": 2098,
      "Ġant": 2099,
      "ĠMc": 2100,
      "ental": 2101,
      "par": 2102,
      "ball": 2103,
      "Ġenc": 2104,
      "pecially": 2105,
      "Ġage": 2106,
      "hod": 2107,
      "Ġanything": 2108,
      "ĠSy": 2109,
      "rict": 2110,
      "Ġbreak": 2111,
      "Ġess": 2112,
      "ledge": 2113,
      "ĠNot": 2114,
      "ply": 2115,
      "ilt": 2116,
      "Ġhope": 2117,
      "iver": 2118,
      "hers": 2119,
      "fully": 2120,
      "://": 2121,
      "ibility": 2122,
      "Ġgiven": 2123,
      "Ġmanag": 2124,
      "Ġsuper": 2125,
      "So": 2126,
      "abor": 2127,
      "Ġstore": 2128,
      "Ġenvironment": 2129,
      "selves": 2130,
      "-in": 2131,
      "Ġpub": 2132,
      "Ġprice": 2133,
      "ĠMe": 2134,
      "mb": 2135,
      "01": 2136,
      "Ġfre": 2137,
      "Ġbad": 2138,
      "gth": 2139,
      "irt": 2140,
      "ogn": 2141,
      "Ġissues": 2142,
      "Ġdue": 2143,
      "vent": 2144,
      "Ġcommon": 2145,
      "Ġmedia": 2146,
      "Ġfront": 2147,
      "tain": 2148,
      "Ġmess": 2149,
      "07": 2150,
      "ggest": 2151,
      "ĠServ": 2152,
      "ĠCity": 2153,
      "Ġmeas": 2154,
      "Ġabove": 2155,
      "Ġamount": 2156,
      "Ġphys": 2157,
      "ĠStates": 2158,
      "rown": 2159,
      "Ġcra": 2160,
      "Ġ#": 2161,
      "gle": 2162,
      "Ġcontent": 2163,
      "Ġsearch": 2164,
      "Ġperiod": 2165,
      "ams": 2166,
      "iously": 2167,
      "Ch": 2168,
      "Ġresults": 2169,
      "Ġred": 2170,
      "Ġseries": 2171,
      "Ġwatch": 2172,
      "IS": 2173,
      "Ġjo": 2174,
      "Ġidea": 2175,
      "ĠGu": 2176,
      "Ġplease": 2177,
      "ĠMin": 2178,
      "Re": 2179,
      "ox": 2180,
      "Ġeff": 2181,
      "ators": 2182,
      "Ġcred": 2183,
      "Ġmot": 2184,
      "-h": 2185,
      "26": 2186,
      "urch": 2187,
      "Ġconsider": 2188,
      "EN": 2189,
      "come": 2190,
      "Ġz": 2191,
      "uation": 2192,
      "asing": 2193,
      "Ġtechnology": 2194,
      "Ġport": 2195,
      "Ġcompanies": 2196,
      "ĠPres": 2197,
      "...Ċ": 2198,
      "Ġquestions": 2199,
      "itted": 2200,
      "Ġrecomm": 2201,
      "Ġ/": 2202,
      "Ġsix": 2203,
      "Ġtool": 2204,
      "90": 2205,
      "Ġeither": 2206,
      "ler": 2207,
      "Ġclean": 2208,
      "Ġrecommend": 2209,
      "dd": 2210,
      "ried": 2211,
      "Ġalmost": 2212,
      "Ġvol": 2213,
      "opy": 2214,
      "ED": 2215,
      "AS": 2216,
      "Ġbar": 2217,
      "Ġwond": 2218,
      "used": 2219,
      "Ġnecess": 2220,
      "ĠEuro": 2221,
      "Ġrange": 2222,
      "Ġrepl": 2223,
      "ĠJan": 2224,
      "28": 2225,
      "ĠChe": 2226,
      "Ġfurther": 2227,
      "Ġtrying": 2228,
      "Ġsuggest": 2229,
      "Ġfavor": 2230,
      "Ġaud": 2231,
      "Ġthird": 2232,
      "Ġworks": 2233,
      "Ġdou": 2234,
      "Ġconcer": 2235,
      "Ġaff": 2236,
      "ancial": 2237,
      "anks": 2238,
      "Ġdocu": 2239,
      "Ġself": 2240,
      "Ġfilm": 2241,
      "Ġbrand": 2242,
      "Ġblog": 2243,
      "ficult": 2244,
      "Ġpoints": 2245,
      "Ġtaken": 2246,
      "Ġtrack": 2247,
      "Ġtravel": 2248,
      "ĠYour": 2249,
      "27": 2250,
      "Ġdeb": 2251,
      "Ġbuilding": 2252,
      "Ġblack": 2253,
      "Ġentire": 2254,
      "ĠNational": 2255,
      "Ġenergy": 2256,
      "ask": 2257,
      "obal": 2258,
      "Ġeveryone": 2259,
      "Ġcrit": 2260,
      "Ġpict": 2261,
      "Ġlikely": 2262,
      "ung": 2263,
      "Ġcir": 2264,
      "Ġfeatures": 2265,
      "Ġdel": 2266,
      "Ġwanted": 2267,
      "70": 2268,
      "elt": 2269,
      "Ġcal": 2270,
      "Ġmag": 2271,
      "35": 2272,
      "Ġareas": 2273,
      "Ġinstall": 2274,
      "ĠOur": 2275,
      "ĠMr": 2276,
      "AL": 2277,
      "Ġsex": 2278,
      "ively": 2279,
      "Ġtext": 2280,
      "cell": 2281,
      "ples": 2282,
      "Ġtraining": 2283,
      "Ġsimple": 2284,
      "Ġsent": 2285,
      "Ġexc": 2286,
      "Ġpret": 2287,
      "ĠEd": 2288,
      "rie": 2289,
      "gress": 2290,
      "rug": 2291,
      "ires": 2292,
      "gest": 2293,
      "Ġrelationship": 2294,
      "Ġweb": 2295,
      "ĠGo": 2296,
      "ili": 2297,
      "Ġquite": 2298,
      "vert": 2299,
      "cript": 2300,
      "ites": 2301,
      "IT": 2302,
      "Ġwar": 2303,
      "Ġfall": 2304,
      "Ġcustomers": 2305,
      "ication": 2306,
      "ops": 2307,
      "Ġtype": 2308,
      "Ġmiss": 2309,
      "Ġvalue": 2310,
      "omes": 2311,
      "Ġhowever": 2312,
      "ĠAfter": 2313,
      "aur": 2314,
      "Ġrather": 2315,
      "Ġespecially": 2316,
      "Ġdifficult": 2317,
      "oid": 2318,
      "Ġcompl": 2319,
      "Ġdam": 2320,
      "Ġneeded": 2321,
      "Ġprobably": 2322,
      "ification": 2323,
      "Ġhost": 2324,
      "Ġcoming": 2325,
      "Ġmanagement": 2326,
      "umb": 2327,
      "Ġoffice": 2328,
      "Ġproblems": 2329,
      "oved": 2330,
      "Ġasked": 2331,
      "back": 2332,
      "Ġelse": 2333,
      "ially": 2334,
      "Ġvarious": 2335,
      "Ġsong": 2336,
      "Ġperformance": 2337,
      "Ġsignific": 2338,
      "resh": 2339,
      "!!": 2340,
      "Ġconsum": 2341,
      "Ġland": 2342,
      "Ġdeath": 2343,
      "05": 2344,
      "Ġdig": 2345,
      "06": 2346,
      "Ġbehind": 2347,
      "itting": 2348,
      "ĠTw": 2349,
      "ĠSec": 2350,
      "ĠPe": 2351,
      "Ġabs": 2352,
      "Ġele": 2353,
      "itch": 2354,
      "Ġimprove": 2355,
      "where": 2356,
      "Ġexist": 2357,
      "ĠNorth": 2358,
      "Ġposition": 2359,
      "Ġpretty": 2360,
      "iful": 2361,
      "To": 2362,
      "ĠSchool": 2363,
      "Ġliving": 2364,
      "minist": 2365,
      "IC": 2366,
      "Ġparent": 2367,
      "lex": 2368,
      "ĠWill": 2369,
      "Ġisn": 2370,
      "empt": 2371,
      "ĠGe": 2372,
      "Ġaccording": 2373,
      "ruction": 2374,
      "Ġspend": 2375,
      "âĢ¢": 2376,
      "my": 2377,
      "Ġissue": 2378,
      "Ġnothing": 2379,
      "nes": 2380,
      "angu": 2381,
      "Ġoffers": 2382,
      "Ġparticip": 2383,
      "Ġrequired": 2384,
      "roll": 2385,
      "Ġsimply": 2386,
      "ĠEurope": 2387,
      "Ã©": 2388,
      "Ġ:": 2389,
      "ĠAust": 2390,
      "Ġgra": 2391,
      "chie": 2392,
      "ĠDep": 2393,
      "Ġansw": 2394,
      "ibr": 2395,
      "ĠGl": 2396,
      "Ġoil": 2397,
      "icro": 2398,
      "ĠPart": 2399,
      "Ġprovides": 2400,
      "Ġcontinue": 2401,
      "ĠWorld": 2402,
      "icated": 2403,
      "itten": 2404,
      "Ġprofessional": 2405,
      "âĢĻd": 2406,
      "-year": 2407,
      "Ġwords": 2408,
      "ĠHis": 2409,
      "Ġways": 2410,
      "oe": 2411,
      "Ġwhite": 2412,
      "ĠSouth": 2413,
      "Ġadded": 2414,
      "Ġevents": 2415,
      "29": 2416,
      "Ġassist": 2417,
      "ĠBar": 2418,
      "Ġmethod": 2419,
      "itional": 2420,
      "Ġswe": 2421,
      "Ġsoon": 2422,
      "urance": 2423,
      "iol": 2424,
      "head": 2425,
      "pril": 2426,
      "ĠQu": 2427,
      "Ġhtt": 2428,
      "Ġexperien": 2429,
      "Ġcharacter": 2430,
      "reme": 2431,
      "Ġinn": 2432,
      "eth": 2433,
      "Ġsize": 2434,
      "Ġmatter": 2435,
      "ĠMark": 2436,
      "Ġtou": 2437,
      "Ġrisk": 2438,
      "val": 2439,
      "Ġfoot": 2440,
      "Ġdeterm": 2441,
      "ables": 2442,
      "anc": 2443,
      "Ġaccept": 2444,
      "Ġrepresent": 2445,
      "Ġcell": 2446,
      "mp": 2447,
      "Ġinit": 2448,
      "yn": 2449,
      "Ġfail": 2450,
      "Ġfire": 2451,
      "Ġinfl": 2452,
      "uge": 2453,
      "Ġweeks": 2454,
      "ees": 2455,
      "amer": 2456,
      "Ġproperty": 2457,
      "Ġpopular": 2458,
      "ĠOct": 2459,
      "Ġannoun": 2460,
      "ring": 2461,
      "ĠAmerica": 2462,
      "aching": 2463,
      "Ġskin": 2464,
      "Ġsimilar": 2465,
      "Ġtakes": 2466,
      "Ġhon": 2467,
      "ĠPark": 2468,
      "Ġwriting": 2469,
      "ades": 2470,
      "Ġaction": 2471,
      "ĠAct": 2472,
      "Ġprovided": 2473,
      "ĠGr": 2474,
      "Ġstat": 2475,
      "olution": 2476,
      "Al": 2477,
      "ĠSm": 2478,
      "Ġupd": 2479,
      "31": 2480,
      "ze": 2481,
      "Ġknowledge": 2482,
      "ief": 2483,
      "obile": 2484,
      "uf": 2485,
      "apt": 2486,
      "Ġstaff": 2487,
      "Ġprep": 2488,
      "Ġextra": 2489,
      "Ġroad": 2490,
      "-w": 2491,
      "ules": 2492,
      "ĠCenter": 2493,
      "02": 2494,
      "Ġhy": 2495,
      "pper": 2496,
      "ĠDes": 2497,
      "Ġincludes": 2498,
      "Ġground": 2499,
      "Ġphone": 2500,
      "RE": 2501,
      "Ġseems": 2502,
      "Ġheld": 2503,
      "Ġparty": 2504,
      "eds": 2505,
      "ĠAf": 2506,
      "reg": 2507,
      "Ġsignificant": 2508,
      "ada": 2509,
      "ival": 2510,
      "AC": 2511,
      "ĠTra": 2512,
      "ĠJu": 2513,
      "ĠPer": 2514,
      "Ġdog": 2515,
      "ĠCounty": 2516,
      "Ġimpact": 2517,
      "Ġfinal": 2518,
      "ole": 2519,
      "Ġrole": 2520,
      "gu": 2521,
      "Ġkids": 2522,
      "Ġrequest": 2523,
      "aily": 2524,
      "Ġchanges": 2525,
      "Ġnatural": 2526,
      "Ġupon": 2527,
      "ĠKe": 2528,
      "ĠDr": 2529,
      "04": 2530,
      "Ġincrease": 2531,
      "uary": 2532,
      "ID": 2533,
      "US": 2534,
      "Ġtrue": 2535,
      "Ġcard": 2536,
      "overed": 2537,
      "ume": 2538,
      "ĠMarch": 2539,
      "ĠDis": 2540,
      "clus": 2541,
      "Ġcook": 2542,
      "Ġrecogn": 2543,
      "Ġshows": 2544,
      "Ġforward": 2545,
      "ĠJust": 2546,
      "Ġgeneral": 2547,
      "Ġlog": 2548,
      "....": 2549,
      "Ġcover": 2550,
      "Ġfig": 2551,
      "Ġrad": 2552,
      "Ġrecent": 2553,
      "Ġcoll": 2554,
      "Ġdate": 2555,
      "Ġeducation": 2556,
      "right": 2557,
      "Ġstop": 2558,
      "de": 2559,
      "medi": 2560,
      "put": 2561,
      "ises": 2562,
      "aving": 2563,
      "Ġcomputer": 2564,
      "ĠJune": 2565,
      "ĠPresident": 2566,
      "Ġassoci": 2567,
      "Ġrunning": 2568,
      "-st": 2569,
      "Ġsaw": 2570,
      "eter": 2571,
      "lt": 2572,
      "Ġprint": 2573,
      "Ġmodel": 2574,
      "ĠSome": 2575,
      "Ġselect": 2576,
      "Ġestab": 2577,
      "ĠAb": 2578,
      "Ġinj": 2579,
      "Ġyourself": 2580,
      "Ġattack": 2581,
      "45": 2582,
      "ĠCor": 2583,
      "idge": 2584,
      "Ġunique": 2585,
      "Ġarticle": 2586,
      "Ġtable": 2587,
      "Ġoutside": 2588,
      "Ġsend": 2589,
      "ĠAug": 2590,
      "Ġmember": 2591,
      "Ġmoment": 2592,
      "Ġsum": 2593,
      "Ġwide": 2594,
      "Ġnetwork": 2595,
      "hib": 2596,
      "arget": 2597,
      "Ġcreated": 2598,
      "iter": 2599,
      "Ġinde": 2600,
      "na": 2601,
      "Ġcannot": 2602,
      "anced": 2603,
      "amed": 2604,
      "Ġtit": 2605,
      "ĠOb": 2606,
      "astic": 2607,
      "Ġanim": 2608,
      "ude": 2609,
      "Ġengine": 2610,
      "oph": 2611,
      "Ġop": 2612,
      "Ġopp": 2613,
      "ĠTH": 2614,
      "Ġbooks": 2615,
      "Ġofficial": 2616,
      "32": 2617,
      "Ġleave": 2618,
      "arter": 2619,
      "Ġtreatment": 2620,
      "Ġcouple": 2621,
      "Ġsle": 2622,
      "Ġsens": 2623,
      "Ġstri": 2624,
      "Ġplayers": 2625,
      "Ġfinancial": 2626,
      "Ġpark": 2627,
      "Ġlay": 2628,
      "oring": 2629,
      "Ġregard": 2630,
      "Ġoriginal": 2631,
      "erc": 2632,
      "Ġlonger": 2633,
      "ederal": 2634,
      "Ġlat": 2635,
      "earch": 2636,
      "Ġdescrib": 2637,
      "Ġhit": 2638,
      "Ġball": 2639,
      "Ġdefin": 2640,
      "iff": 2641,
      "Ġloss": 2642,
      "ĠAg": 2643,
      "Ġthroughout": 2644,
      "Ġnice": 2645,
      "Ġexam": 2646,
      "Ġsafe": 2647,
      "Ġrate": 2648,
      "Ġemb": 2649,
      "rem": 2650,
      "Ġworth": 2651,
      "Ġdesigned": 2652,
      "face": 2653,
      "Ġdom": 2654,
      "Ġbeautiful": 2655,
      "Ġcontrib": 2656,
      "Ġetc": 2657,
      "Ġready": 2658,
      "Ġbase": 2659,
      "ĠPol": 2660,
      "Ġachie": 2661,
      "03": 2662,
      "Ġnational": 2663,
      "ĠDav": 2664,
      "Ġspeak": 2665,
      "Ġopportunity": 2666,
      "Ġlate": 2667,
      "ĠReg": 2668,
      "Ġx": 2669,
      "atory": 2670,
      "Ġfa": 2671,
      "izing": 2672,
      "ysis": 2673,
      "Ġmedical": 2674,
      "oura": 2675,
      "aced": 2676,
      "Ġsecurity": 2677,
      "Ġcause": 2678,
      "Ġagree": 2679,
      "Ġill": 2680,
      "Ġri": 2681,
      "Ġfunction": 2682,
      "Ġrespect": 2683,
      "Ġsystems": 2684,
      "99": 2685,
      "Ġversion": 2686,
      "ĠApril": 2687,
      "Ġusers": 2688,
      "Ġusually": 2689,
      "Ġleaders": 2690,
      "cil": 2691,
      "ague": 2692,
      "Ġsense": 2693,
      "Ġgen": 2694,
      "ĠHigh": 2695,
      "Ġhigher": 2696,
      "Ġlost": 2697,
      "iddle": 2698,
      "Ġrights": 2699,
      "Ġnorm": 2700,
      "Ġrecently": 2701,
      "Ġfit": 2702,
      "Ġreceive": 2703,
      "Ġdest": 2704,
      "Ġpolicy": 2705,
      "Ġdetails": 2706,
      "irit": 2707,
      "uth": 2708,
      "Ġmorning": 2709,
      "Ġensure": 2710,
      "Ġbox": 2711,
      "ĠBy": 2712,
      "ana": 2713,
      "Ġblood": 2714,
      "mit": 2715,
      "ĠBo": 2716,
      "Ġapplication": 2717,
      "ciety": 2718,
      "Ġsoftware": 2719,
      "ufact": 2720,
      "arning": 2721,
      "Ġcoun": 2722,
      "Ġreceived": 2723,
      "iet": 2724,
      "Ġtotal": 2725,
      "Ġcollect": 2726,
      "ĠWest": 2727,
      "Ġfast": 2728,
      "ĠNow": 2729,
      "Ġinside": 2730,
      "Ġsales": 2731,
      "ffects": 2732,
      "Ġanyone": 2733,
      "Ġblock": 2734,
      "ĠSpe": 2735,
      "aging": 2736,
      "ĠInc": 2737,
      "Ġregular": 2738,
      "oud": 2739,
      "Ġprior": 2740,
      "Ġbott": 2741,
      "aining": 2742,
      "ournal": 2743,
      "oogle": 2744,
      "Ġprivate": 2745,
      "ĠHouse": 2746,
      "ĠMich": 2747,
      "aign": 2748,
      "ĠStud": 2749,
      "-based": 2750,
      "Ġpolitical": 2751,
      "Ġpotential": 2752,
      "Ġreading": 2753,
      "Ġpaper": 2754,
      "ha": 2755,
      "edd": 2756,
      "Ġcourt": 2757,
      "aturday": 2758,
      "Ġdeep": 2759,
      "Ġcurrently": 2760,
      "Ġthemselves": 2761,
      "ological": 2762,
      "cast": 2763,
      "Ġbal": 2764,
      "Ġformer": 2765,
      "off": 2766,
      "rought": 2767,
      "ett": 2768,
      "Ġneg": 2769,
      "ashing": 2770,
      "oes": 2771,
      "Ġtown": 2772,
      "ĠSept": 2773,
      "Ġoptions": 2774,
      "Ġchoose": 2775,
      "Ġhands": 2776,
      "lier": 2777,
      "Ġdeg": 2778,
      "Ġmeeting": 2779,
      "Ġbegan": 2780,
      "ached": 2781,
      "ĠDay": 2782,
      "sy": 2783,
      "Ġitself": 2784,
      "ĠHar": 2785,
      "Ġintrodu": 2786,
      "Ġterms": 2787,
      "ales": 2788,
      "oke": 2789,
      "Ġlives": 2790,
      "artment": 2791,
      "ĠEl": 2792,
      "Ġpractice": 2793,
      "Ġteac": 2794,
      "ĠAssoci": 2795,
      "ĠArt": 2796,
      "ression": 2797,
      "Ġgrowth": 2798,
      "Ġhappy": 2799,
      "icles": 2800,
      "istic": 2801,
      "\"Ċ": 2802,
      "Ġstra": 2803,
      "ĠDon": 2804,
      "Ġcareer": 2805,
      "Ġmach": 2806,
      "Ġcomfort": 2807,
      "ĠCalif": 2808,
      "Ġitems": 2809,
      "ground": 2810,
      "iber": 2811,
      "hel": 2812,
      "Ġobs": 2813,
      "Ġprograms": 2814,
      "Ġdrive": 2815,
      "Ġwonder": 2816,
      "Ġstruct": 2817,
      "Ġ,": 2818,
      "Ġsqu": 2819,
      "Ġcolor": 2820,
      "action": 2821,
      "irth": 2822,
      "ession": 2823,
      "Ġwasn": 2824,
      "Ġfight": 2825,
      "attle": 2826,
      "Ġsat": 2827,
      "ek": 2828,
      "Ġquickly": 2829,
      "ny": 2830,
      "With": 2831,
      "Ġadditional": 2832,
      "__": 2833,
      "Ġpric": 2834,
      "ĠFeb": 2835,
      "Ġchance": 2836,
      "Ġpers": 2837,
      "Ġgoal": 2838,
      "-to": 2839,
      "Ġcorre": 2840,
      "Ġple": 2841,
      "Ġclick": 2842,
      "pri": 2843,
      "Ġplaying": 2844,
      "Ġdepend": 2845,
      "Ġworked": 2846,
      "Ġwall": 2847,
      "AM": 2848,
      "Ġdrug": 2849,
      "Ġvia": 2850,
      "ament": 2851,
      "Ġexact": 2852,
      "ĠSan": 2853,
      ".org": 2854,
      "Ġround": 2855,
      "Ġbed": 2856,
      "Ġep": 2857,
      "Ġut": 2858,
      "Ġattend": 2859,
      "anguage": 2860,
      "OS": 2861,
      "Ġmass": 2862,
      "Ġcountries": 2863,
      "unt": 2864,
      "ĠPa": 2865,
      "Ġarri": 2866,
      "Ġpresident": 2867,
      "Ġdecision": 2868,
      "Ġlo": 2869,
      "Ġcool": 2870,
      "Ġincluded": 2871,
      "ĠJuly": 2872,
      "Ġgoes": 2873,
      "ĠChar": 2874,
      "Ġcases": 2875,
      "Ġinsp": 2876,
      "haps": 2877,
      "ese": 2878,
      "Ġappe": 2879,
      "Ġpan": 2880,
      "ĠPar": 2881,
      "ĠHealth": 2882,
      "ornia": 2883,
      "uses": 2884,
      "Ġur": 2885,
      "Ġsil": 2886,
      "Ġviol": 2887,
      "ville": 2888,
      "36": 2889,
      "azing": 2890,
      "Ġability": 2891,
      "At": 2892,
      "All": 2893,
      "My": 2894,
      "ĠMore": 2895,
      "imum": 2896,
      "Ġclos": 2897,
      "atives": 2898,
      "ecut": 2899,
      "ĠAustral": 2900,
      "-up": 2901,
      "onse": 2902,
      "Ġcredit": 2903,
      "Ġmix": 2904,
      "Ġcele": 2905,
      "ham": 2906,
      "ĠUs": 2907,
      "ences": 2908,
      "Ġsett": 2909,
      "Ġboard": 2910,
      "ĠSer": 2911,
      "rote": 2912,
      "Ġproduction": 2913,
      "ĠWar": 2914,
      "Ġmyself": 2915,
      "Ġtarget": 2916,
      "Ġbecame": 2917,
      "Ġwoman": 2918,
      "Ġlegal": 2919,
      "Ġnecessary": 2920,
      "Ġmatch": 2921,
      "Ġprim": 2922,
      "ĠCour": 2923,
      "Ġstyle": 2924,
      "adem": 2925,
      "ĠWhile": 2926,
      "Ġinvolved": 2927,
      "asons": 2928,
      "Ġlevels": 2929,
      "Ġactivities": 2930,
      "Ġlearning": 2931,
      "That": 2932,
      "Ġveh": 2933,
      "Ġsubject": 2934,
      "ĠBu": 2935,
      "onday": 2936,
      "Ġstock": 2937,
      "fl": 2938,
      "iam": 2939,
      "ming": 2940,
      "ĠNews": 2941,
      "Ġlatest": 2942,
      "OT": 2943,
      "Ġlooks": 2944,
      "Ġrelease": 2945,
      "aby": 2946,
      "ĠPat": 2947,
      "Ġgave": 2948,
      "Ġmother": 2949,
      "Ġimm": 2950,
      "Ġinstead": 2951,
      "hood": 2952,
      "inary": 2953,
      "Ġdefe": 2954,
      "unday": 2955,
      "ĠOff": 2956,
      "Ġimmedi": 2957,
      "Ġsummer": 2958,
      "Ġjud": 2959,
      "airs": 2960,
      "Ġcondu": 2961,
      "Ġdisplay": 2962,
      "Ġgrad": 2963,
      "ule": 2964,
      "ĠBro": 2965,
      "Our": 2966,
      "bor": 2967,
      "Ġwritten": 2968,
      "Ġvict": 2969,
      "Ġemer": 2970,
      "Ġprojects": 2971,
      "atform": 2972,
      "Ġinvestig": 2973,
      "ING": 2974,
      "pose": 2975,
      "'d": 2976,
      "Ġfavorite": 2977,
      "Ġbur": 2978,
      "Ġboy": 2979,
      "Ġhair": 2980,
      "ought": 2981,
      "Ġdecided": 2982,
      "Ġeasily": 2983,
      "OU": 2984,
      "Ph": 2985,
      "Ġpropos": 2986,
      "ĠSw": 2987,
      "itte": 2988,
      "ky": 2989,
      "ĠTV": 2990,
      "Ġcustomer": 2991,
      "ĠMus": 2992,
      "Ġuser": 2993,
      "Ġremember": 2994,
      "Ġdownload": 2995,
      "Ġcosts": 2996,
      "ĠMon": 2997,
      "Ġpatients": 2998,
      "Ġinternational": 2999,
      "ris": 3000,
      "aly": 3001,
      "illing": 3002,
      "Ġdise": 3003,
      "ĠDepartment": 3004,
      "Ġgroups": 3005,
      "ux": 3006,
      "ications": 3007,
      "Ġbuilt": 3008,
      "Ġfelt": 3009,
      "Ġsus": 3010,
      "cip": 3011,
      "ovember": 3012,
      "Ġcampaign": 3013,
      "ĠEnglish": 3014,
      "oul": 3015,
      "Ġsaf": 3016,
      "aught": 3017,
      "Ġmovie": 3018,
      "Ġmention": 3019,
      "Ġfile": 3020,
      "light": 3021,
      "ĠInt": 3022,
      "Ġknew": 3023,
      "Ġsurpr": 3024,
      "ĠCalifornia": 3025,
      "ressed": 3026,
      "Ġconditions": 3027,
      "ening": 3028,
      "Ġones": 3029,
      "Ġimage": 3030,
      "Ġrelated": 3031,
      "Ġsn": 3032,
      "ester": 3033,
      "Ġdocument": 3034,
      "itc": 3035,
      "ĠBrit": 3036,
      "Ġcand": 3037,
      "Ġlab": 3038,
      "Ġautom": 3039,
      "Ġeyes": 3040,
      "Ġattempt": 3041,
      "Ġhimself": 3042,
      "ĠJanuary": 3043,
      "Ġdraw": 3044,
      "just": 3045,
      "Ġskills": 3046,
      "Sh": 3047,
      "Ġtour": 3048,
      "Ġtouch": 3049,
      "ĠHere": 3050,
      "kend": 3051,
      "Ġapproach": 3052,
      "Ġstru": 3053,
      "Ġlower": 3054,
      "Ġrev": 3055,
      "Ġscreen": 3056,
      "oom": 3057,
      "erous": 3058,
      "iction": 3059,
      "idered": 3060,
      "www": 3061,
      "Ġstandard": 3062,
      "ĠSen": 3063,
      "erve": 3064,
      "Ġaw": 3065,
      "Ġreported": 3066,
      "hern": 3067,
      "Ġexcept": 3068,
      "ray": 3069,
      "Be": 3070,
      "Ġsaying": 3071,
      "ĠAugust": 3072,
      "wood": 3073,
      "Ġcomment": 3074,
      "itter": 3075,
      "ests": 3076,
      "ĠOf": 3077,
      "ĠVal": 3078,
      "Ġglobal": 3079,
      "ĠSci": 3080,
      "Ġideas": 3081,
      "Ġfair": 3082,
      "Ġdead": 3083,
      "ĠFace": 3084,
      "Ġhuge": 3085,
      "Ġord": 3086,
      "Ġdecl": 3087,
      "Ġleading": 3088,
      "Ġinteresting": 3089,
      "Ġpred": 3090,
      "Ġstudent": 3091,
      "Ġpolice": 3092,
      "Ġwrong": 3093,
      "Ġpull": 3094,
      "Ġshall": 3095,
      "Ġplans": 3096,
      "ĠHer": 3097,
      "str": 3098,
      "Ġstates": 3099,
      "Ġattention": 3100,
      "fficient": 3101,
      "Ġheard": 3102,
      "Ġbi": 3103,
      "Ġadminist": 3104,
      "Ġgets": 3105,
      "Ġplayed": 3106,
      "ĠAfric": 3107,
      "Ġapply": 3108,
      "ael": 3109,
      "Ġhear": 3110,
      "Ġeffective": 3111,
      "Ġresources": 3112,
      "Ġaffect": 3113,
      "75": 3114,
      "Ġfresh": 3115,
      "aves": 3116,
      "Ġallows": 3117,
      "Ġcas": 3118,
      "ĠBlack": 3119,
      "Ġsun": 3120,
      "ishing": 3121,
      "ĠFriday": 3122,
      "Ġcross": 3123,
      "Ġbank": 3124,
      "cember": 3125,
      "Ġstren": 3126,
      "Ġmanufact": 3127,
      "Ġmid": 3128,
      "Ġencoura": 3129,
      "Ġsell": 3130,
      "ĠFin": 3131,
      "Ġtal": 3132,
      "Ġaverage": 3133,
      "Ġbrought": 3134,
      "enty": 3135,
      "Ġsepar": 3136,
      "usiness": 3137,
      "Ġled": 3138,
      "Ġprotect": 3139,
      "aker": 3140,
      "Ġtrust": 3141,
      "Ġhor": 3142,
      "Ġrout": 3143,
      "ipment": 3144,
      "itary": 3145,
      "Ġchoice": 3146,
      "ivity": 3147,
      "Cl": 3148,
      "Ġdep": 3149,
      "Ġbenefits": 3150,
      "33": 3151,
      "ĠSaturday": 3152,
      "Ġintegr": 3153,
      "Ġdiv": 3154,
      "ĠAdd": 3155,
      "Ġdrink": 3156,
      "board": 3157,
      "bit": 3158,
      "Ġnature": 3159,
      "Ġwood": 3160,
      "Ġclients": 3161,
      "One": 3162,
      "ald": 3163,
      "Ġvariety": 3164,
      "Ġcy": 3165,
      "ĠOctober": 3166,
      "Ġexpected": 3167,
      "verse": 3168,
      "cious": 3169,
      "avy": 3170,
      "ns": 3171,
      "Ġsave": 3172,
      "Ġthinking": 3173,
      "sec": 3174,
      "pite": 3175,
      "aged": 3176,
      "Ġanswer": 3177,
      "iring": 3178,
      "iple": 3179,
      "Ġdevice": 3180,
      "ĠGerm": 3181,
      "Ġparts": 3182,
      "Ġenter": 3183,
      "Ġcenter": 3184,
      "hold": 3185,
      "king": 3186,
      "key": 3187,
      "Ġdepart": 3188,
      "itation": 3189,
      "Ġsafety": 3190,
      "ma": 3191,
      "Ġhol": 3192,
      "Ġplatform": 3193,
      "Ġconsidered": 3194,
      "ĠThen": 3195,
      "Ġprin": 3196,
      "Ġcompletely": 3197,
      "aries": 3198,
      "amb": 3199,
      "Ġvac": 3200,
      "Ġpurchase": 3201,
      "LE": 3202,
      "Ġprevent": 3203,
      "cies": 3204,
      "Ġwrite": 3205,
      "Ġ+": 3206,
      "Ġmodern": 3207,
      "Ġdaily": 3208,
      "Ġparents": 3209,
      "Ġsold": 3210,
      "ĠFrom": 3211,
      "Ġpiece": 3212,
      "ceed": 3213,
      "ension": 3214,
      "Ġqual": 3215,
      "Ġweight": 3216,
      "ĠPost": 3217,
      "ĠInternational": 3218,
      "Ġgives": 3219,
      "Ġfell": 3220,
      "OM": 3221,
      "alt": 3222,
      "Ġinsurance": 3223,
      "Ġpath": 3224,
      "uel": 3225,
      "mercial": 3226,
      "After": 3227,
      "ruary": 3228,
      "rel": 3229,
      "Ġsubs": 3230,
      "Ġlooked": 3231,
      "Ġgiving": 3232,
      "ocr": 3233,
      "Ġplayer": 3234,
      "ĠGoogle": 3235,
      "Ġdetail": 3236,
      "ĠDem": 3237,
      "Ġcontract": 3238,
      "ĠJe": 3239,
      "ĠRed": 3240,
      "Ġvot": 3241,
      "ĠNet": 3242,
      "Ġeconomic": 3243,
      "]Ċ": 3244,
      "Ġlif": 3245,
      "ĠWeb": 3246,
      "Ġexcell": 3247,
      "Ġbud": 3248,
      "Ġnation": 3249,
      "Ġpublished": 3250,
      "Ġsource": 3251,
      "Ġcopy": 3252,
      "ened": 3253,
      "No": 3254,
      "uesday": 3255,
      "Ġstarting": 3256,
      "aste": 3257,
      "Ġstuff": 3258,
      "mission": 3259,
      "ption": 3260,
      "Ġoption": 3261,
      "Ġdark": 3262,
      "Ġamazing": 3263,
      "Ġanalysis": 3264,
      "yond": 3265,
      "orge": 3266,
      "Ġtele": 3267,
      "Ġslow": 3268,
      "ursday": 3269,
      "95": 3270,
      "Ġbroad": 3271,
      "name": 3272,
      "cription": 3273,
      "ilies": 3274,
      "rs": 3275,
      "ĠSeptember": 3276,
      ";Ċ": 3277,
      "ĠAut": 3278,
      "isc": 3279,
      "Ġhttp": 3280,
      "Ġsometimes": 3281,
      "Ġdro": 3282,
      "Ġdoor": 3283,
      "Ġreleased": 3284,
      "gar": 3285,
      "Ġsection": 3286,
      "Ġdirectly": 3287,
      "Ġflow": 3288,
      "su": 3289,
      "iding": 3290,
      "ĠNovember": 3291,
      "Ġrock": 3292,
      "Ġtypes": 3293,
      "ashington": 3294,
      "ĠSunday": 3295,
      "ĠAcc": 3296,
      "Ġimplement": 3297,
      "Ġinflu": 3298,
      "Ġresponse": 3299,
      "wise": 3300,
      "AP": 3301,
      "Ġpartners": 3302,
      "Ġoffe": 3303,
      "Ġpositive": 3304,
      "ibly": 3305,
      "ffee": 3306,
      "Ġorganization": 3307,
      "Ġsituation": 3308,
      "Ġhighly": 3309,
      "ari": 3310,
      "isions": 3311,
      "Ġgreen": 3312,
      "Ġinterview": 3313,
      "Ġeffects": 3314,
      "ĠStreet": 3315,
      "itute": 3316,
      "imately": 3317,
      "omen": 3318,
      "ĠSch": 3319,
      "Ġextreme": 3320,
      "ondon": 3321,
      "ĠLa": 3322,
      "ida": 3323,
      "idents": 3324,
      "ĠCommun": 3325,
      "add": 3326,
      "Ġmarketing": 3327,
      "Ġfeature": 3328,
      "ara": 3329,
      "Ġcollection": 3330,
      "Ġavoid": 3331,
      "ĠGener": 3332,
      "error": 3333,
      "ednes": 3334,
      "erved": 3335,
      "zy": 3336,
      "Ġlic": 3337,
      "vey": 3338,
      "Ġtried": 3339,
      "They": 3340,
      "ĠFacebook": 3341,
      "ength": 3342,
      "ores": 3343,
      "raft": 3344,
      "Ġtowards": 3345,
      "Ġcondition": 3346,
      "Ġfirm": 3347,
      "Ġmount": 3348,
      "Ġcat": 3349,
      "Ġlanguage": 3350,
      "ĠPlease": 3351,
      "Ġwarm": 3352,
      "âĢĿĊ": 3353,
      "ĠEm": 3354,
      "-g": 3355,
      "ica": 3356,
      "ĠCons": 3357,
      "Ġarch": 3358,
      "Ġ...": 3359,
      "itiz": 3360,
      "ĠDirect": 3361,
      "ĠWind": 3362,
      "Ġclub": 3363,
      "band": 3364,
      "Ġprogress": 3365,
      "Ġspent": 3366,
      "Ġdream": 3367,
      "ĠRead": 3368,
      "Ġorganiz": 3369,
      "pro": 3370,
      "Ġlocation": 3371,
      "Ġlocated": 3372,
      "itely": 3373,
      "ĠDecember": 3374,
      "Ġaware": 3375,
      "Ġhour": 3376,
      "ĠKing": 3377,
      "Ġweekend": 3378,
      "Ġinnov": 3379,
      "Ġsche": 3380,
      "Ġproviding": 3381,
      "ĠAc": 3382,
      "ĠSim": 3383,
      "ospital": 3384,
      "Ġwrote": 3385,
      "Ġlack": 3386,
      "Ġculture": 3387,
      "Ġdigital": 3388,
      "Ġregist": 3389,
      "Ġfine": 3390,
      "Ġsites": 3391,
      "arily": 3392,
      "apan": 3393,
      "ulations": 3394,
      "Ġnearly": 3395,
      "Ġmaterials": 3396,
      "Ġmat": 3397,
      "Ġphysical": 3398,
      "Ġfarm": 3399,
      "Ġfeed": 3400,
      "ĠObama": 3401,
      "Ġpen": 3402,
      "Ġthreat": 3403,
      "ivil": 3404,
      "Ġson": 3405,
      "ulated": 3406,
      "Ġconsist": 3407,
      "Ġcapt": 3408,
      "Ġstories": 3409,
      "aches": 3410,
      "55": 3411,
      "Ġsen": 3412,
      "Ġplant": 3413,
      "Ġreach": 3414,
      "Ex": 3415,
      "Ġcamer": 3416,
      "-S": 3417,
      "unk": 3418,
      "ram": 3419,
      "Ġhelps": 3420,
      "uate": 3421,
      "Ġfather": 3422,
      "Ġgold": 3423,
      "ĠUK": 3424,
      "ĠAre": 3425,
      "ĠRepublic": 3426,
      "uk": 3427,
      "bur": 3428,
      "ednesday": 3429,
      "Ġreve": 3430,
      "34": 3431,
      "Ġplaces": 3432,
      "ĠAir": 3433,
      "ittee": 3434,
      "ipping": 3435,
      "ĠCoun": 3436,
      "Ġmobile": 3437,
      "Ġadvant": 3438,
      "Ġcode": 3439,
      "Ġeffort": 3440,
      "Ġshot": 3441,
      "Ġrestaur": 3442,
      "Ġlimited": 3443,
      "Ġcelebr": 3444,
      "Ġcup": 3445,
      "Ġevidence": 3446,
      "uted": 3447,
      "Ġband": 3448,
      "Ġge": 3449,
      "iles": 3450,
      "like": 3451,
      "Ġdire": 3452,
      "Ġbirth": 3453,
      "Ġconvers": 3454,
      "Ġfinally": 3455,
      "Ġturned": 3456,
      "opping": 3457,
      "Ġmis": 3458,
      "urt": 3459,
      "rences": 3460,
      "ĠPre": 3461,
      "Ġfix": 3462,
      "Ġadult": 3463,
      "Ġgrowing": 3464,
      "ĠFirst": 3465,
      "ĠUp": 3466,
      "rench": 3467,
      "Ġbehav": 3468,
      "Ġconcept": 3469,
      "Ġmessage": 3470,
      "mon": 3471,
      "more": 3472,
      "Ġkn": 3473,
      "Ġ=": 3474,
      "Ġspirit": 3475,
      "Ġmultiple": 3476,
      "Ġsubst": 3477,
      "ĠMonday": 3478,
      "ares": 3479,
      "Ġconv": 3480,
      "Ġspot": 3481,
      "Ġcollege": 3482,
      "Ġtrip": 3483,
      "antly": 3484,
      "vest": 3485,
      "ags": 3486,
      "ĠEast": 3487,
      "sc": 3488,
      "Ġded": 3489,
      "ĠIndia": 3490,
      "Ġexerc": 3491,
      "Ġnote": 3492,
      "Ġemployees": 3493,
      "ography": 3494,
      "ĠPM": 3495,
      "ĠII": 3496,
      "agn": 3497,
      "Ġdress": 3498,
      "ĠIm": 3499,
      "Ġshoot": 3500,
      "olf": 3501,
      "ĠWell": 3502,
      "Ġdemand": 3503,
      "Ġcertainly": 3504,
      "Ġimag": 3505,
      "ĠService": 3506,
      "sequ": 3507,
      "ĠWashington": 3508,
      "aughter": 3509,
      "Ġbra": 3510,
      "pects": 3511,
      "Ġindepend": 3512,
      "zz": 3513,
      "Ġindividuals": 3514,
      "ET": 3515,
      "olute": 3516,
      "37": 3517,
      "Ġneigh": 3518,
      "nds": 3519,
      "Ġeat": 3520,
      "Ġwants": 3521,
      "Ġrelig": 3522,
      "Ġcarry": 3523,
      "Ġinterested": 3524,
      "48": 3525,
      "field": 3526,
      "EC": 3527,
      "oming": 3528,
      "Ġdifference": 3529,
      "BC": 3530,
      "ords": 3531,
      "pre": 3532,
      "Ġtraditional": 3533,
      "ĠCourt": 3534,
      "Ġrace": 3535,
      "Ġaltern": 3536,
      "PS": 3537,
      "Ġer": 3538,
      "estern": 3539,
      "Ġmaybe": 3540,
      "mitted": 3541,
      "Ġalone": 3542,
      "arant": 3543,
      "Ġparticularly": 3544,
      "-old": 3545,
      "itchen": 3546,
      "Ġsort": 3547,
      "oday": 3548,
      "Ġdistrib": 3549,
      "ĠâĢ¦": 3550,
      "Ġhistor": 3551,
      "Ġthous": 3552,
      "Ġtalking": 3553,
      "ancy": 3554,
      "Ġbeginning": 3555,
      "Ġver": 3556,
      "arden": 3557,
      "het": 3558,
      "Ġdeveloped": 3559,
      "IL": 3560,
      "ĠAN": 3561,
      "izes": 3562,
      "ruit": 3563,
      "Ġsolution": 3564,
      "ĠMost": 3565,
      "EO": 3566,
      "Ġcomplex": 3567,
      "Ġsuccessful": 3568,
      "ĠDavid": 3569,
      "Ġimages": 3570,
      "Ġpaid": 3571,
      "Ġsleep": 3572,
      "ĠEvery": 3573,
      "ĠÂ£": 3574,
      "ĠChina": 3575,
      "Ġphotos": 3576,
      "Ġheat": 3577,
      "ĠGroup": 3578,
      "Ġwife": 3579,
      "isf": 3580,
      "Ġ*": 3581,
      "ims": 3582,
      "Ġserious": 3583,
      "ĠMor": 3584,
      "65": 3585,
      "iment": 3586,
      "Ġfeeling": 3587,
      "itable": 3588,
      "ĠFebruary": 3589,
      "Ġfloor": 3590,
      "ĠWhite": 3591,
      "Ġannounced": 3592,
      "ĠLondon": 3593,
      "Ġfeet": 3594,
      "ĠAssociation": 3595,
      "Ġaccom": 3596,
      "ibrary": 3597,
      "Ġearlier": 3598,
      "Ġten": 3599,
      "hest": 3600,
      "ager": 3601,
      "Ġult": 3602,
      "ying": 3603,
      "rows": 3604,
      "Ġhop": 3605,
      "aint": 3606,
      "ran": 3607,
      "atever": 3608,
      "Ġactivity": 3609,
      "Ġoccur": 3610,
      "Ġwait": 3611,
      "Ġter": 3612,
      "ĠEar": 3613,
      "Ġtrail": 3614,
      "sych": 3615,
      "ĠLaw": 3616,
      "Ġobject": 3617,
      "Ġequipment": 3618,
      "ounds": 3619,
      "Ġdirector": 3620,
      "Ġtools": 3621,
      "Ġprem": 3622,
      "Ġstage": 3623,
      "bum": 3624,
      "ford": 3625,
      "Ġmoving": 3626,
      "Ġdoub": 3627,
      "Ġexpert": 3628,
      "Ġrespond": 3629,
      "Ġexactly": 3630,
      "rast": 3631,
      "undred": 3632,
      ".)": 3633,
      "ani": 3634,
      "Ġregion": 3635,
      "Ġfully": 3636,
      "Ġwish": 3637,
      "AD": 3638,
      "ĠFree": 3639,
      "Ġfamilies": 3640,
      "44": 3641,
      "rig": 3642,
      "Ġfear": 3643,
      "Ġwhose": 3644,
      "venue": 3645,
      "Ġreports": 3646,
      "Ġmiles": 3647,
      "body": 3648,
      "icate": 3649,
      "Ġbusinesses": 3650,
      "Ġpicture": 3651,
      "Ġtitle": 3652,
      "example": 3653,
      "Ġdisease": 3654,
      "Ġcirc": 3655,
      "Ġfederal": 3656,
      "reed": 3657,
      "Ġproced": 3658,
      "ĠOut": 3659,
      "Ġpurpose": 3660,
      "oms": 3661,
      ".C": 3662,
      "Ġspeed": 3663,
      "ĠInternet": 3664,
      "ault": 3665,
      "vant": 3666,
      "ĠRock": 3667,
      "ĠCollege": 3668,
      "Ġdemon": 3669,
      "Ġachieve": 3670,
      "vis": 3671,
      "Ġtick": 3672,
      "Ġextend": 3673,
      "Ġpressure": 3674,
      "Ġrent": 3675,
      "olic": 3676,
      "Ġappropri": 3677,
      "Ġcateg": 3678,
      "Ġassess": 3679,
      "Ġpromot": 3680,
      "Ġgoals": 3681,
      "omb": 3682,
      "Ġstatement": 3683,
      "Ġuses": 3684,
      "Ġallowed": 3685,
      "Ġemot": 3686,
      "Ġeight": 3687,
      "Ġprevious": 3688,
      "Ġdry": 3689,
      "EL": 3690,
      "imin": 3691,
      "chan": 3692,
      "Ġoverall": 3693,
      "Ġremain": 3694,
      "ĠAM": 3695,
      "ĠEven": 3696,
      "Ġteams": 3697,
      "Ġopportunities": 3698,
      "Ġcorrect": 3699,
      "iant": 3700,
      "inger": 3701,
      "ĠBusiness": 3702,
      "aled": 3703,
      "Ġtrade": 3704,
      "Ġserve": 3705,
      "Ġcouldn": 3706,
      "Ġconsult": 3707,
      "42": 3708,
      "Ġinstit": 3709,
      "38": 3710,
      "Ġseven": 3711,
      "wor": 3712,
      "ĠIndian": 3713,
      "Ġchanged": 3714,
      "Ġcreating": 3715,
      "Ġnumbers": 3716,
      "Ġhous": 3717,
      "change": 3718,
      "Ġsmart": 3719,
      "Ġstrugg": 3720,
      "place": 3721,
      "Ġdevices": 3722,
      "Ġscient": 3723,
      "ls": 3724,
      "41": 3725,
      "Ġtemper": 3726,
      "@example": 3727,
      "Ġcorpor": 3728,
      "Ġmeaning": 3729,
      "Is": 3730,
      "ION": 3731,
      "She": 3732,
      "mas": 3733,
      "ronic": 3734,
      "Ġacqu": 3735,
      "Ġeye": 3736,
      "Ġbillion": 3737,
      "Ġbaby": 3738,
      "Ġund": 3739,
      "ĠPal": 3740,
      "Ġinstru": 3741,
      "Ġappl": 3742,
      "ĠTHE": 3743,
      "Ġforce": 3744,
      "Ġexcellent": 3745,
      "Ġtur": 3746,
      "Ġcert": 3747,
      "Ġprices": 3748,
      "inner": 3749,
      "ĠJapan": 3750,
      "Ġanaly": 3751,
      "Ġscience": 3752,
      "By": 3753,
      "ĠAlso": 3754,
      "Ġincreasing": 3755,
      "erry": 3756,
      "ĠIN": 3757,
      "cks": 3758,
      "ĠGreat": 3759,
      "Ġquarter": 3760,
      "Ġplanning": 3761,
      "Here": 3762,
      "Ġfrequ": 3763,
      "-time": 3764,
      "Ġdegree": 3765,
      "Ġincreased": 3766,
      "ĠTechn": 3767,
      "ĠReview": 3768,
      "ashion": 3769,
      "Ġâ": 3770,
      "Ġinform": 3771,
      "Ġgrand": 3772,
      "gers": 3773,
      "ĠGreen": 3774,
      "Ġhealthy": 3775,
      "Ġunderstanding": 3776,
      "Ġfat": 3777,
      "Ġconc": 3778,
      "duc": 3779,
      "oly": 3780,
      "Ġvoice": 3781,
      "ĠProgram": 3782,
      "nded": 3783,
      "Ġsolutions": 3784,
      "Ġwel": 3785,
      "Ġglass": 3786,
      "Ġrequirements": 3787,
      "Ġden": 3788,
      "IG": 3789,
      "Ġaward": 3790,
      "Ġgirls": 3791,
      "-M": 3792,
      "Ġstraight": 3793,
      "43": 3794,
      "Ġfans": 3795,
      "Ġbenefit": 3796,
      "ĠBen": 3797,
      "Ġblue": 3798,
      "New": 3799,
      "Ġnormal": 3800,
      "Ġbeyond": 3801,
      "Ġconnect": 3802,
      "isl": 3803,
      "Ġfra": 3804,
      "Ġliter": 3805,
      "Ġshown": 3806,
      "Ġroll": 3807,
      "Ġimmediately": 3808,
      "arc": 3809,
      "ĠRom": 3810,
      "mark": 3811,
      "Ġbill": 3812,
      "98": 3813,
      "ĠTuesday": 3814,
      "order": 3815,
      "97": 3816,
      "Ġcapital": 3817,
      "ĠCanada": 3818,
      "ously": 3819,
      "Ġalthough": 3820,
      "ago": 3821,
      "ĠProf": 3822,
      "Ġopin": 3823,
      "ĠOther": 3824,
      "Ġprefer": 3825,
      "Ġwat": 3826,
      "Ġpet": 3827,
      "que": 3828,
      "ĠAss": 3829,
      "Ġcold": 3830,
      "Ġoffered": 3831,
      "Ġcharge": 3832,
      "reci": 3833,
      "Ġresponsible": 3834,
      "Ġdefinitely": 3835,
      "Ġcommercial": 3836,
      "ancing": 3837,
      "Ġmaintain": 3838,
      "Ġapart": 3839,
      "aling": 3840,
      "Ġguy": 3841,
      "Ġdeliver": 3842,
      "ĠGovern": 3843,
      "ecutive": 3844,
      "Ġwild": 3845,
      "lin": 3846,
      "Ġcomments": 3847,
      "rial": 3848,
      "Ġdamage": 3849,
      "-A": 3850,
      "Ġlik": 3851,
      "Ġrules": 3852,
      "Ġmeasure": 3853,
      "Ġdoll": 3854,
      "Ġslight": 3855,
      "Ġjobs": 3856,
      "anch": 3857,
      "see": 3858,
      "ĠTrans": 3859,
      ".g": 3860,
      "ĠMichael": 3861,
      "Ġmiddle": 3862,
      "Ġsurv": 3863,
      "orage": 3864,
      "lying": 3865,
      "ategy": 3866,
      "asc": 3867,
      "well": 3868,
      "Ġowners": 3869,
      "Ġinvestment": 3870,
      "cause": 3871,
      "ban": 3872,
      "Un": 3873,
      "Ġstrateg": 3874,
      "Ġcru": 3875,
      "Ġloved": 3876,
      "De": 3877,
      "ĠDel": 3878,
      "Ġhappened": 3879,
      "rief": 3880,
      "Ġpoor": 3881,
      "Ġapplications": 3882,
      "52": 3883,
      "ĠCong": 3884,
      "Ġsust": 3885,
      "Ġbrain": 3886,
      "ĠThursday": 3887,
      "Ġperhaps": 3888,
      "Ġpattern": 3889,
      "Ġreduce": 3890,
      "ĠHall": 3891,
      "Now": 3892,
      "Ġfem": 3893,
      "Ġgone": 3894,
      "ĠBra": 3895,
      "Ġchurch": 3896,
      "Ġtrou": 3897,
      "-C": 3898,
      "col": 3899,
      "iling": 3900,
      "Ġcoffee": 3901,
      "ST": 3902,
      "ĠTex": 3903,
      "Ġdoctor": 3904,
      "ĠJes": 3905,
      "ĠPaul": 3906,
      "etic": 3907,
      "dom": 3908,
      "Ġhundred": 3909,
      "Ġrates": 3910,
      "vision": 3911,
      "ĠFe": 3912,
      "ampions": 3913,
      "59": 3914,
      "Ġload": 3915,
      "rael": 3916,
      "Ġnamed": 3917,
      "ĠLet": 3918,
      "Ġproduce": 3919,
      "Ġincome": 3920,
      "amm": 3921,
      "Ġmachine": 3922,
      "Ġletter": 3923,
      "Ġreasons": 3924,
      "Pro": 3925,
      "Ġannual": 3926,
      "Ġschools": 3927,
      "ĠJack": 3928,
      "Ġmilitary": 3929,
      "ĠMet": 3930,
      "Ġadvert": 3931,
      "Ġactive": 3932,
      "Ġble": 3933,
      "pm": 3934,
      "Ġhelped": 3935,
      "Ġcandid": 3936,
      "ĠCouncil": 3937,
      "sp": 3938,
      "Ġlargest": 3939,
      "Ġgas": 3940,
      "Ġstudies": 3941,
      "Ġenh": 3942,
      "Ġfinished": 3943,
      "**": 3944,
      "ico": 3945,
      "Ġcry": 3946,
      "ĠHome": 3947,
      "ĠDist": 3948,
      "soft": 3949,
      "ĠBoard": 3950,
      "iance": 3951,
      "):": 3952,
      "bon": 3953,
      "Ġabsolute": 3954,
      "ĠFlor": 3955,
      "amic": 3956,
      "ĠMicro": 3957,
      "ĠRich": 3958,
      "Ġgreater": 3959,
      "Ġfollowed": 3960,
      "ĠAnt": 3961,
      "While": 3962,
      "edding": 3963,
      "Ġmax": 3964,
      "ĠSystem": 3965,
      "Ġdang": 3966,
      "Ġtruth": 3967,
      "Ġconstruction": 3968,
      "ĠCle": 3969,
      "Ġbeg": 3970,
      "Ġtruly": 3971,
      "ĠBook": 3972,
      "Ġeval": 3973,
      "Ġmoved": 3974,
      "Ġpow": 3975,
      "istics": 3976,
      "coming": 3977,
      "Ġalbum": 3978,
      "Ġwww": 3979,
      "iable": 3980,
      "Ġbudget": 3981,
      "IV": 3982,
      "Ġeconomy": 3983,
      "ĠSuper": 3984,
      "Ġassociated": 3985,
      "Ġchallenge": 3986,
      "ĠServices": 3987,
      "ero": 3988,
      "itude": 3989,
      "leg": 3990,
      "ĠInter": 3991,
      "Ġefforts": 3992,
      "wide": 3993,
      "Ġclin": 3994,
      "apter": 3995,
      "Ġpowerful": 3996,
      "Ġnotice": 3997,
      "Ġsociety": 3998,
      "Ġsatisf": 3999,
      "Ġing": 4000,
      "OL": 4001,
      "istry": 4002,
      "itar": 4003,
      "Ġborn": 4004,
      "icks": 4005,
      "Ġfinish": 4006,
      "Ġcontain": 4007,
      "ĠResearch": 4008,
      "Ġcitiz": 4009,
      "ĠGet": 4010,
      "ĠGold": 4011,
      "Ġsurround": 4012,
      "Don": 4013,
      "Ġhus": 4014,
      "ado": 4015,
      "akers": 4016,
      "Ġsurface": 4017,
      "Ġahead": 4018,
      "ervation": 4019,
      "osing": 4020,
      "Ġguide": 4021,
      "Ġadvice": 4022,
      "-e": 4023,
      "Ġbasic": 4024,
      "Ġjoin": 4025,
      "ĠRec": 4026,
      "ustr": 4027,
      "set": 4028,
      "Ġpatient": 4029,
      "49": 4030,
      "Ġsale": 4031,
      "asy": 4032,
      "Ġclient": 4033,
      "âĢľI": 4034,
      "Ġbasis": 4035,
      "39": 4036,
      "ĠRuss": 4037,
      "Ġvehicle": 4038,
      "IP": 4039,
      "ech": 4040,
      "Ġpopulation": 4041,
      "64": 4042,
      "Ġaren": 4043,
      "useum": 4044,
      "ĠAv": 4045,
      "Ġleader": 4046,
      "ĠMod": 4047,
      "ĠYear": 4048,
      "Ġmovement": 4049,
      "51": 4050,
      "Ġspread": 4051,
      "Ġlots": 4052,
      "47": 4053,
      "ties": 4054,
      "ulate": 4055,
      "ube": 4056,
      "Ġprofession": 4057,
      "Ġlines": 4058,
      "Ġgar": 4059,
      "Ġcontinued": 4060,
      "ĠChristian": 4061,
      ".)Ċ": 4062,
      "ĠSl": 4063,
      "mat": 4064,
      "ĠFrench": 4065,
      "ĠPlay": 4066,
      "ken": 4067,
      "orrow": 4068,
      "ĠBel": 4069,
      "Ġoffering": 4070,
      "Ġkept": 4071,
      "Ġtransfer": 4072,
      "Ġdouble": 4073,
      "Ġmer": 4074,
      "ĠJames": 4075,
      "isco": 4076,
      "Ġstar": 4077,
      "Ġstress": 4078,
      "Ġdelivery": 4079,
      "Ġopening": 4080,
      "term": 4081,
      "Ġorigin": 4082,
      "Ġcompared": 4083,
      "icip": 4084,
      "Ġbottom": 4085,
      "ĠOver": 4086,
      "Ġesc": 4087,
      "ston": 4088,
      "Ġdisapp": 4089,
      "Ġnut": 4090,
      "ĠBritish": 4091,
      "Ġstrength": 4092,
      "Ġadvantage": 4093,
      "Ġ@": 4094,
      "Ġarr": 4095,
      "atively": 4096,
      "ooth": 4097,
      "ĠEv": 4098,
      "Ġcancer": 4099,
      "Ġpages": 4100,
      "ĠWednesday": 4101,
      "ĠWhy": 4102,
      "Ġpassed": 4103,
      "ses": 4104,
      "encies": 4105,
      "bed": 4106,
      "96": 4107,
      "Ġpartner": 4108,
      "ĠAny": 4109,
      "Ġeasier": 4110,
      "Ġfigure": 4111,
      "ĠMart": 4112,
      "ulf": 4113,
      "unte": 4114,
      "Ġguys": 4115,
      "Ġcash": 4116,
      "Ġwear": 4117,
      "ĠIsland": 4118,
      "ĠPort": 4119,
      "Ġsuff": 4120,
      "igned": 4121,
      "ĠAustralia": 4122,
      "ĠSun": 4123,
      "Ġdating": 4124,
      "using": 4125,
      "ologies": 4126,
      "Ġessential": 4127,
      "ĠTexas": 4128,
      "Ġoccas": 4129,
      "ĠAnge": 4130,
      "ĠOffice": 4131,
      "care": 4132,
      "Ġserved": 4133,
      "Ġchem": 4134,
      "ĠEuropean": 4135,
      "Ġreb": 4136,
      "Ġappreci": 4137,
      "sey": 4138,
      "ĠMac": 4139,
      "Ġtoward": 4140,
      "Ġsetting": 4141,
      "ĠIsrael": 4142,
      "85": 4143,
      "Ġreplace": 4144,
      "DA": 4145,
      "Ġshop": 4146,
      "Ġwonderful": 4147,
      "iny": 4148,
      "Ġfan": 4149,
      "Ġiniti": 4150,
      "ourney": 4151,
      "Ġwouldn": 4152,
      "Ġfaith": 4153,
      "72": 4154,
      "Ġhelping": 4155,
      "ĠDevelop": 4156,
      "time": 4157,
      "Ġpros": 4158,
      "Ġcompleted": 4159,
      "house": 4160,
      "Ġobv": 4161,
      "opped": 4162,
      "anging": 4163,
      "Ġbreat": 4164,
      "iller": 4165,
      "Ġsweet": 4166,
      "Ġadjust": 4167,
      "Ġcentury": 4168,
      "Ġlength": 4169,
      "These": 4170,
      "Ġbrother": 4171,
      "ifying": 4172,
      "Ġsteps": 4173,
      "bl": 4174,
      "Ġdied": 4175,
      "ĠIS": 4176,
      "Ġtransport": 4177,
      "OP": 4178,
      "54": 4179,
      "Ġorganizations": 4180,
      "ĠMany": 4181,
      "ula": 4182,
      "ĠThom": 4183,
      "Ġknows": 4184,
      "Ġbackground": 4185,
      "iced": 4186,
      "Ġlearned": 4187,
      "force": 4188,
      "down": 4189,
      "Ġexpand": 4190,
      "Ġfab": 4191,
      "Ġruns": 4192,
      "Please": 4193,
      "aper": 4194,
      "Ġhaven": 4195,
      "Ġgift": 4196,
      "Ġentertain": 4197,
      "ĠClub": 4198,
      "ym": 4199,
      "Ġgenerally": 4200,
      "Ġhotel": 4201,
      "ĠBill": 4202,
      "Ġexisting": 4203,
      "Com": 4204,
      "know": 4205,
      "ils": 4206,
      "ĠEduc": 4207,
      "ĠChristmas": 4208,
      "oving": 4209,
      "Ġkitchen": 4210,
      "ĠRiver": 4211,
      "ĠPri": 4212,
      "Ġcalls": 4213,
      "Ġmaster": 4214,
      "ĠRem": 4215,
      "ĠGood": 4216,
      "odes": 4217,
      "Ġphoto": 4218,
      "Ġcamera": 4219,
      "ios": 4220,
      "âĢĿ,": 4221,
      "Ġcompon": 4222,
      "Ġpictures": 4223,
      "ĠBig": 4224,
      "Ġseeing": 4225,
      "Ġsecret": 4226,
      "ĠMiss": 4227,
      "ĠOF": 4228,
      "azine": 4229,
      "Ġprotection": 4230,
      "Ġir": 4231,
      "Ġaccur": 4232,
      "ĠMarket": 4233,
      "works": 4234,
      "la": 4235,
      "Ġharm": 4236,
      "Ġgun": 4237,
      "Ġguarant": 4238,
      "Ġregarding": 4239,
      "rey": 4240,
      "ona": 4241,
      "Ġcast": 4242,
      "Ġcolle": 4243,
      "ĠFound": 4244,
      "Ġrich": 4245,
      "Ġclot": 4246,
      "Ġpeace": 4247,
      "ĠBest": 4248,
      "Ġseemed": 4249,
      "gal": 4250,
      "ĠWork": 4251,
      "Ġmonitor": 4252,
      "ĠAnn": 4253,
      "Ġhomes": 4254,
      "IM": 4255,
      "Not": 4256,
      "ĠRober": 4257,
      "TH": 4258,
      "raw": 4259,
      "ĠRet": 4260,
      "Ġconnection": 4261,
      "Ġappropriate": 4262,
      "AA": 4263,
      "udd": 4264,
      "Ġtend": 4265,
      "Ġmeant": 4266,
      "Ġmechan": 4267,
      "Ġhusband": 4268,
      "Ġweather": 4269,
      "ĠHot": 4270,
      "Ġframe": 4271,
      "Ġstructure": 4272,
      "46": 4273,
      "ĠSpr": 4274,
      "ij": 4275,
      "rian": 4276,
      "umn": 4277,
      "Ġstrategy": 4278,
      "ĠMem": 4279,
      "Ġrob": 4280,
      "Ġlarger": 4281,
      "Ġsupply": 4282,
      "ĠTime": 4283,
      "ĠRoad": 4284,
      "Ġcreative": 4285,
      "Ġanti": 4286,
      "Ġlock": 4287,
      "Se": 4288,
      "Ġaudience": 4289,
      "ĠWindows": 4290,
      "imal": 4291,
      "hips": 4292,
      "\".": 4293,
      "asure": 4294,
      "Ġscore": 4295,
      "âĢ¦Ċ": 4296,
      "Ġestablished": 4297,
      "Ġhighest": 4298,
      "Some": 4299,
      "Ġreviews": 4300,
      "Ġstatus": 4301,
      "Ġearth": 4302,
      "ĠGeneral": 4303,
      "anta": 4304,
      "ĠFlorida": 4305,
      "Ġadop": 4306,
      "Ġthank": 4307,
      "Ġcritical": 4308,
      "ĠPublic": 4309,
      "Ġvill": 4310,
      "uman": 4311,
      "Ġplus": 4312,
      "oves": 4313,
      "ĠCompany": 4314,
      "Ġextremely": 4315,
      "with": 4316,
      "aven": 4317,
      "Ġcollabor": 4318,
      "ĠHel": 4319,
      "text": 4320,
      "hens": 4321,
      "Ġincred": 4322,
      "Ġcontinu": 4323,
      "Ġsports": 4324,
      "enses": 4325,
      "Ġheavy": 4326,
      "-F": 4327,
      "Ġrepe": 4328,
      "ucky": 4329,
      "Ġconference": 4330,
      "Ġwhatever": 4331,
      "Ġattract": 4332,
      "-r": 4333,
      "Ġcharacters": 4334,
      "ĠJesus": 4335,
      "Ġpieces": 4336,
      "aming": 4337,
      "ocal": 4338,
      "ĠLife": 4339,
      "Ġremains": 4340,
      "Ġrequires": 4341,
      "Ġmodels": 4342,
      "Ġwine": 4343,
      "Ġonto": 4344,
      "Ġappoint": 4345,
      "Ġcommit": 4346,
      "Ġtrain": 4347,
      "OW": 4348,
      "gency": 4349,
      "Ġolder": 4350,
      "Ġreality": 4351,
      "Ġvirt": 4352,
      "Ġspecies": 4353,
      "ooper": 4354,
      "Ġcivil": 4355,
      "ĠSur": 4356,
      "rowd": 4357,
      "Ġafford": 4358,
      "ipped": 4359,
      "eria": 4360,
      "vere": 4361,
      "Ġton": 4362,
      "ports": 4363,
      "Ġprot": 4364,
      "Ġdriving": 4365,
      "91": 4366,
      "Do": 4367,
      "rapy": 4368,
      "ĠHist": 4369,
      "za": 4370,
      "Ġinternet": 4371,
      "OV": 4372,
      "orial": 4373,
      "roy": 4374,
      "Ġargu": 4375,
      "Ġfant": 4376,
      "Ġstream": 4377,
      "unately": 4378,
      "Ġvir": 4379,
      "iers": 4380,
      "ĠMag": 4381,
      "Ġlinks": 4382,
      "rees": 4383,
      "Ġnove": 4384,
      "ĠMary": 4385,
      "dule": 4386,
      "ĠPC": 4387,
      "Ġrare": 4388,
      "Ġconduct": 4389,
      "ĠCr": 4390,
      "Ġclaims": 4391,
      "oos": 4392,
      "Ġfinding": 4393,
      "Ġforms": 4394,
      "Ġbiggest": 4395,
      "Ġmission": 4396,
      "ĠCamp": 4397,
      "ĠST": 4398,
      "Ġdaughter": 4399,
      "ĠWhe": 4400,
      "Ġexperiences": 4401,
      "Ġworkers": 4402,
      "Ġmill": 4403,
      "ĠMount": 4404,
      "ĠSee": 4405,
      "92": 4406,
      "ĠSam": 4407,
      "Ġrefer": 4408,
      "ĠPress": 4409,
      "lim": 4410,
      "acity": 4411,
      "Ġestablish": 4412,
      "Ġdemonstr": 4413,
      "56": 4414,
      "Ġnames": 4415,
      "ĠRob": 4416,
      "Ġproduced": 4417,
      "ĠTwitter": 4418,
      "Ġactual": 4419,
      "ipp": 4420,
      "Ġbalance": 4421,
      "88": 4422,
      "94": 4423,
      "ĠChurch": 4424,
      "Ġbecomes": 4425,
      "Ġresist": 4426,
      "ĠCommission": 4427,
      "Ġmist": 4428,
      "pective": 4429,
      "ĠSub": 4430,
      "Ġtesting": 4431,
      "ĠOh": 4432,
      "Ġfactors": 4433,
      "Ġdrop": 4434,
      "ady": 4435,
      "Ġscen": 4436,
      "Ġlegisl": 4437,
      "box": 4438,
      "Ġbath": 4439,
      "Ġbeat": 4440,
      "Ġdeveloping": 4441,
      "porary": 4442,
      "Ġmanager": 4443,
      "Ġplaced": 4444,
      "ae": 4445,
      "itors": 4446,
      "ander": 4447,
      "Ġepis": 4448,
      "Ġelectric": 4449,
      "ĠScience": 4450,
      "-P": 4451,
      "-term": 4452,
      "Ġcovered": 4453,
      "ota": 4454,
      "amin": 4455,
      "ĠOpen": 4456,
      "inese": 4457,
      "rupt": 4458,
      "Ġrecords": 4459,
      "entially": 4460,
      "ss": 4461,
      "Ġdescribed": 4462,
      "CC": 4463,
      "Ġevening": 4464,
      "ĠPeople": 4465,
      "oices": 4466,
      "icine": 4467,
      "Ġrank": 4468,
      "ĠDemocr": 4469,
      "omin": 4470,
      "ĠMex": 4471,
      "Ġstandards": 4472,
      "Ġwindow": 4473,
      "Ġbow": 4474,
      "58": 4475,
      "ĠCongress": 4476,
      "Ġkeeping": 4477,
      "UR": 4478,
      "oto": 4479,
      "Ġdetermine": 4480,
      "men": 4481,
      "ĠSol": 4482,
      "Ġtherefore": 4483,
      "Ġguess": 4484,
      "Ġexperienced": 4485,
      "Ġprimary": 4486,
      "ĠBank": 4487,
      "Ġfish": 4488,
      "Ġlands": 4489,
      "ĠPhil": 4490,
      "Ġexhib": 4491,
      "Ġshowed": 4492,
      "Ġsenior": 4493,
      "berg": 4494,
      "ĠOnce": 4495,
      "Ġjournal": 4496,
      "Ġflav": 4497,
      "ĠProdu": 4498,
      "-of": 4499,
      "ĠBay": 4500,
      "estival": 4501,
      "Ġremind": 4502,
      "Ġchallenges": 4503,
      "vin": 4504,
      "ĠTom": 4505,
      "ĠEach": 4506,
      "Ġmethods": 4507,
      "Ġaim": 4508,
      "Ġpsych": 4509,
      "Ġhospital": 4510,
      "azon": 4511,
      "ror": 4512,
      "nding": 4513,
      "ĠSk": 4514,
      "ĠPlan": 4515,
      "/or": 4516,
      "atically": 4517,
      "Ġhappens": 4518,
      "TS": 4519,
      "iation": 4520,
      "Â®": 4521,
      "uled": 4522,
      "Ġfurn": 4523,
      "Ġtim": 4524,
      "ented": 4525,
      "ĠCD": 4526,
      "Ġcaused": 4527,
      "Ġsustain": 4528,
      "57": 4529,
      "86": 4530,
      "93": 4531,
      "iques": 4532,
      "gen": 4533,
      "itness": 4534,
      "iled": 4535,
      "standing": 4536,
      "annel": 4537,
      "Ġlimit": 4538,
      "Ġforget": 4539,
      "Ġsolid": 4540,
      "ĠInstitute": 4541,
      "Ġdat": 4542,
      "Ġstorage": 4543,
      "EM": 4544,
      "Ġscene": 4545,
      "olly": 4546,
      "ctors": 4547,
      "Ġvote": 4548,
      "Ġshared": 4549,
      "phone": 4550,
      "Ġgrant": 4551,
      "ette": 4552,
      "apers": 4553,
      "ĠApple": 4554,
      "Ġstick": 4555,
      "ĠClass": 4556,
      "Ġinjury": 4557,
      "Ġdirection": 4558,
      "CH": 4559,
      "Ġsecure": 4560,
      "-the": 4561,
      "gment": 4562,
      "ĠBecause": 4563,
      "ĠAmericans": 4564,
      "Ġtechnical": 4565,
      "asp": 4566,
      "ooking": 4567,
      "Ġthanks": 4568,
      "Ar": 4569,
      "ker": 4570,
      "Ġthousands": 4571,
      "Ġice": 4572,
      "From": 4573,
      "Ġstreet": 4574,
      "Ġcells": 4575,
      "Ġposted": 4576,
      "Ġacadem": 4577,
      "Ġcontinues": 4578,
      "icago": 4579,
      "reek": 4580,
      "ordin": 4581,
      "Ġcentral": 4582,
      "Ġwatching": 4583,
      "ĠAP": 4584,
      "ĠUse": 4585,
      "Ġappears": 4586,
      "fit": 4587,
      "ĠSince": 4588,
      "61": 4589,
      "Con": 4590,
      "inn": 4591,
      "ĠBre": 4592,
      "Ġfiles": 4593,
      "Ġestim": 4594,
      "Ġviews": 4595,
      "Ġtraffic": 4596,
      "Ġlaws": 4597,
      "Ġhar": 4598,
      "Ġselection": 4599,
      "Ġunit": 4600,
      "ĠBrown": 4601,
      "ĠLou": 4602,
      "Ġuseful": 4603,
      "Ġvision": 4604,
      "Ġclearly": 4605,
      "Ġwaiting": 4606,
      "Ġfashion": 4607,
      "acing": 4608,
      "Ġexercise": 4609,
      "last": 4610,
      "night": 4611,
      "Ġstation": 4612,
      "eed": 4613,
      "Ġsnow": 4614,
      "Ġpolic": 4615,
      "Ġcomfortable": 4616,
      "Ġgain": 4617,
      "Ġimpl": 4618,
      "Ġoperations": 4619,
      "Ġmanage": 4620,
      "Ġideal": 4621,
      "ugg": 4622,
      "edy": 4623,
      "ellow": 4624,
      "Ġpresented": 4625,
      "ishes": 4626,
      "NA": 4627,
      "Ġpal": 4628,
      "ĠInformation": 4629,
      "ĠGeorge": 4630,
      "overy": 4631,
      "rab": 4632,
      "53": 4633,
      "Ab": 4634,
      "ĠStar": 4635,
      "Ġhom": 4636,
      "Ġkid": 4637,
      "ĠStr": 4638,
      "Ġearn": 4639,
      "ĠEngland": 4640,
      "Ġanimals": 4641,
      "Ġbul": 4642,
      "osition": 4643,
      "Ġjourney": 4644,
      "Ġreflect": 4645,
      "Ġcrowd": 4646,
      "orney": 4647,
      "Ġthus": 4648,
      "Ġadvance": 4649,
      "Ġofficials": 4650,
      "Ġsession": 4651,
      "ĠManagement": 4652,
      "Ġguid": 4653,
      "actions": 4654,
      "ĠTor": 4655,
      "ĠCap": 4656,
      "ĠWood": 4657,
      "Ġeth": 4658,
      "estic": 4659,
      "Ġmatt": 4660,
      "Post": 4661,
      "Ġlabor": 4662,
      "Ġleaving": 4663,
      "ĠVir": 4664,
      "Ġowner": 4665,
      "lor": 4666,
      "Ġdespite": 4667,
      "ĠBlue": 4668,
      "Ġfol": 4669,
      "Ġpayment": 4670,
      "miss": 4671,
      "amily": 4672,
      "Ġvalues": 4673,
      "ĠDesign": 4674,
      "\"I": 4675,
      "bing": 4676,
      "âĢĿ.": 4677,
      "Ġcommunities": 4678,
      "More": 4679,
      "Ġradio": 4680,
      "lig": 4681,
      "iture": 4682,
      "Ġleadership": 4683,
      "Ġcatch": 4684,
      "Ġprec": 4685,
      "Ġdriver": 4686,
      "Ġwinter": 4687,
      "Ġmentioned": 4688,
      "\",": 4689,
      "Ġexclus": 4690,
      "Ġlisted": 4691,
      "Ġindependent": 4692,
      "semb": 4693,
      "Ġcoach": 4694,
      "but": 4695,
      "ĠRel": 4696,
      "ĠJo": 4697,
      "Ġended": 4698,
      "Ġshowing": 4699,
      "osure": 4700,
      "ĠCarol": 4701,
      "Ġtips": 4702,
      "Ġbrief": 4703,
      "gn": 4704,
      "Ġrap": 4705,
      "Ġmanufacture": 4706,
      "Ġbag": 4707,
      "Ġjump": 4708,
      "Ġtrial": 4709,
      "Ġcompetition": 4710,
      "Ġign": 4711,
      "Ġparties": 4712,
      "ĠDec": 4713,
      "ads": 4714,
      "Ġmajority": 4715,
      "ĠLord": 4716,
      "roud": 4717,
      "ĠSmith": 4718,
      "Ġcontains": 4719,
      "ĠUSA": 4720,
      "Ġbehavior": 4721,
      "Ġcris": 4722,
      "no": 4723,
      "84": 4724,
      "Ġcitizens": 4725,
      "ĠIns": 4726,
      "riage": 4727,
      "Ġplenty": 4728,
      "Ġlose": 4729,
      "ĠCare": 4730,
      "Ġvolunte": 4731,
      "ĠEducation": 4732,
      "Ġpractices": 4733,
      "Ġboo": 4734,
      "Why": 4735,
      "Ġelements": 4736,
      "Ġprepared": 4737,
      "Ġbought": 4738,
      "Ġspending": 4739,
      "cles": 4740,
      "ĠPet": 4741,
      "Ġkilled": 4742,
      "Ġotherwise": 4743,
      "oyal": 4744,
      "Ġmulti": 4745,
      "Ġingred": 4746,
      "Ġactions": 4747,
      "Ġsand": 4748,
      "Bl": 4749,
      "enture": 4750,
      "Ġwhom": 4751,
      "resp": 4752,
      "Ġrule": 4753,
      "Ġopened": 4754,
      "Ġgraph": 4755,
      "ĠBer": 4756,
      "Ġbutton": 4757,
      "Ġutil": 4758,
      "rd": 4759,
      "Ġfill": 4760,
      "Ġbatter": 4761,
      "Ġflu": 4762,
      "77": 4763,
      "Ġretail": 4764,
      "ĠCommittee": 4765,
      "Ġsym": 4766,
      "Ġteaching": 4767,
      "Ġgeneration": 4768,
      "66": 4769,
      "ront": 4770,
      "ĠIP": 4771,
      "Ġdecide": 4772,
      "fast": 4773,
      "ĠMain": 4774,
      "Ġtransl": 4775,
      "unction": 4776,
      "ĠClick": 4777,
      "Ġlaunch": 4778,
      "orpor": 4779,
      "cient": 4780,
      "Ġcards": 4781,
      "ĠFore": 4782,
      "alls": 4783,
      "Ġclasses": 4784,
      "ĠMicrosoft": 4785,
      "ĠIT": 4786,
      "uries": 4787,
      "which": 4788,
      "Ġsumm": 4789,
      "Ġexcited": 4790,
      "ipe": 4791,
      "Ġadding": 4792,
      "ĠDirector": 4793,
      "Ġbird": 4794,
      "Ġwaste": 4795,
      "hy": 4796,
      "Ġclosed": 4797,
      "Ġforeign": 4798,
      "Ġship": 4799,
      "Ġshopping": 4800,
      "esterday": 4801,
      "76": 4802,
      "Ġmental": 4803,
      "Ġenvironmental": 4804,
      "Ġwedding": 4805,
      "Ġconven": 4806,
      "73": 4807,
      "Ġrat": 4808,
      "Ġapprox": 4809,
      "while": 4810,
      "uke": 4811,
      "yer": 4812,
      "Ġmail": 4813,
      "Ġegg": 4814,
      "ĠLake": 4815,
      "cture": 4816,
      "Ġpray": 4817,
      "Ġfootball": 4818,
      ");": 4819,
      "ĠMake": 4820,
      "ĠChinese": 4821,
      "Ġcoverage": 4822,
      "Ġdiscover": 4823,
      "Ġsongs": 4824,
      "63": 4825,
      "ĠMal": 4826,
      "Ġreturned": 4827,
      "Ġdiscussion": 4828,
      "Ġmur": 4829,
      "Ġstarts": 4830,
      "Ġmemory": 4831,
      "Ġdepartment": 4832,
      "ception": 4833,
      "Ġhonest": 4834,
      "pan": 4835,
      "Ġbecoming": 4836,
      "Ġpassion": 4837,
      "Ġdedicated": 4838,
      "pet": 4839,
      "ĠPower": 4840,
      "gl": 4841,
      "antic": 4842,
      "aked": 4843,
      "Ġcommunication": 4844,
      "Pl": 4845,
      "Ġthrow": 4846,
      "Ġnor": 4847,
      "Ġpool": 4848,
      "âĢĺ": 4849,
      "ĠUnder": 4850,
      "Ġcorner": 4851,
      "iliar": 4852,
      "Ġcore": 4853,
      "Ġopinion": 4854,
      "Ġslightly": 4855,
      "Ġclimate": 4856,
      "Ġfamous": 4857,
      "-sh": 4858,
      "Ġfunds": 4859,
      "Ġoutd": 4860,
      "RA": 4861,
      "abilities": 4862,
      "ternal": 4863,
      "craft": 4864,
      "icon": 4865,
      "Ġwilling": 4866,
      "Ġadministration": 4867,
      "itz": 4868,
      "oles": 4869,
      "ĠAlthough": 4870,
      "Ġfourth": 4871,
      "Ġsources": 4872,
      "ĠWater": 4873,
      "Ġmostly": 4874,
      "ĠColor": 4875,
      "Ġcombination": 4876,
      "ĠAfrica": 4877,
      "Ġleaves": 4878,
      "hab": 4879,
      "olate": 4880,
      "unn": 4881,
      "Ġunc": 4882,
      "Ġspect": 4883,
      "ĠSal": 4884,
      "Ġnotes": 4885,
      "Ġselected": 4886,
      "osis": 4887,
      "Ġspring": 4888,
      "62": 4889,
      "ĠDet": 4890,
      "ildren": 4891,
      "ucle": 4892,
      "ĠMat": 4893,
      "ĠDiv": 4894,
      "Ġpoll": 4895,
      "Ġrelax": 4896,
      "lands": 4897,
      "ĠLeague": 4898,
      "Ġexpress": 4899,
      "Ġpair": 4900,
      "Ġarticles": 4901,
      "Ġmanaged": 4902,
      "Ġwelcome": 4903,
      "Ġsouth": 4904,
      "Ġserver": 4905,
      "?âĢĿ": 4906,
      "ĠMil": 4907,
      "Ġhearing": 4908,
      "outhern": 4909,
      "Ġraised": 4910,
      "Ġschedule": 4911,
      "ait": 4912,
      "Ġbattle": 4913,
      "arge": 4914,
      "Ġhandle": 4915,
      "Ġnumerous": 4916,
      "Ġsty": 4917,
      "Ġflex": 4918,
      "Ġrain": 4919,
      "Ġdocuments": 4920,
      "Ġpolicies": 4921,
      "eal": 4922,
      "Ġsoul": 4923,
      "67": 4924,
      "vention": 4925,
      "Ġreached": 4926,
      "ĠLike": 4927,
      "atures": 4928,
      "roid": 4929,
      "that": 4930,
      "ĠTy": 4931,
      "Ġdete": 4932,
      "Ġasking": 4933,
      "zen": 4934,
      "net": 4935,
      "81": 4936,
      "ĠPR": 4937,
      "Ġcraft": 4938,
      "Ġseparate": 4939,
      "BS": 4940,
      "ĠTop": 4941,
      "oop": 4942,
      "inc": 4943,
      "Ġsch": 4944,
      "ading": 4945,
      "Ġpaint": 4946,
      "Your": 4947,
      "Ġcab": 4948,
      "Ġsmaller": 4949,
      "Ġmort": 4950,
      "ĠSum": 4951,
      "ĠAlex": 4952,
      "Ġconsid": 4953,
      "Ġrestaurant": 4954,
      "Ġleads": 4955,
      "Ġlaun": 4956,
      "ya": 4957,
      "rag": 4958,
      "Ġbright": 4959,
      "Ġartist": 4960,
      "ĠFranc": 4961,
      "Ġefficient": 4962,
      "ĠTimes": 4963,
      "ferences": 4964,
      "Ġconnected": 4965,
      "Ġbuying": 4966,
      "Ġshut": 4967,
      "osh": 4968,
      "Ġpresence": 4969,
      "Ġcounter": 4970,
      "iency": 4971,
      "Ġmicro": 4972,
      "Ġminute": 4973,
      "-T": 4974,
      "Ġsugar": 4975,
      "Ġresidents": 4976,
      "Ġadvanced": 4977,
      "68": 4978,
      "ĠBob": 4979,
      "Ġsched": 4980,
      "tion": 4981,
      "ĠTur": 4982,
      "Ġalternative": 4983,
      "Ġcart": 4984,
      "Last": 4985,
      "Ġsequ": 4986,
      "Ġsexual": 4987,
      "Ġban": 4988,
      "ĠHill": 4989,
      "Ġvideos": 4990,
      "Ġdesk": 4991,
      "Ġfeels": 4992,
      "Ġestate": 4993,
      "cel": 4994,
      "ĠYes": 4995,
      "tained": 4996,
      "ĠSil": 4997,
      "Ġupdate": 4998,
      "Ġtemperature": 4999,
      "Ġtask": 5000,
      "Ġfilled": 5001,
      "Ġbrings": 5002,
      "Ġteacher": 5003,
      "Ġremove": 5004,
      "-B": 5005,
      "-re": 5006,
      "-se": 5007,
      "inct": 5008,
      "ĠChicago": 5009,
      "Ġdefense": 5010,
      "Ġprinci": 5011,
      "Me": 5012,
      "ĠJew": 5013,
      "Ġdiet": 5014,
      "ĠScott": 5015,
      "Ġcontext": 5016,
      "ĠFood": 5017,
      "Ġindic": 5018,
      "87": 5019,
      "ĠGra": 5020,
      "Ġthoughts": 5021,
      "illa": 5022,
      "Ġagency": 5023,
      "ĠOnline": 5024,
      "ĠCheck": 5025,
      "ĠWho": 5026,
      "ĠDevelopment": 5027,
      "ĠJer": 5028,
      "how": 5029,
      "ef": 5030,
      "Ġrelevant": 5031,
      "69": 5032,
      "going": 5033,
      "78": 5034,
      "water": 5035,
      "Ġmap": 5036,
      "what": 5037,
      "Ġwalking": 5038,
      "Ġfreed": 5039,
      "Ġthr": 5040,
      "Ġclassic": 5041,
      "Ġdiagn": 5042,
      "Ġforest": 5043,
      "MS": 5044,
      "Ġmo": 5045,
      "Ġshape": 5046,
      "Ġobtain": 5047,
      "Ġsounds": 5048,
      "ĠLove": 5049,
      "Ġworry": 5050,
      "BA": 5051,
      "Ġmouth": 5052,
      "Ġnorth": 5053,
      "Ġkick": 5054,
      "known": 5055,
      "89": 5056,
      "Acc": 5057,
      "Ġdut": 5058,
      "Ġwinning": 5059,
      "Ġconcerns": 5060,
      "Ġeating": 5061,
      "Ġbon": 5062,
      "ĠSa": 5063,
      "Ad": 5064,
      "ĠMad": 5065,
      "ĠJournal": 5066,
      "Ġagreement": 5067,
      "ĠTO": 5068,
      "ĠCanad": 5069,
      "ĠCentral": 5070,
      "CT": 5071,
      "Ġtaste": 5072,
      "outs": 5073,
      "Ġcars": 5074,
      "Ġperformed": 5075,
      "ĠEngine": 5076,
      "Ġdoubt": 5077,
      "ushed": 5078,
      "Ġdecisions": 5079,
      "Ġabsolutely": 5080,
      "active": 5081,
      "Ġidentify": 5082,
      "ĠParty": 5083,
      "Ġcircum": 5084,
      "IR": 5085,
      "Ġeventually": 5086,
      "Ġappeared": 5087,
      "Ġrelationships": 5088,
      "ĠEarth": 5089,
      "ini": 5090,
      "llig": 5091,
      "ĠHy": 5092,
      "cket": 5093,
      "Ġvs": 5094,
      "ĠVol": 5095,
      "obe": 5096,
      "Ġsharing": 5097,
      "Ġchanging": 5098,
      "unning": 5099,
      "Ġcommitted": 5100,
      "Ġcapacity": 5101,
      "Ġflat": 5102,
      "Ġdinner": 5103,
      "ĠAtt": 5104,
      "Ġap": 5105,
      "Ġsem": 5106,
      "ĠLear": 5107,
      "ĠNY": 5108,
      "Ġarrest": 5109,
      "Ġfacilities": 5110,
      "ĠCur": 5111,
      "Ġrid": 5112,
      "Ġunless": 5113,
      "fortunately": 5114,
      "Ġcloud": 5115,
      "Ġholiday": 5116,
      "ĠGovernment": 5117,
      "Ġsympt": 5118,
      "ixt": 5119,
      "Ġtree": 5120,
      "ĠGrand": 5121,
      "ĠUnion": 5122,
      "Ġrise": 5123,
      "ĠDistrict": 5124,
      "ĠJud": 5125,
      "igan": 5126,
      "ĠWestern": 5127,
      "Ġran": 5128,
      "Ġexperts": 5129,
      "esome": 5130,
      "ena": 5131,
      "Ġseek": 5132,
      "ĠConst": 5133,
      "cher": 5134,
      "Ġcolors": 5135,
      "-day": 5136,
      "ĠDown": 5137,
      "Ġarg": 5138,
      "Ġveget": 5139,
      "Le": 5140,
      "ĠTre": 5141,
      "Ġteachers": 5142,
      "ĠThomas": 5143,
      "71": 5144,
      "Ġbrows": 5145,
      "Ġproud": 5146,
      "ifts": 5147,
      "Ġride": 5148,
      "Ġcream": 5149,
      "poses": 5150,
      "Ġpackage": 5151,
      "Ġplants": 5152,
      "Ġjoint": 5153,
      "Cont": 5154,
      "ears": 5155,
      "state": 5156,
      "DF": 5157,
      "ga": 5158,
      "Ġspl": 5159,
      "Ġelection": 5160,
      "ĠForm": 5161,
      "icken": 5162,
      "Ġputting": 5163,
      "Ġresponsibility": 5164,
      "ki": 5165,
      "rad": 5166,
      "Ġdelic": 5167,
      "Ġposts": 5168,
      "noon": 5169,
      "ĠSociety": 5170,
      "Ġessay": 5171,
      "Ġdatab": 5172,
      "ĠMedia": 5173,
      "Ġmeasures": 5174,
      "Ġfocused": 5175,
      "Ġclim": 5176,
      "Ġpreviously": 5177,
      "Ġmarkets": 5178,
      "Ġbeauty": 5179,
      "Ġgarden": 5180,
      "83": 5181,
      "orter": 5182,
      "Ġexpensive": 5183,
      "Ġentry": 5184,
      "Ġinitial": 5185,
      "ĠLong": 5186,
      "ĠSpecial": 5187,
      "Ġlisten": 5188,
      "May": 5189,
      "ste": 5190,
      "ĠTheir": 5191,
      "osen": 5192,
      "Ġadapt": 5193,
      "coh": 5194,
      "ĠVe": 5195,
      "Ġcultural": 5196,
      "ENT": 5197,
      "ĠAND": 5198,
      "Ġaccompl": 5199,
      "Ġcorporate": 5200,
      "82": 5201,
      "Ġburn": 5202,
      "ano": 5203,
      "Ġoperating": 5204,
      "Get": 5205,
      "Ġshipping": 5206,
      "Ġsigned": 5207,
      "Ġassistance": 5208,
      "essions": 5209,
      "Ġapparent": 5210,
      "Read": 5211,
      "Ġsea": 5212,
      "Ġplays": 5213,
      "Ġminimum": 5214,
      "Ġencourage": 5215,
      "Ġfabric": 5216,
      "ye": 5217,
      "Ġnovel": 5218,
      "Ġsmooth": 5219,
      "Ġconversation": 5220,
      "IA": 5221,
      "icians": 5222,
      "tered": 5223,
      ".|Ċ": 5224,
      "ĠSing": 5225,
      "Ġconcent": 5226,
      "Ġsitu": 5227,
      "-on": 5228,
      "ĠGar": 5229,
      "Ġcompar": 5230,
      "Ġminor": 5231,
      "Ġtechniques": 5232,
      "Ġhelpful": 5233,
      "Ġformat": 5234,
      "ĠTwo": 5235,
      "74": 5236,
      "Ġguests": 5237,
      "Ġholding": 5238,
      "ĠProfess": 5239,
      "road": 5240,
      "Ġcharges": 5241,
      "ĠCommunity": 5242,
      "ii": 5243,
      "iration": 5244,
      "Ġdistance": 5245,
      "Ġcasino": 5246,
      "-D": 5247,
      "igr": 5248,
      "ĠWil": 5249,
      "ĠMel": 5250,
      "ĠFire": 5251,
      "Ġcalc": 5252,
      "Ġdecor": 5253,
      "Ġsurvey": 5254,
      "Ġdebt": 5255,
      "Ġcop": 5256,
      "Ġnine": 5257,
      "ĠWall": 5258,
      "usion": 5259,
      "gery": 5260,
      "Ġsector": 5261,
      "ulture": 5262,
      "Just": 5263,
      "ĠVirgin": 5264,
      "Ġsitting": 5265,
      "ĠToday": 5266,
      "Ġfee": 5267,
      "ĠArch": 5268,
      "ka": 5269,
      "ita": 5270,
      "ĠWin": 5271,
      "Ġalle": 5272,
      "Ġchief": 5273,
      "Ġpurposes": 5274,
      "tenance": 5275,
      "Ġexplore": 5276,
      "Ġswitch": 5277,
      "-le": 5278,
      "ĠCall": 5279,
      "ĠHam": 5280,
      "Ġvisual": 5281,
      "isher": 5282,
      "Ġupgr": 5283,
      "Ġstre": 5284,
      "Ġselling": 5285,
      "Ġhttps": 5286,
      "____": 5287,
      "Ġdrugs": 5288,
      "Ġinfluence": 5289,
      "Ġmanner": 5290,
      "ĠRobert": 5291,
      "arrant": 5292,
      "ĠMrs": 5293,
      "Every": 5294,
      "ĠWomen": 5295,
      "ĠThanks": 5296,
      "Ġdecades": 5297,
      "Ġcities": 5298,
      "Ġintended": 5299,
      "ĠQue": 5300,
      "-free": 5301,
      "Ġsets": 5302,
      "Ġju": 5303,
      "Ġwire": 5304,
      "rehens": 5305,
      "aser": 5306,
      "Ġexplain": 5307,
      "ĠAmazon": 5308,
      "oma": 5309,
      "ĠBack": 5310,
      "ĠElect": 5311,
      "Ġarm": 5312,
      "Ġintellig": 5313,
      "ĠSocial": 5314,
      "ĠGerman": 5315,
      "Ġprofessionals": 5316,
      "umber": 5317,
      "Ġexciting": 5318,
      "Des": 5319,
      "Ġspons": 5320,
      "Ġneighbor": 5321,
      "Ġfemale": 5322,
      "Ġallowing": 5323,
      "Ġoptim": 5324,
      "ructure": 5325,
      "Ġwriter": 5326,
      "ĠAtl": 5327,
      "Ġdogs": 5328,
      "ĠJeff": 5329,
      "ums": 5330,
      "ocolate": 5331,
      "Ġarchite": 5332,
      "Ġfuel": 5333,
      "Ġpm": 5334,
      "ĠBet": 5335,
      "ĠSecret": 5336,
      "OD": 5337,
      "Ġfriendly": 5338,
      "ĠFoundation": 5339,
      "ĠPay": 5340,
      "Ġnoted": 5341,
      "Ġshock": 5342,
      "ĠFrance": 5343,
      "Ġrooms": 5344,
      "idden": 5345,
      "ship": 5346,
      "you": 5347,
      "âĢľThe": 5348,
      "Ġinternal": 5349,
      "Well": 5350,
      "isation": 5351,
      "odies": 5352,
      "Ġproperly": 5353,
      "Ġenjoyed": 5354,
      "ĠMcC": 5355,
      "Ġproposed": 5356,
      "kins": 5357,
      "Ġseconds": 5358,
      "Ġoperation": 5359,
      "Ġtells": 5360,
      "ĠMusic": 5361,
      "ĠCEO": 5362,
      "Ġmotor": 5363,
      "Ġfruit": 5364,
      "cuit": 5365,
      "Ġchair": 5366,
      "ĠUN": 5367,
      "Ġmarried": 5368,
      "ĠValley": 5369,
      "79": 5370,
      "aid": 5371,
      "Ġfif": 5372,
      "Ġeditor": 5373,
      "Ġsupposed": 5374,
      "However": 5375,
      "Ġsav": 5376,
      "Ġraise": 5377,
      "Ġmissing": 5378,
      "ĠRE": 5379,
      "Ġsteel": 5380,
      "ĠJoe": 5381,
      "Ġreaders": 5382,
      "Ġtransform": 5383,
      "Ġforg": 5384,
      "uration": 5385,
      "ĠBur": 5386,
      "ĠDig": 5387,
      "orthern": 5388,
      "Ġscale": 5389,
      "Ġimpress": 5390,
      "Ġpossibly": 5391,
      "Ġtotally": 5392,
      "Ġreligious": 5393,
      "ĠÃ": 5394,
      "Ġchemical": 5395,
      "rim": 5396,
      "Ġder": 5397,
      "Ġcalling": 5398,
      "Ġmotiv": 5399,
      "Phone": 5400,
      "Ġremoved": 5401,
      "Ġproperties": 5402,
      "PA": 5403,
      "Ġmovies": 5404,
      "Ġyouth": 5405,
      "Ġstopped": 5406,
      "ushing": 5407,
      "ĠDef": 5408,
      "Ġcaught": 5409,
      "Ġcommand": 5410,
      "----": 5411,
      "Ġfunding": 5412,
      "Ġanimal": 5413,
      "Ġparking": 5414,
      "ĠMer": 5415,
      "ĠIts": 5416,
      "Ġserving": 5417,
      "ĠShow": 5418,
      "Ġresearc": 5419,
      "Ġmir": 5420,
      "SA": 5421,
      "Ġpush": 5422,
      "ĠExper": 5423,
      "anda": 5424,
      "ĠJim": 5425,
      "Ġourselves": 5426,
      "idential": 5427,
      "Ġtrees": 5428,
      "ĠAfrican": 5429,
      "umin": 5430,
      "ĠReal": 5431,
      "Ġbusy": 5432,
      "Ġnegative": 5433,
      "kin": 5434,
      "Ġreference": 5435,
      "okes": 5436,
      "rolled": 5437,
      "Ġfacility": 5438,
      "ĠDri": 5439,
      "Ġvan": 5440,
      "ograp": 5441,
      "ĠDi": 5442,
      "Ġuns": 5443,
      "Ġinstance": 5444,
      "Ġ>": 5445,
      "Ġmine": 5446,
      "Ġrepair": 5447,
      "Ġhero": 5448,
      "Ġafternoon": 5449,
      "Ġsigns": 5450,
      "raq": 5451,
      "Ġfamiliar": 5452,
      "PR": 5453,
      "ivered": 5454,
      "ĠVis": 5455,
      "Ġlived": 5456,
      "Ġliber": 5457,
      "Ġang": 5458,
      "Ġath": 5459,
      "Ġfailed": 5460,
      "Ġprop": 5461,
      "Ġartists": 5462,
      "Ġtypically": 5463,
      "arian": 5464,
      "ario": 5465,
      "-th": 5466,
      "Ġdie": 5467,
      "ĠTim": 5468,
      "ĠPeter": 5469,
      "Ġspeech": 5470,
      "Ġbelief": 5471,
      "Ġforced": 5472,
      "Ġdepos": 5473,
      "ĠLos": 5474,
      "ĠId": 5475,
      "Ġphil": 5476,
      "under": 5477,
      "ala": 5478,
      "Ġmedium": 5479,
      "Ġtrouble": 5480,
      "uce": 5481,
      "word": 5482,
      "Ġrecip": 5483,
      "Ġimportance": 5484,
      "Ġjoined": 5485,
      "ĠNetwork": 5486,
      "Add": 5487,
      "Ġcontem": 5488,
      "âĢľWe": 5489,
      "Ġinterests": 5490,
      "ĠMass": 5491,
      "Ġkill": 5492,
      "Ġquiet": 5493,
      "Ġintroduced": 5494,
      "Ġpredict": 5495,
      "UN": 5496,
      "ius": 5497,
      "alog": 5498,
      "Ġprison": 5499,
      "pected": 5500,
      "ĠProject": 5501,
      "ommod": 5502,
      "ĠReport": 5503,
      ".âĢĻ": 5504,
      "Yes": 5505,
      "bour": 5506,
      "Ġpun": 5507,
      "Ġyesterday": 5508,
      "Ġaccident": 5509,
      "Ġapproximately": 5510,
      "Ġdance": 5511,
      "ems": 5512,
      "According": 5513,
      "Ġrevenue": 5514,
      "Ġexchange": 5515,
      "Ġsuit": 5516,
      "ĠIsl": 5517,
      "Ste": 5518,
      "Ġprocesses": 5519,
      "ĠTeam": 5520,
      "Let": 5521,
      "Ġterror": 5522,
      "Ġweap": 5523,
      "ĠAward": 5524,
      "bert": 5525,
      "Ġroof": 5526,
      "Ġgreatest": 5527,
      "wo": 5528,
      "Ġment": 5529,
      "ĠTest": 5530,
      "Ġstret": 5531,
      "prise": 5532,
      "ĠOnly": 5533,
      "ĠOrgan": 5534,
      "Ġlabel": 5535,
      ".e": 5536,
      "lets": 5537,
      "oses": 5538,
      "ampionship": 5539,
      "den": 5540,
      "Ġseat": 5541,
      "alled": 5542,
      "ĠGermany": 5543,
      "atin": 5544,
      "Ġstated": 5545,
      "yan": 5546,
      "ilding": 5547,
      "phas": 5548,
      "Ġlocations": 5549,
      "Ġsupported": 5550,
      "Ġtechnologies": 5551,
      "erg": 5552,
      "Ġmarriage": 5553,
      "Ġturns": 5554,
      "ĠTrump": 5555,
      "Ġgall": 5556,
      "ĠNov": 5557,
      "Ġworse": 5558,
      "Ġinfe": 5559,
      "ĠMot": 5560,
      "Ġtopic": 5561,
      "Ġdistrict": 5562,
      "Ġingredients": 5563,
      "LC": 5564,
      "Ġspecifically": 5565,
      "Ġbound": 5566,
      "Ġeffic": 5567,
      "ĠCustom": 5568,
      "ĠStand": 5569,
      "Ġeducational": 5570,
      "VD": 5571,
      "Ġconfig": 5572,
      "Ġbroken": 5573,
      "Ġrapid": 5574,
      "Ġdu": 5575,
      "ĠDuring": 5576,
      "Ġarrange": 5577,
      "uable": 5578,
      "orry": 5579,
      "Ġlunch": 5580,
      "ĠAD": 5581,
      "Ġtwice": 5582,
      "Ġorders": 5583,
      "Ġbeach": 5584,
      "otic": 5585,
      "Ġquant": 5586,
      "cluding": 5587,
      "Ġtelling": 5588,
      "Ġriver": 5589,
      "ĠTake": 5590,
      "ĠFil": 5591,
      "Ġcourses": 5592,
      "Ġsuppl": 5593,
      "ĠWilliam": 5594,
      "Ġadults": 5595,
      "Ġtight": 5596,
      "cean": 5597,
      "Ġincorpor": 5598,
      "Ġcauses": 5599,
      "Ġdetailed": 5600,
      "rical": 5601,
      "Ġtow": 5602,
      "Ġforces": 5603,
      "ĠHen": 5604,
      "cipe": 5605,
      "Ġassum": 5606,
      "Ġpromote": 5607,
      "iminal": 5608,
      "Ġpicked": 5609,
      "Ġbegins": 5610,
      "ĠData": 5611,
      "ĠAccording": 5612,
      "ĠAcadem": 5613,
      "Ġinput": 5614,
      "Ġseeking": 5615,
      "gypt": 5616,
      "Ġagreed": 5617,
      "Ġamb": 5618,
      "Ġwitness": 5619,
      "ĠIraq": 5620,
      "ĠRad": 5621,
      "-pro": 5622,
      "FL": 5623,
      "Ġlibrary": 5624,
      "Ġconsequ": 5625,
      "Ġconsumers": 5626,
      "Ġapplied": 5627,
      "ĠID": 5628,
      "ĠDou": 5629,
      "Ġjudge": 5630,
      "Ġcircumst": 5631,
      "igation": 5632,
      "Ġmetal": 5633,
      "Ġconflic": 5634,
      "Ġcategory": 5635,
      "Ġtrib": 5636,
      "Ġstores": 5637,
      "Ġconcerned": 5638,
      "Ġloan": 5639,
      "Ġdollars": 5640,
      "Ġsymptoms": 5641,
      ")||": 5642,
      "Ġune": 5643,
      "Ġends": 5644,
      "ria": 5645,
      "ĠLead": 5646,
      "OC": 5647,
      "ĠHol": 5648,
      "Ġrecommended": 5649,
      "Ġmenu": 5650,
      "ĠStep": 5651,
      "Ġfreedom": 5652,
      "Ġarrived": 5653,
      ".A": 5654,
      "-L": 5655,
      "iest": 5656,
      "Ġtough": 5657,
      "Ġmale": 5658,
      "Ġsport": 5659,
      "Ġremark": 5660,
      "Ġfort": 5661,
      "istan": 5662,
      "Ġlandsc": 5663,
      "Ġsalt": 5664,
      "ĠIll": 5665,
      "Ġunf": 5666,
      "ometimes": 5667,
      "kes": 5668,
      "Ġaid": 5669,
      "Ġfly": 5670,
      "edia": 5671,
      "ĠFund": 5672,
      "Ġneck": 5673,
      "ultural": 5674,
      "Ġvalid": 5675,
      "Ġdraft": 5676,
      "rooms": 5677,
      "dden": 5678,
      "Ġschol": 5679,
      "Ġgather": 5680,
      "Ġstars": 5681,
      "Ġtheme": 5682,
      "Ġaffected": 5683,
      "Ġcrisis": 5684,
      "Ġdial": 5685,
      "ĠFort": 5686,
      "agram": 5687,
      "Ġcheap": 5688,
      "Ġdiscovered": 5689,
      "Ġedge": 5690,
      "uts": 5691,
      "ĠMont": 5692,
      "aks": 5693,
      "Ġanywhere": 5694,
      "iat": 5695,
      "ĠCath": 5696,
      "ĠMS": 5697,
      "Ġvary": 5698,
      "Ġdesigns": 5699,
      "cohol": 5700,
      "Ġweak": 5701,
      "ĠExp": 5702,
      "Ġoccup": 5703,
      "Ġspiritual": 5704,
      "Ne": 5705,
      "een": 5706,
      "ĠJose": 5707,
      "Ġdesire": 5708,
      "arsh": 5709,
      "Ġrealize": 5710,
      "ĠHistory": 5711,
      "Ġepisode": 5712,
      "oted": 5713,
      "Ġdisp": 5714,
      "Ġemployee": 5715,
      "ingly": 5716,
      "Ġfees": 5717,
      "Ġemp": 5718,
      "Ġcombined": 5719,
      "burg": 5720,
      "Ġprofile": 5721,
      "ĠFrank": 5722,
      "Ġthick": 5723,
      "ĠDen": 5724,
      "Ġextensive": 5725,
      "Ġvolume": 5726,
      "rip": 5727,
      "Ġveter": 5728,
      "Ġstanding": 5729,
      "ĠSeries": 5730,
      "Ġprocedure": 5731,
      "lock": 5732,
      "orough": 5733,
      "Ġdyn": 5734,
      "ĠAS": 5735,
      "rier": 5736,
      "ĠOld": 5737,
      "Ġteach": 5738,
      "ĠInvest": 5739,
      "ensions": 5740,
      "Ġdiscount": 5741,
      "Ġpanel": 5742,
      "hetic": 5743,
      "osoph": 5744,
      "ulty": 5745,
      "Ġflight": 5746,
      "Ġbelong": 5747,
      "ĠLouis": 5748,
      "/s": 5749,
      "rick": 5750,
      "ĠMike": 5751,
      "Ġacademic": 5752,
      "Ġlaunched": 5753,
      "Ġsymb": 5754,
      "Ġphotograph": 5755,
      "Ġemergency": 5756,
      "ht": 5757,
      "kay": 5758,
      "aded": 5759,
      "Ġexecutive": 5760,
      "ĠJones": 5761,
      "ĠCharl": 5762,
      "Ġplastic": 5763,
      "Ġconsidering": 5764,
      "ĠCup": 5765,
      "Ġfailure": 5766,
      "ĠLight": 5767,
      "ĠLind": 5768,
      "nect": 5769,
      "Any": 5770,
      "Ġdelivered": 5771,
      "Ġyes": 5772,
      "Ġaspects": 5773,
      "Ġbrown": 5774,
      "-and": 5775,
      "Ġunits": 5776,
      "Ġtests": 5777,
      "eper": 5778,
      "Ġpure": 5779,
      "Ġconfidence": 5780,
      "Ġtelevision": 5781,
      "Ġgro": 5782,
      "ĠPerson": 5783,
      "ĠExt": 5784,
      "Ġaccommod": 5785,
      "Ġimproved": 5786,
      "ideo": 5787,
      "ĠChris": 5788,
      "Ġannounce": 5789,
      "Ġoccasion": 5790,
      "ĠAngeles": 5791,
      "LA": 5792,
      "Ġliqu": 5793,
      "ĠMic": 5794,
      "Ġsudden": 5795,
      "Ġrub": 5796,
      "Ġviolence": 5797,
      "Ġenhance": 5798,
      "DS": 5799,
      "En": 5800,
      "Ġbigger": 5801,
      "Ġauthority": 5802,
      "Ġwindows": 5803,
      "Ġcounty": 5804,
      "ĠCanadian": 5805,
      "iser": 5806,
      "raig": 5807,
      "ĠFederal": 5808,
      "Ġdecre": 5809,
      "Ġwebsites": 5810,
      "Ġbringing": 5811,
      "Ġdepending": 5812,
      "Ġine": 5813,
      "ĠCard": 5814,
      "tters": 5815,
      "iveness": 5816,
      "-R": 5817,
      "Ġagencies": 5818,
      "Ġprocessing": 5819,
      "Ġelimin": 5820,
      "Ġregistered": 5821,
      "uclear": 5822,
      "ĠHuman": 5823,
      "Ġsquare": 5824,
      "Ġhun": 5825,
      "Ġtruck": 5826,
      "ĠHD": 5827,
      "ossible": 5828,
      "nergy": 5829,
      "ĠBeach": 5830,
      "Ġvisitors": 5831,
      "ĠParis": 5832,
      "Ġtables": 5833,
      "ĠWord": 5834,
      "ocation": 5835,
      "Ġwealth": 5836,
      "Ġagent": 5837,
      "ĠCarolina": 5838,
      "ĠPan": 5839,
      "Ġaudio": 5840,
      "-H": 5841,
      "Ġconstit": 5842,
      "Ġadvertising": 5843,
      "About": 5844,
      "ĠLin": 5845,
      "Most": 5846,
      "ician": 5847,
      "ĠFamily": 5848,
      "aped": 5849,
      "respond": 5850,
      "mes": 5851,
      "ĠMatt": 5852,
      "Ġsupporting": 5853,
      "Ġfactor": 5854,
      "Ġdefend": 5855,
      "reens": 5856,
      "Ġmaximum": 5857,
      "App": 5858,
      "life": 5859,
      "Ġscientific": 5860,
      ":||": 5861,
      "UT": 5862,
      "Ġsevere": 5863,
      "Ġaccounts": 5864,
      "Ġ<": 5865,
      "II": 5866,
      "ias": 5867,
      "rack": 5868,
      "ĠHaw": 5869,
      "ĠLab": 5870,
      "opyright": 5871,
      "Can": 5872,
      "ĠNor": 5873,
      "Ġcarried": 5874,
      "Ġswim": 5875,
      "Ġtreated": 5876,
      "ĠMexico": 5877,
      "EE": 5878,
      "top": 5879,
      "cipl": 5880,
      "Ġcomprehens": 5881,
      "ĠConference": 5882,
      "Ġdomin": 5883,
      "Us": 5884,
      "Ġlit": 5885,
      "ĠWay": 5886,
      "Ġappearance": 5887,
      "Ġfurniture": 5888,
      "ket": 5889,
      "Ġsam": 5890,
      "Ġwal": 5891,
      "ĠCy": 5892,
      "irty": 5893,
      "ĠGen": 5894,
      "Ġapproved": 5895,
      "ĠMartin": 5896,
      "friend": 5897,
      "Ġresol": 5898,
      "Ġexplained": 5899,
      "Ġcomponents": 5900,
      "ĠProte": 5901,
      "Ġchain": 5902,
      "Ġboost": 5903,
      "ĠAL": 5904,
      "acks": 5905,
      "ih": 5906,
      "ĠFind": 5907,
      "ĠNC": 5908,
      "Ġdiscl": 5909,
      "Ġmagn": 5910,
      "iability": 5911,
      "Ġbike": 5912,
      "ĠSand": 5913,
      "ĠBoth": 5914,
      "ighter": 5915,
      "Ġperman": 5916,
      "azz": 5917,
      "Ġfilms": 5918,
      "Ġinspired": 5919,
      "Ġodd": 5920,
      "ĠAT": 5921,
      "ployment": 5922,
      "Ġreduced": 5923,
      "Ġhundreds": 5924,
      "Ġinvestigation": 5925,
      "Ġstrategies": 5926,
      "abet": 5927,
      "ĠJul": 5928,
      "ĠKore": 5929,
      "oking": 5930,
      "hors": 5931,
      "ĠHave": 5932,
      "Ġconfirm": 5933,
      ".last": 5934,
      "Che": 5935,
      "Ġsad": 5936,
      "Ġwearing": 5937,
      "Ġpoly": 5938,
      "Ġcrime": 5939,
      "Ġaccepted": 5940,
      "ania": 5941,
      "Ġprovider": 5942,
      "related": 5943,
      "-cl": 5944,
      "Ġfaster": 5945,
      "rastructure": 5946,
      "Ġcommitment": 5947,
      "igration": 5948,
      "ĠOffic": 5949,
      "ĠYOU": 5950,
      "Ġregister": 5951,
      "Ġcleaning": 5952,
      "ĠTechnology": 5953,
      ".lastname": 5954,
      "ĠRev": 5955,
      "Ġbuildings": 5956,
      "ĠEnter": 5957,
      "icit": 5958,
      "asks": 5959,
      "Ġhabit": 5960,
      "Ġunivers": 5961,
      "Ġcoast": 5962,
      "ĠVirginia": 5963,
      "Or": 5964,
      "oster": 5965,
      "ache": 5966,
      "aren": 5967,
      "Ġconsumer": 5968,
      "Ġperspective": 5969,
      "Ġfeedback": 5970,
      "Ġfle": 5971,
      "Ġring": 5972,
      "ĠVer": 5973,
      "Ġcrew": 5974,
      "Ġrestrict": 5975,
      "ĠGlobal": 5976,
      "Ġadministr": 5977,
      "irmed": 5978,
      "ĠMax": 5979,
      "Ġmere": 5980,
      "ĠAdminist": 5981,
      "lla": 5982,
      "ĠEgypt": 5983,
      "Ġshares": 5984,
      "Ġjoy": 5985,
      "Ġinstitutions": 5986,
      "Ġsister": 5987,
      "ĠStart": 5988,
      "Ġhighlight": 5989,
      "Ġhistorical": 5990,
      "bre": 5991,
      "Ġtro": 5992,
      "Ġrecorded": 5993,
      "Ġfoods": 5994,
      "Ġhonor": 5995,
      "Ġboys": 5996,
      "ĠSenate": 5997,
      "Ġ.Ċ": 5998,
      "ĠIr": 5999,
      "ĠLast": 6000,
      "Ġkeeps": 6001,
      "Ġdestroy": 6002,
      "nov": 6003,
      "ĠImp": 6004,
      "ownt": 6005,
      "Ġstorm": 6006,
      "ĠGame": 6007,
      "Ġdatabase": 6008,
      "ĠList": 6009,
      "Ġtaxes": 6010,
      "Ġawesome": 6011,
      "Ġhousing": 6012,
      "Ġhur": 6013,
      "Ġmeat": 6014,
      "Ġparticipate": 6015,
      "Ġengineering": 6016,
      "owing": 6017,
      "ĠMuseum": 6018,
      "ĠView": 6019,
      "Ġjustice": 6020,
      "ibilities": 6021,
      "Ġresource": 6022,
      "ĠRepublican": 6023,
      "ĠDan": 6024,
      "Ġhousehold": 6025,
      "Ġfields": 6026,
      "Ġcloser": 6027,
      "(s": 6028,
      "Ġleague": 6029,
      "Ġemphas": 6030,
      "Ġinstalled": 6031,
      "Ġdetermined": 6032,
      "Ġrough": 6033,
      "ĠOper": 6034,
      "Ġfunctions": 6035,
      "Ġpresentation": 6036,
      "ĠSecurity": 6037,
      "ĠAri": 6038,
      "Ġchapter": 6039,
      "Ġfavour": 6040,
      "Ġfellow": 6041,
      "ĠPac": 6042,
      "ĠPenn": 6043,
      "ĠJohnson": 6044,
      "Am": 6045,
      "Ġsides": 6046,
      "ĠCat": 6047,
      "Ġuniversity": 6048,
      "utional": 6049,
      "AG": 6050,
      "Ġped": 6051,
      "Ġlux": 6052,
      "Ġabuse": 6053,
      "Ġusual": 6054,
      "ĠThank": 6055,
      "Ġremaining": 6056,
      ".'": 6057,
      "Ġshoes": 6058,
      "Ġconcern": 6059,
      "Qu": 6060,
      "Ġteen": 6061,
      "Ġemployment": 6062,
      "prene": 6063,
      "pot": 6064,
      "oration": 6065,
      "Ġmal": 6066,
      "Ġnone": 6067,
      "ĠProv": 6068,
      "Ġmaintenance": 6069,
      "Ġofficer": 6070,
      "Ġinstallation": 6071,
      "clusion": 6072,
      "ĠCorpor": 6073,
      "Ġdangerous": 6074,
      "Ġsample": 6075,
      "ilit": 6076,
      "ulous": 6077,
      "Ġidentified": 6078,
      "Ġmotion": 6079,
      "Ġsettings": 6080,
      "Ġtiss": 6081,
      "Ġequal": 6082,
      "ĠMedical": 6083,
      "Ġking": 6084,
      "Ġcritic": 6085,
      "Ġrom": 6086,
      "pret": 6087,
      "Ġec": 6088,
      "ifications": 6089,
      "Ġvictory": 6090,
      "Ġmatters": 6091,
      "Ġerror": 6092,
      "Ġtaught": 6093,
      "arrow": 6094,
      "ĠWild": 6095,
      "Ġeffectively": 6096,
      "Ġtheory": 6097,
      "estyle": 6098,
      "Ġven": 6099,
      "Ġherself": 6100,
      "Ġgrade": 6101,
      "First": 6102,
      "met": 6103,
      "Ġbond": 6104,
      "Ġstim": 6105,
      "ĠPub": 6106,
      "ĠVict": 6107,
      "ĠâĢ¢": 6108,
      "Ġapps": 6109,
      "Ġcreation": 6110,
      "Ġboat": 6111,
      "Ġupdates": 6112,
      "Ġfantastic": 6113,
      "CE": 6114,
      "Ġaf": 6115,
      "hent": 6116,
      "Ġshooting": 6117,
      "anged": 6118,
      "Ġlayer": 6119,
      "Res": 6120,
      "look": 6121,
      "Ġfold": 6122,
      "Ġrecipe": 6123,
      "elines": 6124,
      "ansas": 6125,
      "Ġrot": 6126,
      "Ġtradition": 6127,
      "Ġclinical": 6128,
      "Ġcro": 6129,
      "arp": 6130,
      "erves": 6131,
      "Ġrow": 6132,
      "ournament": 6133,
      "Ġbutter": 6134,
      "Ġenem": 6135,
      "ĠMo": 6136,
      "never": 6137,
      "Ġspeaking": 6138,
      "Ġcommission": 6139,
      "Ġflo": 6140,
      "Ġexamples": 6141,
      "Oh": 6142,
      "ĠSteve": 6143,
      "Ġentirely": 6144,
      "See": 6145,
      "enced": 6146,
      "Ġremote": 6147,
      "ĠMinister": 6148,
      "Ġrevealed": 6149,
      "Ġimagine": 6150,
      "ĠMountain": 6151,
      "ĠColorado": 6152,
      "reprene": 6153,
      "Ġcolour": 6154,
      "Ġfollows": 6155,
      "Ġmilk": 6156,
      "Ġvehicles": 6157,
      "ĠWal": 6158,
      "Ġworldwide": 6159,
      "Ġsky": 6160,
      "Ġreturns": 6161,
      "Ġvacc": 6162,
      "Ġlicense": 6163,
      "Ġemotional": 6164,
      "Ġcircumstances": 6165,
      "point": 6166,
      "Ġsole": 6167,
      "amber": 6168,
      "race": 6169,
      "CA": 6170,
      "ĠAustralian": 6171,
      "Ġautomatically": 6172,
      "Ke": 6173,
      "han": 6174,
      "list": 6175,
      "Ġprotected": 6176,
      "Ġinvestors": 6177,
      "Ġprepare": 6178,
      "Ġsubstant": 6179,
      "Ġtack": 6180,
      "Ġelement": 6181,
      "Ġplanned": 6182,
      "Ġcriminal": 6183,
      "Up": 6184,
      "xi": 6185,
      "Ġsan": 6186,
      "Ġrecovery": 6187,
      "Ġrelatively": 6188,
      "Ġdram": 6189,
      "Ġholds": 6190,
      "Ġappeal": 6191,
      "iams": 6192,
      "Ġwarrant": 6193,
      "Ġmut": 6194,
      "ĠAR": 6195,
      "Ġlights": 6196,
      "ĠSecond": 6197,
      "Ġsignificantly": 6198,
      "Ġfulf": 6199,
      "ĠLim": 6200,
      "Ġunlike": 6201,
      "Ġpregn": 6202,
      "Su": 6203,
      "Ġelig": 6204,
      "Ġpublish": 6205,
      "........": 6206,
      "Ġmassive": 6207,
      "Ĥ¬": 6208,
      "inem": 6209,
      "Ġcooper": 6210,
      "Ġlaugh": 6211,
      "anger": 6212,
      "Ġmusical": 6213,
      "Ġpaying": 6214,
      "Ġattacks": 6215,
      "Ġobvious": 6216,
      "Ġtast": 6217,
      "Ġfacts": 6218,
      "Ġissued": 6219,
      "GB": 6220,
      "pass": 6221,
      "Ġexcess": 6222,
      "oston": 6223,
      "Ġcontro": 6224,
      "Ġmoments": 6225,
      "Ġroute": 6226,
      "ĠMaster": 6227,
      "Ġsurgery": 6228,
      "Ġinnovation": 6229,
      "ĠLand": 6230,
      "Ġoutput": 6231,
      "Click": 6232,
      "esh": 6233,
      "Ġnav": 6234,
      "ĠBush": 6235,
      "Ġenable": 6236,
      "Ġrecognized": 6237,
      ".D": 6238,
      "ĠON": 6239,
      "Ġguest": 6240,
      "ĠiPhone": 6241,
      "Ġhappening": 6242,
      "Ġupdated": 6243,
      "Ġsurprise": 6244,
      "mosp": 6245,
      "Ġyards": 6246,
      "Ġnoticed": 6247,
      "Ġincreases": 6248,
      "Since": 6249,
      "Ġwid": 6250,
      "Ġtom": 6251,
      "asts": 6252,
      "Ġindustrial": 6253,
      "Ġcutting": 6254,
      "Ġfolks": 6255,
      "ĠWhere": 6256,
      "rum": 6257,
      "lymp": 6258,
      "ĠTour": 6259,
      "otes": 6260,
      "Ġchat": 6261,
      "Ġchosen": 6262,
      "Ġworst": 6263,
      "Ġpractical": 6264,
      "Ġcrazy": 6265,
      "Ġbrands": 6266,
      "iors": 6267,
      "ĠLog": 6268,
      "ĠInf": 6269,
      "Ġsurf": 6270,
      "Ġpolitics": 6271,
      "ĠBrand": 6272,
      "ĠGirl": 6273,
      "ĠEconom": 6274,
      "Ġchoices": 6275,
      "Ġrand": 6276,
      "Ġcentre": 6277,
      "appy": 6278,
      "Ġcycle": 6279,
      "EW": 6280,
      "Ind": 6281,
      "ĠBas": 6282,
      "odd": 6283,
      "rics": 6284,
      "Ġpositions": 6285,
      "Ġcompetitive": 6286,
      "Ġtickets": 6287,
      "Ġextended": 6288,
      "Other": 6289,
      "Ħ¢": 6290,
      "Ġcable": 6291,
      "Ġregul": 6292,
      "comm": 6293,
      "atre": 6294,
      "ĠIran": 6295,
      "ĠSto": 6296,
      "ĠPass": 6297,
      "ogue": 6298,
      "Ġworksh": 6299,
      "Ġsimpl": 6300,
      "Ġhealthcare": 6301,
      "Ġreceiving": 6302,
      "ĠPlus": 6303,
      "secut": 6304,
      "Ġfixed": 6305,
      "Ġturning": 6306,
      "hus": 6307,
      "Ġgrew": 6308,
      "Then": 6309,
      "Ġarms": 6310,
      "eah": 6311,
      "vy": 6312,
      "Ġmel": 6313,
      "Ġgrab": 6314,
      "Ġanswers": 6315,
      "iner": 6316,
      "ĠHead": 6317,
      "Ġformed": 6318,
      "Ġwinner": 6319,
      "Ġprotein": 6320,
      "ĠPolice": 6321,
      "Ġillustr": 6322,
      "ĠAud": 6323,
      "ĠBi": 6324,
      "Ġparticipants": 6325,
      "ĠMichigan": 6326,
      "Ġentertainment": 6327,
      "ensity": 6328,
      "Ġmode": 6329,
      "ÃŃ": 6330,
      "Ġwheel": 6331,
      "ĠMiddle": 6332,
      "Ġdistribution": 6333,
      "Ġresearchers": 6334,
      "Fr": 6335,
      "rete": 6336,
      "Ġcharged": 6337,
      "-ch": 6338,
      "west": 6339,
      "ĠCert": 6340,
      "ola": 6341,
      "ĠPage": 6342,
      "ĠWeek": 6343,
      "Ġmagazine": 6344,
      "?\"": 6345,
      "osite": 6346,
      "Ġconserv": 6347,
      "ĠGeorg": 6348,
      "alian": 6349,
      "Ġkinds": 6350,
      "Ġmissed": 6351,
      "Ġdisappoint": 6352,
      "FC": 6353,
      "cribe": 6354,
      "Ġupper": 6355,
      "Ġattorney": 6356,
      "Ġscheduled": 6357,
      "hi": 6358,
      "ĠNOT": 6359,
      "arts": 6360,
      "Ġscript": 6361,
      "Ġguitar": 6362,
      "Ġadvoc": 6363,
      "Ġofficers": 6364,
      "Ġpurchased": 6365,
      "ĠInstead": 6366,
      "real": 6367,
      "Ġshift": 6368,
      "Ġlovely": 6369,
      "rate": 6370,
      "gend": 6371,
      "Ġreput": 6372,
      "Ġtrading": 6373,
      "Ġdebate": 6374,
      "ollywood": 6375,
      "Ġforth": 6376,
      "Ġcarbon": 6377,
      "Ġconstantly": 6378,
      "Ġreasonable": 6379,
      "Ġregularly": 6380,
      "Go": 6381,
      "ML": 6382,
      "bi": 6383,
      "Ġdim": 6384,
      "ĠBoy": 6385,
      "ĠFarm": 6386,
      "ĠEnergy": 6387,
      "Ġrandom": 6388,
      "cknow": 6389,
      "Ġupcoming": 6390,
      "Ġknowing": 6391,
      "Ġregional": 6392,
      "Ġoblig": 6393,
      "Ġcomprehensive": 6394,
      "Ġbread": 6395,
      "ĠAccess": 6396,
      "Ã¡": 6397,
      "Ġpu": 6398,
      "Ġcoordin": 6399,
      "ĠDev": 6400,
      "cers": 6401,
      "Ġhurt": 6402,
      "Ġcorrespond": 6403,
      "SP": 6404,
      "ĠTown": 6405,
      "ĠAndroid": 6406,
      "ĠSupport": 6407,
      "Ġdomestic": 6408,
      "Ġinnovative": 6409,
      "ĠDigital": 6410,
      "Ġsac": 6411,
      "ito": 6412,
      "eless": 6413,
      "zil": 6414,
      "Ġsick": 6415,
      "Ġdoors": 6416,
      "Ġsyn": 6417,
      "Ġguard": 6418,
      "icial": 6419,
      "Ġproceed": 6420,
      "ĠAsia": 6421,
      "Ġbelieved": 6422,
      "Ġprocedures": 6423,
      "Ġincredible": 6424,
      "oti": 6425,
      "rible": 6426,
      "Ġvaluable": 6427,
      "Ġidentity": 6428,
      "ĠMa": 6429,
      "abled": 6430,
      "Ġowned": 6431,
      "Ġmuscle": 6432,
      "Ġcooking": 6433,
      "Ġsilver": 6434,
      "awn": 6435,
      "Ġtherapy": 6436,
      "ĠJon": 6437,
      "Ġdistinct": 6438,
      "ĠManager": 6439,
      "Ġconstruct": 6440,
      "ĠMaybe": 6441,
      "Ġfighting": 6442,
      "Ġwalls": 6443,
      "Ġtalent": 6444,
      "ĠRichard": 6445,
      "Ġguarantee": 6446,
      "àª": 6447,
      "âĦ¢": 6448,
      "ĠMen": 6449,
      "ĠFollow": 6450,
      "ĠLibrary": 6451,
      "Ġalcohol": 6452,
      "Ġinfrastructure": 6453,
      "Ġauthorities": 6454,
      "Ġassign": 6455,
      "Ġearned": 6456,
      "Ġcontrast": 6457,
      "weight": 6458,
      "Ġauthors": 6459,
      "Ġelectronic": 6460,
      "Ġid": 6461,
      "hered": 6462,
      "merican": 6463,
      "ĠCentre": 6464,
      "Ġindeed": 6465,
      "Pe": 6466,
      "inning": 6467,
      "anges": 6468,
      "away": 6469,
      "ĠAbout": 6470,
      "Te": 6471,
      "Ġreform": 6472,
      "Ġbear": 6473,
      "ĠArts": 6474,
      "\"We": 6475,
      "Sc": 6476,
      "Ġmeal": 6477,
      "Ġsmell": 6478,
      "Ġrestaurants": 6479,
      "Of": 6480,
      "nel": 6481,
      "inet": 6482,
      "ĠCost": 6483,
      "ĠKnow": 6484,
      "uated": 6485,
      "ato": 6486,
      "merce": 6487,
      "Ġcovers": 6488,
      "Ġinfo": 6489,
      "Ġawareness": 6490,
      "do": 6491,
      "ora": 6492,
      "Ġgoods": 6493,
      "Ġmillions": 6494,
      "xic": 6495,
      "Ġfro": 6496,
      "Ġgrown": 6497,
      "Ġedition": 6498,
      "ĠScot": 6499,
      "ĠTem": 6500,
      "Ġplanet": 6501,
      "Ġdrivers": 6502,
      "Ġmeetings": 6503,
      "Over": 6504,
      "Spe": 6505,
      "gage": 6506,
      "uting": 6507,
      "print": 6508,
      "ĠAdv": 6509,
      "Ġexpertise": 6510,
      "Many": 6511,
      "Ġrenew": 6512,
      "ĠThose": 6513,
      "ĠColumb": 6514,
      "Ġtrend": 6515,
      "Ġportion": 6516,
      "fol": 6517,
      "Ġast": 6518,
      "Ġchannel": 6519,
      "Ġscored": 6520,
      "riting": 6521,
      "ĠAuthor": 6522,
      "Ġcontra": 6523,
      "ĠAnother": 6524,
      "inations": 6525,
      "lete": 6526,
      "ĠSaf": 6527,
      "Ġbasket": 6528,
      "Ġfairly": 6529,
      "Today": 6530,
      "ĠLo": 6531,
      "Another": 6532,
      "ĠControl": 6533,
      "Ġclothes": 6534,
      "Are": 6535,
      "eries": 6536,
      "rome": 6537,
      "ĠIndust": 6538,
      "Ġfrequently": 6539,
      "Ġiron": 6540,
      "Ġacid": 6541,
      "Ġdelay": 6542,
      "Ġpulled": 6543,
      "po": 6544,
      "astern": 6545,
      "ĠBow": 6546,
      "Ġprove": 6547,
      "apes": 6548,
      "ĠKeep": 6549,
      "Posted": 6550,
      "\"The": 6551,
      "Ġlosing": 6552,
      "ĠAff": 6553,
      "illy": 6554,
      "erts": 6555,
      "Ġsuggested": 6556,
      "Ġsustainable": 6557,
      "Ġefficiency": 6558,
      "from": 6559,
      "lo": 6560,
      "Ġtank": 6561,
      "alle": 6562,
      "Ġconver": 6563,
      "Ġresolution": 6564,
      "Ġtypical": 6565,
      "Ġgraduate": 6566,
      "Ġcandidate": 6567,
      "AB": 6568,
      "Ġsuitable": 6569,
      "ansion": 6570,
      "ĠiP": 6571,
      "Ġneighborhood": 6572,
      "ĠCas": 6573,
      "Ġreliable": 6574,
      "ĠHotel": 6575,
      "Ġrein": 6576,
      "Ġancient": 6577,
      "Ġatmosp": 6578,
      "Ġdropped": 6579,
      "Ġvillage": 6580,
      "ĠWhether": 6581,
      "gs": 6582,
      "inally": 6583,
      "Ġbeer": 6584,
      "essed": 6585,
      "Ġnetworks": 6586,
      "Ġperfectly": 6587,
      "lines": 6588,
      "ĠLink": 6589,
      "orders": 6590,
      "Ġfirstname": 6591,
      "uality": 6592,
      "Ġimpossible": 6593,
      "Ġfigures": 6594,
      "ĠJapanese": 6595,
      "Ġhyd": 6596,
      "Ġcompens": 6597,
      "cluded": 6598,
      "Ġregulations": 6599,
      "Ġfeatured": 6600,
      "Ġcarefully": 6601,
      "Ġhouses": 6602,
      "-qu": 6603,
      "ml": 6604,
      "rans": 6605,
      "Ġsuc": 6606,
      "eline": 6607,
      "ĠKn": 6608,
      "Ġsupports": 6609,
      "ĠRussian": 6610,
      "Ġhook": 6611,
      "Ġdeals": 6612,
      "Ġentered": 6613,
      "ĠWilliams": 6614,
      "tle": 6615,
      "ĠSqu": 6616,
      "ĠOR": 6617,
      "Ġspoke": 6618,
      "gent": 6619,
      "Ġacknow": 6620,
      "Ġcontest": 6621,
      "Ġstands": 6622,
      "Ġassessment": 6623,
      "Ġappreciate": 6624,
      "ĠAcademy": 6625,
      "-a": 6626,
      "ĠArab": 6627,
      "Ġtea": 6628,
      "Ġmedicine": 6629,
      "Ġrealized": 6630,
      "Ġaccurate": 6631,
      "Ġcake": 6632,
      "Ġserves": 6633,
      "Ġchallenging": 6634,
      "sembly": 6635,
      "IF": 6636,
      "nic": 6637,
      "Ð¾": 6638,
      "Ġdump": 6639,
      "Ġarts": 6640,
      "Ġnewsp": 6641,
      "MA": 6642,
      "Ġobjects": 6643,
      "Ġinvolve": 6644,
      ".E": 6645,
      "rid": 6646,
      "Ġsessions": 6647,
      "Ġyellow": 6648,
      "ĠCam": 6649,
      "Ġpremium": 6650,
      "Ġbreath": 6651,
      "oosing": 6652,
      "Ġathlet": 6653,
      "Ġloves": 6654,
      "Ġvast": 6655,
      "ĠUt": 6656,
      "ĠChief": 6657,
      "Ġretire": 6658,
      "Ġhardware": 6659,
      "Also": 6660,
      "omy": 6661,
      "Ġdiss": 6662,
      "Ġinterior": 6663,
      "Ġreporting": 6664,
      "ERS": 6665,
      "ATION": 6666,
      "ĠOlymp": 6667,
      "ĠThrough": 6668,
      "Ġcrack": 6669,
      "-related": 6670,
      "ĠSet": 6671,
      "ĠCreat": 6672,
      "ĠMur": 6673,
      "Ġvul": 6674,
      "Ġmonthly": 6675,
      "Ġpartnership": 6676,
      "ĠSecretary": 6677,
      "Ġsymbol": 6678,
      "Ġchocolate": 6679,
      "-mail": 6680,
      "Ġben": 6681,
      "Ġevil": 6682,
      "Ġdelight": 6683,
      "Ġmountain": 6684,
      "Ġliked": 6685,
      "Where": 6686,
      "Ġisland": 6687,
      "ĠEll": 6688,
      "Ġscr": 6689,
      "Ġcandidates": 6690,
      "Ġtonight": 6691,
      "SS": 6692,
      "Ġdates": 6693,
      "ĠBoston": 6694,
      "urning": 6695,
      "ĠNight": 6696,
      "Ġtopics": 6697,
      "Ġflowers": 6698,
      "ĠCode": 6699,
      "Ġvisiting": 6700,
      "Ġille": 6701,
      "va": 6702,
      "resents": 6703,
      "âĢĿ.Ċ": 6704,
      "ĠCoast": 6705,
      "ĠRam": 6706,
      "nell": 6707,
      "Ġdifferences": 6708,
      "Ġdefined": 6709,
      "Ġmessages": 6710,
      "Ġprompt": 6711,
      "LY": 6712,
      "ingu": 6713,
      "cling": 6714,
      "Ġpassing": 6715,
      "Ġinstructions": 6716,
      "Ġliquid": 6717,
      "ras": 6718,
      "Ġpump": 6719,
      "Ġteeth": 6720,
      "claim": 6721,
      "Ġdescription": 6722,
      "Although": 6723,
      "uction": 6724,
      "oral": 6725,
      "ĠSign": 6726,
      "ĠHand": 6727,
      "ĠFull": 6728,
      "earing": 6729,
      "Ġconfirmed": 6730,
      "Ġsuccessfully": 6731,
      "Ġbirthday": 6732,
      "Ġsurrounding": 6733,
      "Ġbattery": 6734,
      "Ġsituations": 6735,
      "esides": 6736,
      "ĠEnd": 6737,
      "ĠChildren": 6738,
      "Ġorganized": 6739,
      "Ġdiscussed": 6740,
      "ĠContact": 6741,
      "Once": 6742,
      "?âĢĿĊ": 6743,
      "Ġflood": 6744,
      "Ġrail": 6745,
      "Ġbreakfast": 6746,
      "ĠMP": 6747,
      "asters": 6748,
      "inder": 6749,
      "berry": 6750,
      "ĠOhio": 6751,
      "ta": 6752,
      "arry": 6753,
      "Ġnurs": 6754,
      "uster": 6755,
      "Ġdiverse": 6756,
      "EST": 6757,
      "Ġrisks": 6758,
      "Ġcollected": 6759,
      "Ġoutdoor": 6760,
      "ether": 6761,
      "ĠDie": 6762,
      "ĠRights": 6763,
      "ĠOpt": 6764,
      "Ġdecade": 6765,
      "Ġcheese": 6766,
      "ĠLee": 6767,
      "Ġfunny": 6768,
      "Ġdegrees": 6769,
      "TC": 6770,
      "eration": 6771,
      "alse": 6772,
      "Ġnative": 6773,
      "Ġplate": 6774,
      "Ġbelieves": 6775,
      "Ġoriginally": 6776,
      "can": 6777,
      "Ġstudio": 6778,
      "Ġprivacy": 6779,
      "ĠSar": 6780,
      "Ġexternal": 6781,
      "Ġadm": 6782,
      "Ġunable": 6783,
      "Ġtalked": 6784,
      "ĠFrancisco": 6785,
      "ugh": 6786,
      "ĠSon": 6787,
      "ĠLive": 6788,
      "Ġdish": 6789,
      "lights": 6790,
      "uls": 6791,
      "Ġletters": 6792,
      "achel": 6793,
      "Ġproviders": 6794,
      "Ġyounger": 6795,
      "Sp": 6796,
      "xy": 6797,
      "rect": 6798,
      "Ġgolf": 6799,
      "emic": 6800,
      "Ġempt": 6801,
      "Ġhumans": 6802,
      "Ġcapable": 6803,
      "Ġdepth": 6804,
      "ĠLt": 6805,
      "Ġinvent": 6806,
      "Ġlegislation": 6807,
      "oman": 6808,
      "Ġregistration": 6809,
      "Ġassets": 6810,
      "Ġclosely": 6811,
      "Ġphilosoph": 6812,
      "Â°": 6813,
      "Ġjack": 6814,
      "Ġshel": 6815,
      "ĠKey": 6816,
      "Ġchicken": 6817,
      "Ġblind": 6818,
      "Ġmixed": 6819,
      "abetes": 6820,
      "Ġicon": 6821,
      "Ġbare": 6822,
      "agues": 6823,
      "obby": 6824,
      "Ġtransition": 6825,
      "Ġseriously": 6826,
      "Ġcopyright": 6827,
      "AY": 6828,
      "CR": 6829,
      "Dr": 6830,
      "Ġtag": 6831,
      "Ġtail": 6832,
      "Ġhang": 6833,
      "Ġvit": 6834,
      "plete": 6835,
      "Ġaffordable": 6836,
      "irms": 6837,
      "Ġattrib": 6838,
      "ĠJustice": 6839,
      "ua": 6840,
      "zer": 6841,
      "ching": 6842,
      "ĠFair": 6843,
      "athy": 6844,
      "Ġrepresents": 6845,
      "aniel": 6846,
      "Ġbonus": 6847,
      "Int": 6848,
      "host": 6849,
      "ĠPot": 6850,
      "Ġamend": 6851,
      "Ġfacing": 6852,
      "Ġrecognize": 6853,
      "wing": 6854,
      "hem": 6855,
      "ĠStat": 6856,
      "Ġconducted": 6857,
      "Ġtalks": 6858,
      "Per": 6859,
      "Ġhasn": 6860,
      "ailability": 6861,
      "Ġsomewhere": 6862,
      "Ġphr": 6863,
      "Ġenthus": 6864,
      "Ġinches": 6865,
      "Ġlicens": 6866,
      "Ġcommittee": 6867,
      "Ġprofit": 6868,
      "Ġtested": 6869,
      "ĠEnvironment": 6870,
      "iverse": 6871,
      "Ġabsor": 6872,
      "Ġinjuries": 6873,
      "Ġnormally": 6874,
      "Ġbroadcast": 6875,
      "forcement": 6876,
      "Ġresistance": 6877,
      "Ġacts": 6878,
      "Ġhate": 6879,
      "umes": 6880,
      "Ġsuggests": 6881,
      "REE": 6882,
      "ĠDivision": 6883,
      "ampion": 6884,
      "Ġrecording": 6885,
      "Ġbasically": 6886,
      "Ġpapers": 6887,
      "lyn": 6888,
      "ĠLittle": 6889,
      "Ġincident": 6890,
      "Ġcommunications": 6891,
      "Ġstreets": 6892,
      "TR": 6893,
      "Ġbanks": 6894,
      "Ġpin": 6895,
      "stream": 6896,
      "Ġaspect": 6897,
      "jection": 6898,
      "ĠJackson": 6899,
      "ca": 6900,
      "Ġhall": 6901,
      "ĠSite": 6902,
      "ĠMid": 6903,
      "Ġshots": 6904,
      "ĠOil": 6905,
      "ĠPhot": 6906,
      "ĠCatholic": 6907,
      "Ġsin": 6908,
      "Ġsight": 6909,
      "ctive": 6910,
      "âĢĻ,": 6911,
      "Ġsubmit": 6912,
      "Ġadvis": 6913,
      "Ġpossibility": 6914,
      "ĠInte": 6915,
      "lements": 6916,
      "ĠSP": 6917,
      "ĠItaly": 6918,
      "Ġages": 6919,
      "Ġwalked": 6920,
      "Ġstruggle": 6921,
      "Ġsoph": 6922,
      "elcome": 6923,
      "Ġphase": 6924,
      "ĠYoung": 6925,
      "TA": 6926,
      "Ġwarn": 6927,
      "Ġthorough": 6928,
      "ĠDVD": 6929,
      "ĠFestival": 6930,
      "Ġsurprised": 6931,
      "Ġhorse": 6932,
      "Ġvictims": 6933,
      "ĠSpring": 6934,
      "Ġargument": 6935,
      ".||": 6936,
      "Ġlie": 6937,
      "ĠCir": 6938,
      "ĠBible": 6939,
      "unior": 6940,
      "Ġextent": 6941,
      "Ġlapt": 6942,
      "Ġnecessarily": 6943,
      "Ġtomorrow": 6944,
      "yers": 6945,
      "Ġstone": 6946,
      "ĠWatch": 6947,
      "bles": 6948,
      "Ġmic": 6949,
      "icing": 6950,
      "Ġhat": 6951,
      "Ġcock": 6952,
      "ĠCharles": 6953,
      "Ġbrowser": 6954,
      "itage": 6955,
      "ĠBefore": 6956,
      "Ġpursu": 6957,
      "Ġanticip": 6958,
      "Ġslowly": 6959,
      "Ġfuck": 6960,
      "Ġbat": 6961,
      "otton": 6962,
      "Ġplug": 6963,
      "ubs": 6964,
      "Ġrose": 6965,
      "Ġtwe": 6966,
      "Ġengage": 6967,
      "Ġaffili": 6968,
      "gt": 6969,
      "anish": 6970,
      "rage": 6971,
      "lder": 6972,
      "Ġvital": 6973,
      "ĠEp": 6974,
      "ĠEqu": 6975,
      "Ġtrained": 6976,
      "aturally": 6977,
      "Ġroutine": 6978,
      "Ġhoping": 6979,
      "ba": 6980,
      "mond": 6981,
      "agon": 6982,
      "Ġlegs": 6983,
      "Ġdomain": 6984,
      "?\"Ċ": 6985,
      "Ġtiny": 6986,
      "Ġtrig": 6987,
      "Ġpharm": 6988,
      "Ġfiled": 6989,
      "Ġexpectations": 6990,
      "Ġcampus": 6991,
      "Ġexclusive": 6992,
      "ĠPacific": 6993,
      "Ġnuclear": 6994,
      "Ġalleged": 6995,
      "View": 6996,
      "stone": 6997,
      "ĠSports": 6998,
      "ĠLu": 6999,
      "ĠOS": 7000,
      "Ġdelicious": 7001,
      "Ġbodies": 7002,
      "eting": 7003,
      "ĠPack": 7004,
      "ĠDC": 7005,
      "endar": 7006,
      "ĠSoft": 7007,
      "Ġcounsel": 7008,
      "Ġlifestyle": 7009,
      "Ġprinciples": 7010,
      "ennis": 7011,
      "Ġproposal": 7012,
      "ĠVictor": 7013,
      "oin": 7014,
      "raid": 7015,
      "quir": 7016,
      "ĠEs": 7017,
      "comes": 7018,
      "Ġfeelings": 7019,
      "Ġmoves": 7020,
      "Ġpainting": 7021,
      "Ġtracks": 7022,
      "Ġongoing": 7023,
      "ĠCH": 7024,
      "Ġprepar": 7025,
      "Ġglad": 7026,
      ")|Ċ": 7027,
      "Even": 7028,
      "ican": 7029,
      "ĠEr": 7030,
      "arks": 7031,
      "Ġentreprene": 7032,
      "Ġinterpret": 7033,
      "Ġwatched": 7034,
      "Ġimpressive": 7035,
      "bal": 7036,
      "htt": 7037,
      "ĠGeorgia": 7038,
      "ellect": 7039,
      "Ġspr": 7040,
      "-com": 7041,
      "ĠRest": 7042,
      "Ġmurder": 7043,
      "-G": 7044,
      "-n": 7045,
      "-off": 7046,
      "ĠHarr": 7047,
      "Ġestimated": 7048,
      "ĠCA": 7049,
      "ĠCa": 7050,
      "Ġvend": 7051,
      "ĠContin": 7052,
      "Ġinspiration": 7053,
      "Ġsusp": 7054,
      "Ġpatterns": 7055,
      "Ġprotest": 7056,
      "Ġmembership": 7057,
      "ĠDoes": 7058,
      "Ġconvenient": 7059,
      "zona": 7060,
      "isk": 7061,
      "ĠColl": 7062,
      "Ġheight": 7063,
      "ĠBall": 7064,
      "anna": 7065,
      "Ġsensitive": 7066,
      "!âĢĿ": 7067,
      "??": 7068,
      "PM": 7069,
      "greg": 7070,
      "izz": 7071,
      "Ġorganic": 7072,
      "swe": 7073,
      "ĠHim": 7074,
      "ults": 7075,
      "Ġerr": 7076,
      "Col": 7077,
      "ystem": 7078,
      "umps": 7079,
      "ĠTherefore": 7080,
      "OVID": 7081,
      "gas": 7082,
      "opp": 7083,
      "ĠTit": 7084,
      "ifies": 7085,
      "pel": 7086,
      "Ġfinds": 7087,
      "Ġlistening": 7088,
      "Ġpayments": 7089,
      "Ġbowl": 7090,
      "oned": 7091,
      "Ġnarr": 7092,
      "ĠSearch": 7093,
      "Ġexecut": 7094,
      "Ġadds": 7095,
      "Ġintent": 7096,
      "Ġresulting": 7097,
      "Ġdrag": 7098,
      "Ġimprovement": 7099,
      "Ġlikes": 7100,
      "Ġsuffering": 7101,
      "ashed": 7102,
      "stood": 7103,
      "Ġnarrow": 7104,
      "oval": 7105,
      "riendly": 7106,
      "ĠExecutive": 7107,
      "Ġfeaturing": 7108,
      "Ġsearching": 7109,
      "Ġsauce": 7110,
      "Ġsmile": 7111,
      "Ġpercentage": 7112,
      "ĠNext": 7113,
      "Ġcircuit": 7114,
      "Ġevaluation": 7115,
      "itution": 7116,
      "Ġfinger": 7117,
      "ĠWalk": 7118,
      "Ġkne": 7119,
      "inton": 7120,
      "Ġsubsequ": 7121,
      "ĠUpd": 7122,
      "\".Ċ": 7123,
      "pat": 7124,
      "pes": 7125,
      "Ġsizes": 7126,
      "ĠItalian": 7127,
      "Ġphotograp": 7128,
      "Ġmonitoring": 7129,
      "Ġborder": 7130,
      "Ġhits": 7131,
      "Ġreward": 7132,
      "amental": 7133,
      "ĠRoom": 7134,
      "ĠKim": 7135,
      "Ġtrick": 7136,
      "ĠArmy": 7137,
      "Ġoperate": 7138,
      "Ġimmediate": 7139,
      "Ġwest": 7140,
      "Ġneither": 7141,
      "ĠGal": 7142,
      "Ġtechnique": 7143,
      "Ġdirected": 7144,
      "Ġintegrated": 7145,
      "Ġwaters": 7146,
      "Ġvirus": 7147,
      "Ġacting": 7148,
      "Ġmini": 7149,
      "Ġconfident": 7150,
      "Ġpil": 7151,
      "Ġpitch": 7152,
      "Ġnob": 7153,
      "ĠCast": 7154,
      "elf": 7155,
      "ffered": 7156,
      "Ġheads": 7157,
      "xiety": 7158,
      "-W": 7159,
      "ĠPrem": 7160,
      "Ġbrill": 7161,
      "Ġauthent": 7162,
      "Ġrevolution": 7163,
      "ĠArea": 7164,
      "owntown": 7165,
      "sm": 7166,
      "orable": 7167,
      "ĠFOR": 7168,
      "Ġsufficient": 7169,
      "Ġgrass": 7170,
      "Ġdealing": 7171,
      "Ġremained": 7172,
      "Ġsolar": 7173,
      "Ġcerem": 7174,
      "Ġsucceed": 7175,
      "dy": 7176,
      "Ġlad": 7177,
      "ĠSup": 7178,
      "Ġstuck": 7179,
      "Thanks": 7180,
      "Ġrelief": 7181,
      "-spe": 7182,
      "Ġnearby": 7183,
      "ĠAgain": 7184,
      "Ġurban": 7185,
      "cipal": 7186,
      "Ġreligion": 7187,
      "oga": 7188,
      "elly": 7189,
      "Ġrental": 7190,
      "During": 7191,
      "ument": 7192,
      "Ġhell": 7193,
      "ĠFed": 7194,
      "Ġreplacement": 7195,
      "Ġtissue": 7196,
      "oup": 7197,
      "Ġstrange": 7198,
      "Ġobtained": 7199,
      "Ġpermanent": 7200,
      "CO": 7201,
      "Ġtut": 7202,
      "Ġrating": 7203,
      "Who": 7204,
      "Ġdescribe": 7205,
      "Ġnegoti": 7206,
      "ĠÐ": 7207,
      "whel": 7208,
      "ĠRight": 7209,
      "ĠGames": 7210,
      "acc": 7211,
      "issions": 7212,
      "ĠGuide": 7213,
      "Ġconsumption": 7214,
      "Ġconsistent": 7215,
      "Jan": 7216,
      "ayer": 7217,
      "ira": 7218,
      "Ġinterface": 7219,
      "Ġexpression": 7220,
      "ĠRussia": 7221,
      "sue": 7222,
      "otal": 7223,
      "aylor": 7224,
      "aints": 7225,
      "Ġscholars": 7226,
      "ĠLook": 7227,
      "Ġtwenty": 7228,
      "Ġadventure": 7229,
      "Ġlargely": 7230,
      "Ġmanaging": 7231,
      "Ġcontemporary": 7232,
      "Ġcos": 7233,
      "ĠSanta": 7234,
      "!\"": 7235,
      "ĠTri": 7236,
      "ĠDate": 7237,
      "Ġversions": 7238,
      "Ġpersons": 7239,
      "Ġtall": 7240,
      "aning": 7241,
      "ĠSky": 7242,
      "ĠMult": 7243,
      "isters": 7244,
      "Ġje": 7245,
      "aze": 7246,
      "-sc": 7247,
      "Ġmachines": 7248,
      "Ġticket": 7249,
      "Ġvirtual": 7250,
      "HA": 7251,
      "ĠHard": 7252,
      "unes": 7253,
      "Ġanyway": 7254,
      "Ġentit": 7255,
      "Ġimplementation": 7256,
      "Ġvulner": 7257,
      "ione": 7258,
      "racy": 7259,
      "ĠHope": 7260,
      "ĠHollywood": 7261,
      "Ġchose": 7262,
      "Ġwriters": 7263,
      "Ġimproving": 7264,
      "aska": 7265,
      "Ġsurprising": 7266,
      "Ġcategories": 7267,
      "pir": 7268,
      "Ġlucky": 7269,
      "utch": 7270,
      "ĠGall": 7271,
      "Ġperforming": 7272,
      "Ġlessons": 7273,
      "Ġultimately": 7274,
      "Im": 7275,
      "isms": 7276,
      "Ġpromise": 7277,
      "ĠSpirit": 7278,
      "Ġforever": 7279,
      "Ġguidance": 7280,
      "UL": 7281,
      "Ġthin": 7282,
      "ĠFour": 7283,
      "Ġevol": 7284,
      "ups": 7285,
      "Ġfacilit": 7286,
      "Ġreferred": 7287,
      "MP": 7288,
      "Mar": 7289,
      "Ġwins": 7290,
      "osa": 7291,
      "Ġmarked": 7292,
      "ikes": 7293,
      "Ġexplains": 7294,
      "-ex": 7295,
      "Ġdur": 7296,
      "roke": 7297,
      "ĠCross": 7298,
      "Ġagric": 7299,
      "Ġexpressed": 7300,
      "ĠExpl": 7301,
      "epend": 7302,
      "Ġpersonally": 7303,
      "Ġera": 7304,
      "Ġinformed": 7305,
      "Ġafraid": 7306,
      "Ġmand": 7307,
      "ĠFurther": 7308,
      "Ġeveryday": 7309,
      "grad": 7310,
      "Ġaccessible": 7311,
      "Ġterrit": 7312,
      "-be": 7313,
      "Mr": 7314,
      "Ġsoci": 7315,
      "ogs": 7316,
      "âĢľIt": 7317,
      "ĠHarry": 7318,
      "Ġtasks": 7319,
      "Ġdivid": 7320,
      "redit": 7321,
      "-like": 7322,
      "Ġelev": 7323,
      "Ġcollaboration": 7324,
      "ixture": 7325,
      "Ġsaved": 7326,
      "Ġflour": 7327,
      "Ġobserved": 7328,
      "EP": 7329,
      "Ed": 7330,
      "oty": 7331,
      "Ġheav": 7332,
      "Ġauto": 7333,
      "Ġdreams": 7334,
      "Ġduty": 7335,
      "Ġlandscape": 7336,
      "John": 7337,
      "anwhile": 7338,
      "ĠOl": 7339,
      "ureau": 7340,
      "plate": 7341,
      "ĠKen": 7342,
      "Ġsomewhat": 7343,
      "lessly": 7344,
      "Ġapproval": 7345,
      "Ġaside": 7346,
      "ĠLow": 7347,
      "ĠSpanish": 7348,
      "Ġlinked": 7349,
      "Ġobviously": 7350,
      "Ġapparently": 7351,
      "win": 7352,
      "Ġfishing": 7353,
      "Ġfasc": 7354,
      "Ġgear": 7355,
      "iger": 7356,
      "ĠHa": 7357,
      "ĠRon": 7358,
      "ĠEU": 7359,
      "iano": 7360,
      "Ġexposure": 7361,
      "ĠPlace": 7362,
      "ospit": 7363,
      "Ġdivision": 7364,
      "Ġcertific": 7365,
      "ĠBrazil": 7366,
      "etime": 7367,
      "Ġoutstanding": 7368,
      "ĠVan": 7369,
      "ĠPrice": 7370,
      "Ġoccurred": 7371,
      "Ġatmosphere": 7372,
      "TER": 7373,
      "inity": 7374,
      "Ġconvent": 7375,
      "Ġalive": 7376,
      "Ġreserved": 7377,
      "ĠAndrew": 7378,
      "Ġdiam": 7379,
      "Ġcontribute": 7380,
      "Ġmanufacturing": 7381,
      "eding": 7382,
      "Ġupl": 7383,
      "Ġdefault": 7384,
      "Ġcorn": 7385,
      "ĠRyan": 7386,
      "Ġweren": 7387,
      "weet": 7388,
      "Ġfaces": 7389,
      "Ġliterature": 7390,
      "Find": 7391,
      "cue": 7392,
      "Ġhidden": 7393,
      "asant": 7394,
      "ller": 7395,
      "ĠBell": 7396,
      "uling": 7397,
      "Ġstatements": 7398,
      "Ġpassen": 7399,
      "Ġpleasure": 7400,
      "Ġdrinking": 7401,
      "Ġscientists": 7402,
      "-out": 7403,
      "Ġwet": 7404,
      "uter": 7405,
      "Ġpermission": 7406,
      "ĠTrust": 7407,
      "Ġcouncil": 7408,
      "Ġincreasingly": 7409,
      "uous": 7410,
      "ounded": 7411,
      "Ġconflict": 7412,
      "Ġpace": 7413,
      "Ġmuseum": 7414,
      "onym": 7415,
      "Ġappointment": 7416,
      "Ġproof": 7417,
      "ĠJac": 7418,
      "ĠYet": 7419,
      "Ġconscious": 7420,
      "Ġjew": 7421,
      "Ġcolumn": 7422,
      "ĠHelp": 7423,
      "RS": 7424,
      "uine": 7425,
      "ĠSher": 7426,
      "ĠPoint": 7427,
      "Ġsubjects": 7428,
      "Ġweekly": 7429,
      "Ġprofessor": 7430,
      "ĠDisc": 7431,
      "Ġintelligence": 7432,
      "reate": 7433,
      "Ġbags": 7434,
      "ĠRay": 7435,
      "ĠRose": 7436,
      "Ġtech": 7437,
      "Ġinstruct": 7438,
      "Ġelected": 7439,
      "Ġinstrument": 7440,
      "oir": 7441,
      "ĠPen": 7442,
      "Ġkm": 7443,
      "Ġmainly": 7444,
      "Ġcontrols": 7445,
      "ĠâĨ": 7446,
      "ouch": 7447,
      "ĠFoot": 7448,
      "arters": 7449,
      "Ġunus": 7450,
      "Ġflash": 7451,
      "Ġcookies": 7452,
      "ĠUsing": 7453,
      "mar": 7454,
      "ĠAC": 7455,
      "ĠHor": 7456,
      "ĠJenn": 7457,
      "Ġbridge": 7458,
      "ĠTech": 7459,
      "Ġsupplies": 7460,
      "equ": 7461,
      "sters": 7462,
      "Ġrecy": 7463,
      "ĠInstagram": 7464,
      "Ġrequests": 7465,
      "Ġknock": 7466,
      "Ġreputation": 7467,
      "Ġpod": 7468,
      "ĠTurn": 7469,
      "Ġcompr": 7470,
      "Ġlimits": 7471,
      "Ġprecise": 7472,
      "/p": 7473,
      "Note": 7474,
      "nda": 7475,
      "Ġpounds": 7476,
      "urb": 7477,
      "Ġprohib": 7478,
      "ĠHon": 7479,
      "this": 7480,
      "ĠLabor": 7481,
      "ĠKar": 7482,
      "Ġpotentially": 7483,
      "Ġillness": 7484,
      "Ġhopes": 7485,
      "Ġcrucial": 7486,
      "ership": 7487,
      "ĠDub": 7488,
      "ĠField": 7489,
      "Ġdesigner": 7490,
      "ĠAssist": 7491,
      "cific": 7492,
      "erate": 7493,
      "entle": 7494,
      "ĠSouthern": 7495,
      "tocol": 7496,
      "Ġattached": 7497,
      "Ġcontinuing": 7498,
      "ĠAdministration": 7499,
      "Ġthread": 7500,
      "Ġeast": 7501,
      "urities": 7502,
      "Ġsupplement": 7503,
      "Ġtreatments": 7504,
      "Ġcuts": 7505,
      "!!!": 7506,
      "Ġcapture": 7507,
      "Ġbirds": 7508,
      "oil": 7509,
      "ters": 7510,
      "essel": 7511,
      "Ġpit": 7512,
      "ĠTax": 7513,
      "adium": 7514,
      "ĠHospital": 7515,
      "teen": 7516,
      "ĠJr": 7517,
      "ĠKenn": 7518,
      "Ġdesired": 7519,
      "Ġbedroom": 7520,
      "Ġmoist": 7521,
      "ghan": 7522,
      "rency": 7523,
      "Ġskill": 7524,
      "Ġbathroom": 7525,
      "ĠArizona": 7526,
      "Ġ...Ċ": 7527,
      "rition": 7528,
      "Ġtab": 7529,
      "Ġrig": 7530,
      "Ġrelative": 7531,
      "Ġsignal": 7532,
      "Ġexplan": 7533,
      "Ġapartment": 7534,
      "/d": 7535,
      "lers": 7536,
      "inent": 7537,
      "Ġentr": 7538,
      "Ġcausing": 7539,
      "Ġengaged": 7540,
      "ĠApplic": 7541,
      "zing": 7542,
      "Ġfing": 7543,
      "ĠTru": 7544,
      "Ġgender": 7545,
      ".n": 7546,
      "Bec": 7547,
      "was": 7548,
      "owers": 7549,
      "Ġstake": 7550,
      "ogen": 7551,
      "Thank": 7552,
      "coin": 7553,
      "Ġconstant": 7554,
      "Ġdefinition": 7555,
      "Ġultimate": 7556,
      "Ã³": 7557,
      "Ġtournament": 7558,
      "ĠSS": 7559,
      "ĠMah": 7560,
      "ĠRo": 7561,
      "allas": 7562,
      "Ġtransp": 7563,
      "Bu": 7564,
      "Man": 7565,
      "Ġinner": 7566,
      "iments": 7567,
      "iana": 7568,
      "Ġstrike": 7569,
      "isa": 7570,
      "ogether": 7571,
      "Ġregions": 7572,
      "Ġbottle": 7573,
      "Ġstyles": 7574,
      "Check": 7575,
      "Ġdust": 7576,
      "Ġlens": 7577,
      "Ġreaction": 7578,
      "Ġcoal": 7579,
      "ATE": 7580,
      "Ġexistence": 7581,
      "Ġsending": 7582,
      "Ġpleased": 7583,
      "/c": 7584,
      "olit": 7585,
      "ologist": 7586,
      "Ġfaculty": 7587,
      "Ġprimarily": 7588,
      "Ġexception": 7589,
      "Ġordered": 7590,
      "Ġease": 7591,
      "Ġstood": 7592,
      "ĠBon": 7593,
      "Ġclar": 7594,
      "Ġwrites": 7595,
      "Ġqualified": 7596,
      "ĠJersey": 7597,
      "UP": 7598,
      "including": 7599,
      "Ġgifts": 7600,
      "ĠDaily": 7601,
      "ĠLtd": 7602,
      "Pr": 7603,
      "bel": 7604,
      "Ġfalse": 7605,
      "Ġdining": 7606,
      "rog": 7607,
      "ĠThus": 7608,
      "Ġinvited": 7609,
      "Ġbreast": 7610,
      "Ġcreates": 7611,
      "Ġmagic": 7612,
      "Ġintroduction": 7613,
      "Ġcelebrate": 7614,
      "adel": 7615,
      "neys": 7616,
      "Ġaggress": 7617,
      "obs": 7618,
      "Ġflag": 7619,
      "Ġvisited": 7620,
      "Ġeggs": 7621,
      "ĠSn": 7622,
      "Ġoverwhel": 7623,
      "stein": 7624,
      "Pre": 7625,
      "bu": 7626,
      "case": 7627,
      "nam": 7628,
      "ĠTer": 7629,
      "ulating": 7630,
      "ĠGi": 7631,
      "athan": 7632,
      "Ġopposite": 7633,
      "Ġeligible": 7634,
      "Ġrear": 7635,
      "holders": 7636,
      "ĠIre": 7637,
      "ĠSat": 7638,
      "ĠNote": 7639,
      "Ġanymore": 7640,
      "Ġspokes": 7641,
      "Ġnoise": 7642,
      "Ġmedication": 7643,
      "ographic": 7644,
      "Ġsavings": 7645,
      "ĠLiber": 7646,
      "Ġbutt": 7647,
      "Ġluck": 7648,
      "ĠCook": 7649,
      "celer": 7650,
      "Ġspaces": 7651,
      "Ġcommonly": 7652,
      "à¤": 7653,
      "Ġpink": 7654,
      "ĠFar": 7655,
      "acle": 7656,
      "ints": 7657,
      "Ġfoundation": 7658,
      "ĠZeal": 7659,
      "Ġfitness": 7660,
      "umm": 7661,
      "Ġloans": 7662,
      "Ġdepression": 7663,
      "vard": 7664,
      "ura": 7665,
      "imer": 7666,
      "iece": 7667,
      "Ġclock": 7668,
      "Ġslot": 7669,
      "roduction": 7670,
      "ĠArticle": 7671,
      "Ġempty": 7672,
      "ington": 7673,
      "stra": 7674,
      "roph": 7675,
      "Ġheaded": 7676,
      "Before": 7677,
      "ele": 7678,
      "Ġdevelopers": 7679,
      "ĠStudies": 7680,
      "Ġtip": 7681,
      "ĠPDF": 7682,
      "Ġchoosing": 7683,
      "Ġamounts": 7684,
      "ĠSystems": 7685,
      "ĠMarketing": 7686,
      "Ġclothing": 7687,
      "Ġcute": 7688,
      "Ġgay": 7689,
      "Ġwithd": 7690,
      "ĠFox": 7691,
      "Ġdiscipl": 7692,
      "Ġbroke": 7693,
      "ĠCountry": 7694,
      "Ġcrypt": 7695,
      "Two": 7696,
      "Ġhire": 7697,
      "othe": 7698,
      "ilst": 7699,
      "Ġsaving": 7700,
      "ĠKent": 7701,
      "Ġdriven": 7702,
      "ĠIII": 7703,
      "Ġincredibly": 7704,
      "Ġluxury": 7705,
      "ðŁ": 7706,
      "Ġpra": 7707,
      "Ġmood": 7708,
      "Ġgod": 7709,
      "iform": 7710,
      "Ġoutcome": 7711,
      "ocated": 7712,
      "Ġprogramme": 7713,
      "Ġpreferred": 7714,
      "front": 7715,
      "ĠMobile": 7716,
      "ĠBal": 7717,
      "anned": 7718,
      "Ġvacation": 7719,
      "Ġfavourite": 7720,
      "''": 7721,
      "Ġlies": 7722,
      "ĠStore": 7723,
      "Ġstructures": 7724,
      "Ġdrawing": 7725,
      "Ġtransportation": 7726,
      "Ġflavor": 7727,
      "Ġbab": 7728,
      "leep": 7729,
      "ĠFre": 7730,
      "isted": 7731,
      "itionally": 7732,
      "Ġending": 7733,
      "Ġreader": 7734,
      "Ġexpenses": 7735,
      "Ġreplaced": 7736,
      "Ġhistoric": 7737,
      "ĠSafety": 7738,
      "-E": 7739,
      "sts": 7740,
      "Ġstead": 7741,
      "Ġsuffered": 7742,
      "inking": 7743,
      "Ġthinks": 7744,
      "tense": 7745,
      "Ġrepeated": 7746,
      "ĠPersonal": 7747,
      "icious": 7748,
      "Ġnom": 7749,
      "Ġseasons": 7750,
      "Ġmanual": 7751,
      "icted": 7752,
      "Ġmarks": 7753,
      "Ġgenerate": 7754,
      "ĠWorks": 7755,
      "Ġachieved": 7756,
      "Ġplatforms": 7757,
      "ĠJoseph": 7758,
      "oured": 7759,
      "Ġpill": 7760,
      "ĠVideo": 7761,
      "ava": 7762,
      "Ġroles": 7763,
      "Ġindex": 7764,
      "Ġtrends": 7765,
      "Ġenterprise": 7766,
      "Ġweapons": 7767,
      "ĠSometimes": 7768,
      "Ġunw": 7769,
      "rently": 7770,
      "Ġinvolves": 7771,
      "Ġvoters": 7772,
      "Ġmatches": 7773,
      "Ġneighb": 7774,
      "ĠThree": 7775,
      "Ġsolve": 7776,
      "PC": 7777,
      "uing": 7778,
      "Ðµ": 7779,
      "lled": 7780,
      "Ġattended": 7781,
      "Ġnic": 7782,
      "igure": 7783,
      "ĠWi": 7784,
      "Ġexec": 7785,
      "ĠStan": 7786,
      "Ġnewly": 7787,
      "ĠChair": 7788,
      "Ġindicate": 7789,
      "Ġshouldn": 7790,
      "Ġfounded": 7791,
      "cover": 7792,
      "Ġstronger": 7793,
      "Ġforum": 7794,
      "Ġproven": 7795,
      "ĠForce": 7796,
      "Ġcommunicate": 7797,
      "GA": 7798,
      "Ġfestival": 7799,
      "igen": 7800,
      "Ġstunning": 7801,
      "ĠBlog": 7802,
      "Ġmanagers": 7803,
      "Reg": 7804,
      "Ġwidely": 7805,
      "Ġblocks": 7806,
      "ĠPriv": 7807,
      "ĠAwards": 7808,
      "Ġanxiety": 7809,
      "Ġusage": 7810,
      "amps": 7811,
      "tail": 7812,
      "imize": 7813,
      "Ġasks": 7814,
      "ĠRoyal": 7815,
      "abeth": 7816,
      "cia": 7817,
      "Ġattra": 7818,
      "oken": 7819,
      "Ġhosting": 7820,
      "ĠBritain": 7821,
      "Ġstrategic": 7822,
      "Ġflexible": 7823,
      "Ġaccomplish": 7824,
      "OO": 7825,
      "kl": 7826,
      "ormal": 7827,
      "rieved": 7828,
      "Ġgenuine": 7829,
      "ĠSupreme": 7830,
      "ĠZealand": 7831,
      "stery": 7832,
      "idays": 7833,
      "ĠCOVID": 7834,
      "ĠLED": 7835,
      "ĠNever": 7836,
      "aret": 7837,
      "Ġsheet": 7838,
      "ĠLeg": 7839,
      "iki": 7840,
      "ĠConf": 7841,
      "ĠResp": 7842,
      "Ġzone": 7843,
      "Ġdebut": 7844,
      "Ġfalling": 7845,
      "ĠPerform": 7846,
      "Ġoppon": 7847,
      "tes": 7848,
      "Ġlau": 7849,
      "Ġseed": 7850,
      "inson": 7851,
      "Ġgenerated": 7852,
      "Ġconsideration": 7853,
      "Ġcarrying": 7854,
      "Ġscenes": 7855,
      "Have": 7856,
      "TV": 7857,
      "ĠBru": 7858,
      "Ġquote": 7859,
      "Ġroot": 7860,
      "Ġmemories": 7861,
      "anny": 7862,
      "ĠDemocratic": 7863,
      "ĠSilver": 7864,
      "ĠCab": 7865,
      "Ġsees": 7866,
      "ocracy": 7867,
      "jo": 7868,
      "ceived": 7869,
      "ĠDid": 7870,
      "ĠSupp": 7871,
      "ĠProfessor": 7872,
      "Ġvice": 7873,
      "ounter": 7874,
      "Ġdrawn": 7875,
      "Ġinvolving": 7876,
      "Ġclaimed": 7877,
      "Ġinjured": 7878,
      "Ġfifth": 7879,
      "aters": 7880,
      "orous": 7881,
      "Ġbatt": 7882,
      "Ġhole": 7883,
      "Ġdoctors": 7884,
      "ĠWhich": 7885,
      "ĠAccount": 7886,
      "Ġdeposit": 7887,
      "ĠDiego": 7888,
      "ellectual": 7889,
      "Ġtor": 7890,
      "Ġmile": 7891,
      "Ġwash": 7892,
      "Ġunderstood": 7893,
      "Ġlawyer": 7894,
      "Ġrecognition": 7895,
      "Ġinitiative": 7896,
      "ĠCorporation": 7897,
      "..Ċ": 7898,
      "Free": 7899,
      "Ġwra": 7900,
      "ĠRa": 7901,
      "ĠFact": 7902,
      "liament": 7903,
      "BI": 7904,
      "Like": 7905,
      "iti": 7906,
      "Ġbunch": 7907,
      "icking": 7908,
      "Ġhandling": 7909,
      "Ġphotography": 7910,
      "-end": 7911,
      "tics": 7912,
      "alysis": 7913,
      "ĠRod": 7914,
      "Ġsoil": 7915,
      "ĠThough": 7916,
      "aping": 7917,
      "Ġagents": 7918,
      "Ġinteract": 7919,
      "Ġillegal": 7920,
      "sen": 7921,
      "ĠSus": 7922,
      "ĠMA": 7923,
      "ĠArm": 7924,
      "annels": 7925,
      "iami": 7926,
      "Ġconvin": 7927,
      "Ġthousand": 7928,
      "isdom": 7929,
      "ĠTaylor": 7930,
      "Ġrecover": 7931,
      "ĠSea": 7932,
      "Ġbreaking": 7933,
      "ĠPhys": 7934,
      "Ġprinted": 7935,
      "wart": 7936,
      "Ġawards": 7937,
      "aine": 7938,
      "Ġplot": 7939,
      "Ġdefensive": 7940,
      "Ġgotten": 7941,
      "Ġalongside": 7942,
      "Ġeleg": 7943,
      "nesota": 7944,
      "ĠDisney": 7945,
      "rite": 7946,
      "ĠBox": 7947,
      "ĠPop": 7948,
      "ĠGreek": 7949,
      "ĠStudents": 7950,
      "Ġarrested": 7951,
      "ĠEnt": 7952,
      "Ġdeeply": 7953,
      "Ġarrive": 7954,
      "ĠFinancial": 7955,
      "\"It": 7956,
      "EF": 7957,
      "SE": 7958,
      "Ġintense": 7959,
      "Ġdad": 7960,
      "ĠCR": 7961,
      "ĠDark": 7962,
      "Ġassume": 7963,
      "Ġsubmitted": 7964,
      "Ġputs": 7965,
      "ĠBrad": 7966,
      "ĠPolicy": 7967,
      "Ġpriority": 7968,
      "Ġescape": 7969,
      "vit": 7970,
      "Ġphen": 7971,
      "Ġdose": 7972,
      "Ġproducing": 7973,
      "Ġavailability": 7974,
      "Ġfaced": 7975,
      "bridge": 7976,
      "ĠQuest": 7977,
      "da": 7978,
      "Ġtie": 7979,
      "Ġvictim": 7980,
      "Sm": 7981,
      "Ġnaturally": 7982,
      "Ġoffices": 7983,
      "Ġblank": 7984,
      "chester": 7985,
      "Ġconcerning": 7986,
      "Ġpowder": 7987,
      "Ġcomponent": 7988,
      "Rep": 7989,
      "bro": 7990,
      "bury": 7991,
      "yes": 7992,
      "ĠAction": 7993,
      "irts": 7994,
      "Ġplane": 7995,
      "Ġobst": 7996,
      "Ġpublication": 7997,
      "letter": 7998,
      "Ġtitles": 7999,
      "Ġforgot": 8000,
      "Follow": 8001,
      "Ġbull": 8002,
      "ifer": 8003,
      "ials": 8004,
      "Ġeverybody": 8005,
      "Ġreturning": 8006,
      "Ġlighting": 8007,
      "ĠDownload": 8008,
      "imp": 8009,
      "ĠRoll": 8010,
      "Ġequival": 8011,
      "Ġcapabilities": 8012,
      "ylv": 8013,
      "Ġstayed": 8014,
      "ĠSmall": 8015,
      "Ġattractive": 8016,
      "Ġstretch": 8017,
      "Ġtact": 8018,
      "ĠAvenue": 8019,
      "ĠMill": 8020,
      "Ġmeals": 8021,
      "pense": 8022,
      "Ġaddresses": 8023,
      "Ġconcrete": 8024,
      "hemat": 8025,
      "omach": 8026,
      "ĠCru": 8027,
      "erving": 8028,
      "ĠSpace": 8029,
      "haust": 8030,
      "Ġliterally": 8031,
      "rich": 8032,
      "sell": 8033,
      "adow": 8034,
      "ĠHou": 8035,
      "Ġ($": 8036,
      "Ġexperiment": 8037,
      "Ġcrash": 8038,
      "Ġcontrovers": 8039,
      "ervations": 8040,
      "Ġcareful": 8041,
      "thew": 8042,
      "Ġoccurs": 8043,
      "Ġregardless": 8044,
      "Ġguidelines": 8045,
      "Ġeverywhere": 8046,
      "Ġinstant": 8047,
      "Ġdecent": 8048,
      "-level": 8049,
      "bell": 8050,
      "Ġtone": 8051,
      "onna": 8052,
      "ati": 8053,
      "ĠSav": 8054,
      "ĠRun": 8055,
      "ĠFord": 8056,
      "ĠNFL": 8057,
      "ĠEV": 8058,
      "Ġcompat": 8059,
      "iversary": 8060,
      "Ġsentence": 8061,
      "Ġsuffer": 8062,
      "ĠJewish": 8063,
      "ĠEngineering": 8064,
      "Ġsplit": 8065,
      "ĠHenry": 8066,
      "swered": 8067,
      "Because": 8068,
      "Ġol": 8069,
      "ĠAsh": 8070,
      "Ġformal": 8071,
      "!)": 8072,
      "!\"Ċ": 8073,
      "BD": 8074,
      "Ġisol": 8075,
      "ĠPract": 8076,
      "ĠFriend": 8077,
      "Ġevolution": 8078,
      "Ġclosing": 8079,
      "ĠBroad": 8080,
      "Ġdynamic": 8081,
      "Ġentitled": 8082,
      "His": 8083,
      "RI": 8084,
      "ĠEric": 8085,
      "Ġgreatly": 8086,
      "Ġcomputers": 8087,
      "ĠTraining": 8088,
      "Ġpowers": 8089,
      "vi": 8090,
      "Ġbills": 8091,
      "Ġhung": 8092,
      "Ġshops": 8093,
      "Ġexpansion": 8094,
      "Ġharder": 8095,
      "Ġengagement": 8096,
      "Ġsamples": 8097,
      "fits": 8098,
      "ji": 8099,
      "etry": 8100,
      "ĠSuch": 8101,
      "ĠBa": 8102,
      "Ġchances": 8103,
      "Ġwhenever": 8104,
      "Ġhadn": 8105,
      "Ġdispos": 8106,
      "Ġposting": 8107,
      "Ġfunctional": 8108,
      "Ġsought": 8109,
      "Ġyield": 8110,
      "ĠDar": 8111,
      "ĠEmer": 8112,
      "Ġcompare": 8113,
      "Ġfundamental": 8114,
      "Ġreducing": 8115,
      "Ġmoral": 8116,
      "ĠPrin": 8117,
      "bow": 8118,
      "ĠPak": 8119,
      "ĠUlt": 8120,
      "Ġundert": 8121,
      "Ġzero": 8122,
      "Ġlaptop": 8123,
      "Ġske": 8124,
      "Ġbomb": 8125,
      "ĠFred": 8126,
      "ortion": 8127,
      "Ġlegit": 8128,
      "Ġcalendar": 8129,
      "anguages": 8130,
      "ĠRadio": 8131,
      "heast": 8132,
      "Ġwake": 8133,
      "Ġmm": 8134,
      "ĠRen": 8135,
      "Ġspots": 8136,
      "Ġequally": 8137,
      "roller": 8138,
      "Ġmerely": 8139,
      "bar": 8140,
      "days": 8141,
      "Ġbars": 8142,
      "Ġloving": 8143,
      "Ġalt": 8144,
      "agan": 8145,
      "ruption": 8146,
      "Ġchest": 8147,
      "Ġlaid": 8148,
      "Ġreduction": 8149,
      "ĠMembers": 8150,
      "Car": 8151,
      "Ġlatter": 8152,
      "ĠBudd": 8153,
      "ĠSeattle": 8154,
      "ĠClin": 8155,
      "Ġcenters": 8156,
      "Ġdepends": 8157,
      "Ġcasual": 8158,
      "Back": 8159,
      "bration": 8160,
      "ĠBrian": 8161,
      "Ġrising": 8162,
      "Ġfinance": 8163,
      "ĠLeon": 8164,
      "Ġpubl": 8165,
      "Ġstruck": 8166,
      "Ã¼": 8167,
      "ashes": 8168,
      "una": 8169,
      "Ġcharm": 8170,
      "ĠMedicine": 8171,
      "Ġparticipation": 8172,
      "ĠDavis": 8173,
      "Ġsoldiers": 8174,
      "ipt": 8175,
      "icide": 8176,
      "Ġgaming": 8177,
      "Ġgentle": 8178,
      "Ġvessel": 8179,
      "Ġracing": 8180,
      "Ġvisible": 8181,
      "Ġlogo": 8182,
      "Ġsuspect": 8183,
      "Ġgene": 8184,
      "abil": 8185,
      "ĠRepublicans": 8186,
      "ĠDemocrats": 8187,
      "MC": 8188,
      "bits": 8189,
      "pany": 8190,
      "Ġtum": 8191,
      "Ġma": 8192,
      "Ġbaseball": 8193,
      "Ġunex": 8194,
      "Ġpreparation": 8195,
      "onto": 8196,
      "Ġflying": 8197,
      "ĠTool": 8198,
      "utter": 8199,
      "âĢĻ.": 8200,
      "ĠHun": 8201,
      "Ġspark": 8202,
      "Ġraising": 8203,
      "Ġfraud": 8204,
      "Ġframework": 8205,
      "Ġbench": 8206,
      "Book": 8207,
      "rer": 8208,
      "atell": 8209,
      "izabeth": 8210,
      "Ġimper": 8211,
      "Ġlists": 8212,
      "oked": 8213,
      "burgh": 8214,
      "-cent": 8215,
      "Ġpul": 8216,
      "anes": 8217,
      "Ġinch": 8218,
      "ĠBit": 8219,
      "riter": 8220,
      "Ġraw": 8221,
      "Ġbell": 8222,
      "Ġads": 8223,
      "Ġcontained": 8224,
      "ĠRequ": 8225,
      "upid": 8226,
      "ĠClinton": 8227,
      "-de": 8228,
      "Ġdestination": 8229,
      "Ġarchitecture": 8230,
      "ĠHoly": 8231,
      "Ġchannels": 8232,
      "Ġshoulder": 8233,
      "Ġdemands": 8234,
      "ĠLinda": 8235,
      "ritten": 8236,
      "Ġbact": 8237,
      "Ġboss": 8238,
      "ĠCond": 8239,
      "kel": 8240,
      "Ġseats": 8241,
      "Ġconnections": 8242,
      "ĠEdition": 8243,
      "Ġcomparison": 8244,
      "Ġanswered": 8245,
      "Ġrecon": 8246,
      "Ġconsists": 8247,
      "Ġaccessories": 8248,
      "Ġencouraged": 8249,
      "Ġsed": 8250,
      "Ġhospit": 8251,
      "ĠTreat": 8252,
      "Ġfindings": 8253,
      "ESS": 8254,
      "ĠBuilding": 8255,
      "Ġdisplayed": 8256,
      "Ġconsequences": 8257,
      "Ġbone": 8258,
      "gel": 8259,
      "ulpt": 8260,
      "Ġpointed": 8261,
      "Ġexplos": 8262,
      "Ġrequested": 8263,
      "Ġmistake": 8264,
      "fin": 8265,
      "oric": 8266,
      "Ġpresents": 8267,
      "Ġfilter": 8268,
      "Ġpassword": 8269,
      "iking": 8270,
      "AND": 8271,
      "Ġsuperior": 8272,
      "Ġsubsid": 8273,
      "ĠQueen": 8274,
      "ĠâĢĻ": 8275,
      "Gu": 8276,
      "ceeds": 8277,
      "usal": 8278,
      "Ġarmy": 8279,
      "Ġclassroom": 8280,
      "Ġhosted": 8281,
      "adelph": 8282,
      "AF": 8283,
      "HS": 8284,
      "Ġtired": 8285,
      "Ġcam": 8286,
      "Ġloud": 8287,
      "Ġexceed": 8288,
      "ĠName": 8289,
      "Ġcontrolled": 8290,
      "Ġbehalf": 8291,
      "Ġtraveling": 8292,
      "Ġadopted": 8293,
      "Ġjuice": 8294,
      "cont": 8295,
      "Ġcul": 8296,
      "Ġyard": 8297,
      "Ġmeets": 8298,
      "Ġdiabetes": 8299,
      "Ġelectrical": 8300,
      "ĠSenior": 8301,
      "Ġinfection": 8302,
      "/m": 8303,
      "Good": 8304,
      "Ġfirms": 8305,
      "Ġleather": 8306,
      "izer": 8307,
      "Ġoffensive": 8308,
      "Ġperformances": 8309,
      "Ġtracking": 8310,
      "missions": 8311,
      "Ġupgrade": 8312,
      "Ġwireless": 8313,
      "-N": 8314,
      "iac": 8315,
      "mates": 8316,
      "Ġfib": 8317,
      "Ġbass": 8318,
      "rove": 8319,
      "etary": 8320,
      "ĠMach": 8321,
      "ĠWH": 8322,
      "Ġdeck": 8323,
      "Ġru": 8324,
      "Ġlegend": 8325,
      "ĠUk": 8326,
      "Ġpurchasing": 8327,
      "Ġassistant": 8328,
      "Ġcovering": 8329,
      "Ġsuddenly": 8330,
      "EG": 8331,
      "Pub": 8332,
      "Ġwave": 8333,
      "Ġreject": 8334,
      "ĠDallas": 8335,
      "Ġrural": 8336,
      "eling": 8337,
      "ĠUnfortunately": 8338,
      "Ġopposition": 8339,
      "orgeous": 8340,
      "ĠForest": 8341,
      "ĠSummer": 8342,
      "Ġhel": 8343,
      "Ġairport": 8344,
      "ĠRomney": 8345,
      "ĠIreland": 8346,
      "Ġcm": 8347,
      "Ġgiant": 8348,
      "ĠPS": 8349,
      "ĠNO": 8350,
      "ĠViet": 8351,
      "Ġtransaction": 8352,
      "pending": 8353,
      "Ġdecline": 8354,
      "Ġgranted": 8355,
      "Tube": 8356,
      "born": 8357,
      "Ġsorry": 8358,
      "Ġworried": 8359,
      "ĠVill": 8360,
      "ĠChampionship": 8361,
      "Ġlisting": 8362,
      "ĠMinnesota": 8363,
      "Ġrecommendations": 8364,
      "Best": 8365,
      "press": 8366,
      "Ġcoc": 8367,
      "Ġenforcement": 8368,
      "Ġarray": 8369,
      "Ġjoining": 8370,
      "ĠFilm": 8371,
      "Ġretirement": 8372,
      "Ġpipe": 8373,
      "ali": 8374,
      "ĠSH": 8375,
      "ilty": 8376,
      "Ġhaz": 8377,
      "Ġjur": 8378,
      "acher": 8379,
      "iah": 8380,
      "Ġresidential": 8381,
      "Ġfrustr": 8382,
      "Ġindustries": 8383,
      "Ġstaying": 8384,
      "Ġvolunteer": 8385,
      "Ġunusual": 8386,
      "Will": 8387,
      "och": 8388,
      "anted": 8389,
      "Ġkilling": 8390,
      "Ġadmitted": 8391,
      "Ġunem": 8392,
      "Ġpepper": 8393,
      "Ġaccord": 8394,
      "Ġsynt": 8395,
      "Ġentering": 8396,
      "Ġdiseases": 8397,
      "ambling": 8398,
      "ĠWilson": 8399,
      ",âĢĻ": 8400,
      "ĠBase": 8401,
      "Ġchart": 8402,
      "ourse": 8403,
      "izza": 8404,
      "Ġflower": 8405,
      "Ġattitude": 8406,
      "Ġrefund": 8407,
      "ĠExam": 8408,
      "Ġlesson": 8409,
      "Ġapplicable": 8410,
      "Ġdeaths": 8411,
      "Ġawarded": 8412,
      "Ġcolleagues": 8413,
      "Ġrapidly": 8414,
      "boy": 8415,
      "fall": 8416,
      "Ġlip": 8417,
      "stal": 8418,
      "Ġstrict": 8419,
      "ĠNatural": 8420,
      "Ġplain": 8421,
      "Ġextension": 8422,
      "Ġvolunteers": 8423,
      "Ġbrilliant": 8424,
      "Lear": 8425,
      "enth": 8426,
      "ĠGarden": 8427,
      "uma": 8428,
      "ogy": 8429,
      "Ġunion": 8430,
      "Ġcertified": 8431,
      "Ġmerch": 8432,
      "Ġmanufacturer": 8433,
      "ĠType": 8434,
      "Ġ;": 8435,
      "CS": 8436,
      "MI": 8437,
      "Ġtape": 8438,
      "ĠNorthern": 8439,
      "Ġessentially": 8440,
      "Ġspeaker": 8441,
      "Ġscheme": 8442,
      "ĠDrive": 8443,
      "eness": 8444,
      "Ġdiversity": 8445,
      "Ġlung": 8446,
      "Ġaband": 8447,
      "ĠStill": 8448,
      "aws": 8449,
      "Ġprogramming": 8450,
      "-part": 8451,
      "Ġconcert": 8452,
      "Ġmanufacturers": 8453,
      "alo": 8454,
      "ĠBh": 8455,
      "ĠBand": 8456,
      "ĠDam": 8457,
      "ĠDaniel": 8458,
      "Ġdispl": 8459,
      "Ġtrave": 8460,
      "Ġchildhood": 8461,
      "ĠOrig": 8462,
      "Ġstrongly": 8463,
      "ĠPerhaps": 8464,
      "ĠBuy": 8465,
      "ĠBrook": 8466,
      "cm": 8467,
      "Ġtap": 8468,
      "Ġtomat": 8469,
      "ĠMiller": 8470,
      "ĠNon": 8471,
      "aza": 8472,
      "âĢĶand": 8473,
      "Ġrequirement": 8474,
      "Ġboxes": 8475,
      "%,": 8476,
      "zed": 8477,
      "Ġmixture": 8478,
      "Ġindu": 8479,
      "Ġstored": 8480,
      "pled": 8481,
      "ĠChamber": 8482,
      "ĠAdam": 8483,
      "Ġcomplicated": 8484,
      "wan": 8485,
      "Ġbaking": 8486,
      "Ġpushed": 8487,
      "Ġdental": 8488,
      "ĠFun": 8489,
      "Ġexhaust": 8490,
      "Ġuncom": 8491,
      "liers": 8492,
      "Ġattempts": 8493,
      ".gov": 8494,
      "Ġrarely": 8495,
      "Ġbasketball": 8496,
      "GE": 8497,
      "iders": 8498,
      "ĠCN": 8499,
      "riers": 8500,
      "Ġsmoke": 8501,
      "Ġsuggestions": 8502,
      "Ġwarning": 8503,
      "omer": 8504,
      "Ġnations": 8505,
      "ĠHas": 8506,
      "Ġremoval": 8507,
      "Ġapproaches": 8508,
      "pson": 8509,
      "Ġfalls": 8510,
      "|US": 8511,
      "Ġocean": 8512,
      "alty": 8513,
      "ateful": 8514,
      "Ġadmit": 8515,
      "omething": 8516,
      "Ġinsight": 8517,
      "ugs": 8518,
      "-friendly": 8519,
      "AV": 8520,
      "Each": 8521,
      "rated": 8522,
      "Ð°": 8523,
      "Ġfru": 8524,
      "ulum": 8525,
      "ĠHT": 8526,
      "Ġcoat": 8527,
      "ĠOrder": 8528,
      "ilipp": 8529,
      "Ġrestrictions": 8530,
      "ught": 8531,
      "Ġconventional": 8532,
      "worth": 8533,
      "words": 8534,
      "Ġoven": 8535,
      "ĠPur": 8536,
      "iffe": 8537,
      "Ġdeeper": 8538,
      "Ġunp": 8539,
      "who": 8540,
      "Ġcharacteristics": 8541,
      "ĠTravel": 8542,
      "ĠJudge": 8543,
      "ĠSoftware": 8544,
      "Ġerrors": 8545,
      "nce": 8546,
      "she": 8547,
      "Ġborrow": 8548,
      "Ġmac": 8549,
      "Ġgained": 8550,
      "ĠLy": 8551,
      "ĠLew": 8552,
      "Ġvent": 8553,
      "ĠShould": 8554,
      "Ġexposed": 8555,
      "ĠRoman": 8556,
      "vol": 8557,
      "Ġpand": 8558,
      "Ġdual": 8559,
      "Ġreact": 8560,
      "ĠMember": 8561,
      "Ġorange": 8562,
      "ĠEastern": 8563,
      "eping": 8564,
      "Ġgovernments": 8565,
      "Ġnights": 8566,
      "inois": 8567,
      "LS": 8568,
      "Whe": 8569,
      "ĠTry": 8570,
      "Ġlets": 8571,
      "oding": 8572,
      "Ġkeys": 8573,
      "Ġpersonnel": 8574,
      "Ġcontributions": 8575,
      "ĠMagazine": 8576,
      "Ġexhibition": 8577,
      "!!Ċ": 8578,
      "Ġreaching": 8579,
      "Ġgap": 8580,
      "ador": 8581,
      "ĠHold": 8582,
      "Ġshower": 8583,
      "Ġpocket": 8584,
      "Inst": 8585,
      "ounce": 8586,
      "bered": 8587,
      "ĠCarl": 8588,
      "Ġforecast": 8589,
      "Ġparam": 8590,
      "ĠKingdom": 8591,
      "UM": 8592,
      "hand": 8593,
      "ĠBern": 8594,
      "ĠFather": 8595,
      "ĠET": 8596,
      "ĠEth": 8597,
      "Ġshirt": 8598,
      "ailed": 8599,
      "Ġpersonality": 8600,
      "Ġopens": 8601,
      "ĠHawai": 8602,
      "Ġsubstantial": 8603,
      "Ġphilosophy": 8604,
      "ĠHouston": 8605,
      "Ġweird": 8606,
      "ĠFREE": 8607,
      "Ġcontaining": 8608,
      "Ġactor": 8609,
      "Ġactors": 8610,
      "ĠAnth": 8611,
      "ĠAfghan": 8612,
      "ĠServer": 8613,
      "Ġratio": 8614,
      "DP": 8615,
      "Ã¶": 8616,
      "Ġcomprom": 8617,
      "ĠKat": 8618,
      "onder": 8619,
      "ĠSection": 8620,
      "Ġhyper": 8621,
      "People": 8622,
      "ĠâĨĴ": 8623,
      "Ġmad": 8624,
      "lections": 8625,
      "Ġlin": 8626,
      "irus": 8627,
      "Ġsharp": 8628,
      "Ġwanting": 8629,
      "Ġassault": 8630,
      "ĠColumbia": 8631,
      "oam": 8632,
      "edge": 8633,
      "Ġexists": 8634,
      "Ġchampion": 8635,
      "Ġadequ": 8636,
      "ĠStory": 8637,
      "ĠProcess": 8638,
      "iscal": 8639,
      "uct": 8640,
      "Ġtill": 8641,
      "ĠCON": 8642,
      "ĠMiami": 8643,
      "ĠGreg": 8644,
      "Ġchronic": 8645,
      "Ġfewer": 8646,
      "Ġheading": 8647,
      "Ġportfol": 8648,
      "Ġauthentic": 8649,
      "Ġjewel": 8650,
      "Ġloyal": 8651,
      "ĠSales": 8652,
      "Ġorient": 8653,
      "Ġsections": 8654,
      "apse": 8655,
      "Ġpreparing": 8656,
      "Ġprinting": 8657,
      "-quality": 8658,
      "Ġceremony": 8659,
      "Ġfascin": 8660,
      "-op": 8661,
      "Sec": 8662,
      "ĠTal": 8663,
      "ĠDO": 8664,
      "Ġsegment": 8665,
      "ĠNation": 8666,
      "Ġassigned": 8667,
      "Ġinteraction": 8668,
      "ĠConnect": 8669,
      "Ġpacked": 8670,
      "adelphia": 8671,
      "'Ċ": 8672,
      "Ã¢": 8673,
      "Ġbold": 8674,
      "owed": 8675,
      "Ġunknown": 8676,
      "Ġstring": 8677,
      "ĠÂ©": 8678,
      "Ġresponses": 8679,
      "ĠAgency": 8680,
      "Ġmaintaining": 8681,
      "Ġuncertain": 8682,
      "Ġ|Ċ": 8683,
      "ĠCase": 8684,
      "Ġsomehow": 8685,
      "Ġscoring": 8686,
      "Ġphones": 8687,
      "Ġrepresented": 8688,
      "IGH": 8689,
      "Ġopinions": 8690,
      "Ġdanger": 8691,
      "iot": 8692,
      "Ġtoler": 8693,
      "ĠNick": 8694,
      "udes": 8695,
      "Ġenables": 8696,
      "Ġuniverse": 8697,
      "Ġcombat": 8698,
      "Ġrespectively": 8699,
      "Ġrecipes": 8700,
      "Wor": 8701,
      "Ġsomebody": 8702,
      "cludes": 8703,
      "Ġdamaged": 8704,
      "Ġprol": 8705,
      "Ġconclusion": 8706,
      "Ġsetup": 8707,
      "Ġminister": 8708,
      "Ġextract": 8709,
      "ĠTele": 8710,
      "ĠInsurance": 8711,
      "ĠLearning": 8712,
      "ĠIslam": 8713,
      "ĠMichel": 8714,
      "intend": 8715,
      "ĠProm": 8716,
      "ĠDom": 8717,
      "ĠKansas": 8718,
      "ĠChallen": 8719,
      "erman": 8720,
      "Ġtransactions": 8721,
      "Ġinitially": 8722,
      "Ġspeakers": 8723,
      "Ġblend": 8724,
      "Oct": 8725,
      "erk": 8726,
      "Ġokay": 8727,
      "eties": 8728,
      "etts": 8729,
      "ilton": 8730,
      "ĠMir": 8731,
      "ĠLLC": 8732,
      "ĠUr": 8733,
      "Ġacceler": 8734,
      "Ġsurve": 8735,
      "Ġbooking": 8736,
      "ĠKevin": 8737,
      "ĠExperience": 8738,
      "Ġupload": 8739,
      "Ġsouthern": 8740,
      "ĠSC": 8741,
      "ĠAp": 8742,
      "ĠCapt": 8743,
      "ila": 8744,
      "Ġstir": 8745,
      "Ġchecking": 8746,
      "Ġkeyboard": 8747,
      "Ġdeclared": 8748,
      "ĠProduct": 8749,
      "ĠStock": 8750,
      "Ġcontracts": 8751,
      "sis": 8752,
      "ĠCivil": 8753,
      "Ġstable": 8754,
      "Ġheaven": 8755,
      "ifting": 8756,
      "Ġcolon": 8757,
      "Ġsmoking": 8758,
      "cribed": 8759,
      "Ġcompensation": 8760,
      "http": 8761,
      ".M": 8762,
      "Aut": 8763,
      "EX": 8764,
      "Under": 8765,
      "à¸": 8766,
      "Ġtied": 8767,
      "Ġtoile": 8768,
      "Ġmob": 8769,
      "ĠHaving": 8770,
      "Ġrum": 8771,
      "ĠEvent": 8772,
      "Ġoffense": 8773,
      "Ġminds": 8774,
      "Ġdescribes": 8775,
      "Ġcameras": 8776,
      "Ġobjective": 8777,
      "rus": 8778,
      "Ġmold": 8779,
      "Ġgig": 8780,
      "ĠTable": 8781,
      "verty": 8782,
      "Ġstages": 8783,
      "ĠFall": 8784,
      "Ġdollar": 8785,
      "Part": 8786,
      "vas": 8787,
      "anth": 8788,
      "ĠHart": 8789,
      "ĠDun": 8790,
      "ĠVery": 8791,
      "Ġemotions": 8792,
      "inter": 8793,
      "inos": 8794,
      "Ġtoxic": 8795,
      "Ġrely": 8796,
      "ĠAge": 8797,
      "ĠBuff": 8798,
      "ĠEss": 8799,
      "inding": 8800,
      "achus": 8801,
      "Ġspecialist": 8802,
      "Ġenjoying": 8803,
      "Ġtemporary": 8804,
      "clusive": 8805,
      "ĠMuslim": 8806,
      "Ġstrengt": 8807,
      "KE": 8808,
      "RL": 8809,
      "oz": 8810,
      "organ": 8811,
      "Ġabund": 8812,
      "angers": 8813,
      "ĠCommon": 8814,
      "ĠSpain": 8815,
      "Ġofficially": 8816,
      "ĠKorea": 8817,
      "Ġhide": 8818,
      "Ġloose": 8819,
      "olid": 8820,
      "agraph": 8821,
      "Ġmyth": 8822,
      "Ġscan": 8823,
      "Ġdrama": 8824,
      "ART": 8825,
      "Ġensuring": 8826,
      "Ġcatalog": 8827,
      "Ġelectricity": 8828,
      "ĠIslamic": 8829,
      "aa": 8830,
      "onic": 8831,
      "ĠIde": 8832,
      "ĠCO": 8833,
      "abama": 8834,
      "pection": 8835,
      "ĠHeart": 8836,
      "Ġchecked": 8837,
      "Ġassociation": 8838,
      "ĠAnton": 8839,
      "Ġmortgage": 8840,
      "ĠAtlanta": 8841,
      "Ġdivided": 8842,
      "itis": 8843,
      "Ġlady": 8844,
      "raine": 8845,
      "Ġsup": 8846,
      "Ġscores": 8847,
      "ĠUSB": 8848,
      "ĠPrime": 8849,
      "ĠGuard": 8850,
      "Ġcircle": 8851,
      "ĠStandard": 8852,
      "-class": 8853,
      "Ġsacr": 8854,
      "Ġequivalent": 8855,
      "cular": 8856,
      "ĠMD": 8857,
      "ĠPut": 8858,
      "ĠPain": 8859,
      "ĠNic": 8860,
      "andy": 8861,
      "Ġoutcomes": 8862,
      "Ġbuff": 8863,
      "Ġcriteria": 8864,
      "Ġconcepts": 8865,
      "Ġgraphics": 8866,
      "hyth": 8867,
      "Ġcopies": 8868,
      "Take": 8869,
      "df": 8870,
      "Ġbite": 8871,
      "olar": 8872,
      "ĠMs": 8873,
      "ĠBat": 8874,
      "ensus": 8875,
      "ĠSelect": 8876,
      "ĠÂ»": 8877,
      "Ġcompliance": 8878,
      "Ġprincipal": 8879,
      "Ġreveal": 8880,
      "gor": 8881,
      "Ġcig": 8882,
      "igate": 8883,
      "unate": 8884,
      "ĠAsk": 8885,
      "Ġcalm": 8886,
      "Ġcontribution": 8887,
      "makers": 8888,
      "ardens": 8889,
      "Ġremem": 8890,
      "Ġsingles": 8891,
      "irlines": 8892,
      "Ġlosses": 8893,
      "Ġconservative": 8894,
      "-he": 8895,
      ".J": 8896,
      "/C": 8897,
      "iary": 8898,
      "ĠCredit": 8899,
      "Ġstomach": 8900,
      "umer": 8901,
      "Ġabroad": 8902,
      "Ġformula": 8903,
      "Ġprize": 8904,
      "Ġrepresentative": 8905,
      "ĠLearn": 8906,
      "Ġnewspaper": 8907,
      "Ġangle": 8908,
      "ĠLatin": 8909,
      "Ġpoverty": 8910,
      "Ġindicated": 8911,
      "lee": 8912,
      "Ġriding": 8913,
      "phones": 8914,
      "ĠYouTube": 8915,
      "-cont": 8916,
      "Ġopposed": 8917,
      "Ġpig": 8918,
      "Ġham": 8919,
      "ĠTalk": 8920,
      "Ġseeds": 8921,
      "Ġdeploy": 8922,
      "ĠLocal": 8923,
      "Ġvibr": 8924,
      "Ġemissions": 8925,
      "Ġproved": 8926,
      "Ġsynd": 8927,
      "-for": 8928,
      "ERE": 8929,
      "Ġwondering": 8930,
      "ĠBarb": 8931,
      "Ġtargeted": 8932,
      "Ġswimming": 8933,
      "ĠIce": 8934,
      "Ġhes": 8935,
      "ĠBad": 8936,
      "aka": 8937,
      "Ġuniform": 8938,
      "ĠBeing": 8939,
      "Ġpossess": 8940,
      "ĠSteel": 8941,
      "Ġroads": 8942,
      "ĠElizabeth": 8943,
      "Ġacquis": 8944,
      "ĠReviews": 8945,
      "Ġsatisfaction": 8946,
      "Ġgrocer": 8947,
      "-con": 8948,
      "Press": 8949,
      "hire": 8950,
      "oard": 8951,
      "viously": 8952,
      "rets": 8953,
      "ori": 8954,
      "Ġmg": 8955,
      "Ġgorgeous": 8956,
      "Ġrice": 8957,
      "ĠEst": 8958,
      "Ġinstruction": 8959,
      "Ġbuyers": 8960,
      "Ġacquired": 8961,
      "Monday": 8962,
      "Rem": 8963,
      "vals": 8964,
      "ĠCS": 8965,
      "iley": 8966,
      "Ġguilty": 8967,
      "Stud": 8968,
      "Ġvotes": 8969,
      "Ġsurvival": 8970,
      "Ġphotographs": 8971,
      "Ġenemy": 8972,
      "ja": 8973,
      "ĠSir": 8974,
      "ĠSem": 8975,
      "ĠCamer": 8976,
      "Ġminimal": 8977,
      "Ġintellectual": 8978,
      "Ġownership": 8979,
      "Ġvegetables": 8980,
      "Ġproport": 8981,
      "Ġouts": 8982,
      "Ġstudied": 8983,
      "ORE": 8984,
      "Ġintroduce": 8985,
      "Ġterrible": 8986,
      "Ġranked": 8987,
      "ylvania": 8988,
      "Ġcotton": 8989,
      "Ġstations": 8990,
      "Ġsevent": 8991,
      "Ġkiss": 8992,
      "ibl": 8993,
      "ronics": 8994,
      "ILL": 8995,
      "Ġstruggling": 8996,
      "/D": 8997,
      "mble": 8998,
      "onth": 8999,
      "Ġfilling": 9000,
      "Ġly": 9001,
      "ĠGM": 9002,
      "acular": 9003,
      "Ġspin": 9004,
      "Ġblow": 9005,
      "bsite": 9006,
      "ĠProper": 9007,
      "Ġski": 9008,
      "Ġrefuge": 9009,
      "Ġgrace": 9010,
      "-line": 9011,
      "Med": 9012,
      "Ġstupid": 9013,
      "ĠPu": 9014,
      "ĠJay": 9015,
      "icket": 9016,
      "Ġque": 9017,
      "clude": 9018,
      "Ġplayoff": 9019,
      "ĠAsian": 9020,
      "ĠBridge": 9021,
      "Ġperiods": 9022,
      "ĠRetrieved": 9023,
      "Ġfingers": 9024,
      "BM": 9025,
      "Ġwisdom": 9026,
      "Ġdowntown": 9027,
      "stic": 9028,
      "sole": 9029,
      "ervice": 9030,
      "Ġengaging": 9031,
      "ĠComputer": 9032,
      "-hand": 9033,
      "Art": 9034,
      "ouri": 9035,
      "ĠCut": 9036,
      "ĠBang": 9037,
      "asting": 9038,
      "Ġhighlights": 9039,
      "Ġapplying": 9040,
      "Ġheavily": 9041,
      "achusetts": 9042,
      "Em": 9043,
      "omed": 9044,
      "Ġhack": 9045,
      "Ġbless": 9046,
      "ĠRef": 9047,
      "ĠContent": 9048,
      "Ġstatistics": 9049,
      "low": 9050,
      "Ġfest": 9051,
      "Ġdies": 9052,
      "ĠDave": 9053,
      "ĠDNA": 9054,
      "ĠLiving": 9055,
      "ĠOx": 9056,
      "ĠKh": 9057,
      "rowse": 9058,
      "ĠRegist": 9059,
      "Ġgolden": 9060,
      "Ġenthusi": 9061,
      "Ġperm": 9062,
      "avor": 9063,
      "Ġintention": 9064,
      "Ġfocusing": 9065,
      "Ġinterviews": 9066,
      "ĠIllinois": 9067,
      "cest": 9068,
      "dney": 9069,
      "Ġhunt": 9070,
      "ĠIC": 9071,
      "ĠOK": 9072,
      "Ġdozen": 9073,
      "ĠChange": 9074,
      "intage": 9075,
      "Ġvisits": 9076,
      "Ġprivile": 9077,
      "Ġclubs": 9078,
      "Ġunexpected": 9079,
      "-min": 9080,
      "IO": 9081,
      "athered": 9082,
      "Ġhip": 9083,
      "irk": 9084,
      "ĠDream": 9085,
      "Ġadj": 9086,
      "ouses": 9087,
      "Ġdisaster": 9088,
      "UD": 9089,
      "Welcome": 9090,
      "ĠLas": 9091,
      "ĠGa": 9092,
      "ĠED": 9093,
      "acked": 9094,
      "Ġsolo": 9095,
      "Ġlifetime": 9096,
      "Ġnose": 9097,
      "ĠBody": 9098,
      "ĠJun": 9099,
      "Ġkit": 9100,
      "Ġhearts": 9101,
      "Ġcombine": 9102,
      "Ġintegration": 9103,
      "Ġaccuracy": 9104,
      "person": 9105,
      "nders": 9106,
      "ĠTR": 9107,
      "ĠMoon": 9108,
      "Ġrelation": 9109,
      "Ġbranch": 9110,
      "Ġcourts": 9111,
      "Ġutility": 9112,
      "Step": 9113,
      "ĠProtection": 9114,
      "Ġpandemic": 9115,
      "Sim": 9116,
      "don": 9117,
      "pa": 9118,
      "esy": 9119,
      "eng": 9120,
      "theless": 9121,
      "Ġtrips": 9122,
      "Ġinnoc": 9123,
      "regon": 9124,
      "Donald": 9125,
      "Ġdramatic": 9126,
      "ĠðŁ": 9127,
      "GR": 9128,
      "arly": 9129,
      "Ġpermit": 9130,
      "Ġdismiss": 9131,
      "Ġfranch": 9132,
      "Ġdrives": 9133,
      "Ġbreaks": 9134,
      "ĠDespite": 9135,
      "aire": 9136,
      "vation": 9137,
      "Ġmask": 9138,
      "Ġlift": 9139,
      "Ġlanguages": 9140,
      "ĠIM": 9141,
      "ĠThink": 9142,
      "Ġspa": 9143,
      "Ġspir": 9144,
      "ocks": 9145,
      "Ġadvent": 9146,
      "ffective": 9147,
      "Ġmuscles": 9148,
      "Ġwinners": 9149,
      "Ġsinger": 9150,
      "ĠWithout": 9151,
      "Ġemerging": 9152,
      "Ġburning": 9153,
      "Ġcorrectly": 9154,
      "ĠIndiana": 9155,
      "ĠProfessional": 9156,
      "==": 9157,
      "oors": 9158,
      "rary": 9159,
      "uana": 9160,
      "ĠTerm": 9161,
      "Ġstability": 9162,
      "olis": 9163,
      "rive": 9164,
      "ĠRog": 9165,
      "ĠLA": 9166,
      "quis": 9167,
      "ĠQuality": 9168,
      "Ġelsewhere": 9169,
      "Ġvoted": 9170,
      "Ġimplemented": 9171,
      "Ġfarmers": 9172,
      "Ġworkshop": 9173,
      "Ġlicensed": 9174,
      "Â©": 9175,
      "Ġwhilst": 9176,
      "ĠPsych": 9177,
      "ĠWas": 9178,
      "ĠOak": 9179,
      "acon": 9180,
      "Ġscope": 9181,
      "ĠAllen": 9182,
      "Ġequipped": 9183,
      "ĠTrade": 9184,
      "Ġemployed": 9185,
      "Ġcelebration": 9186,
      "Ġmirror": 9187,
      "Ġ~": 9188,
      "Copyright": 9189,
      "wich": 9190,
      "yard": 9191,
      "Ġterr": 9192,
      "ĠMade": 9193,
      "Ġoral": 9194,
      "ckets": 9195,
      "Ġexport": 9196,
      "ĠEX": 9197,
      "Ġresort": 9198,
      "Ġdesper": 9199,
      "ĠConvention": 9200,
      "ĠBrother": 9201,
      "unnels": 9202,
      "ds": 9203,
      "aron": 9204,
      "ustration": 9205,
      "Ġscreens": 9206,
      "week": 9207,
      "ennes": 9208,
      "Ġtermin": 9209,
      "ĠStephen": 9210,
      "Ġexplanation": 9211,
      "sylvania": 9212,
      "Ġbes": 9213,
      "Ġneut": 9214,
      "Ġpursue": 9215,
      "ĠIndepend": 9216,
      "Ġhotels": 9217,
      "ĠSmart": 9218,
      "Ġguaranteed": 9219,
      "ĠiPad": 9220,
      "ĠSarah": 9221,
      "owa": 9222,
      "ĠPA": 9223,
      "Ġcomedy": 9224,
      "ordinary": 9225,
      "Ġpreced": 9226,
      "-hour": 9227,
      "Ġarrival": 9228,
      "Ġjudgment": 9229,
      "âĤ¬": 9230,
      "Ġbid": 9231,
      "Ġgate": 9232,
      "ĠTony": 9233,
      "ĠLat": 9234,
      "Ġpeak": 9235,
      "Ġmaintained": 9236,
      "Ġviewing": 9237,
      "Ġphenomen": 9238,
      "/Ċ": 9239,
      "reation": 9240,
      "Ġfiction": 9241,
      "ifier": 9242,
      "ulator": 9243,
      "ĠJam": 9244,
      "Ġfocuses": 9245,
      "ĠPhiladelphia": 9246,
      "Ġestimates": 9247,
      "Ġtutorial": 9248,
      "Work": 9249,
      "ĠSep": 9250,
      "Ġalter": 9251,
      "Ġkil": 9252,
      "ĠHell": 9253,
      "Ġattach": 9254,
      "ĠAdvent": 9255,
      "Ġimportantly": 9256,
[...]
